{
  "version": "1.0",
  "truncation": null,
  "padding": null,
  "added_tokens": [
    {
      "id": 0,
      "content": "<unk>",
      "single_word": false,
      "lstrip": false,
      "rstrip": false,
      "normalized": false,
      "special": true
    },
    {
      "id": 1,
      "content": "<s>",
      "single_word": false,
      "lstrip": false,
      "rstrip": false,
      "normalized": false,
      "special": true
    },
    {
      "id": 2,
      "content": "</s>",
      "single_word": false,
      "lstrip": false,
      "rstrip": false,
      "normalized": false,
      "special": true
    }
  ],
  "normalizer": {
    "type": "Sequence",
    "normalizers": [
      {
        "type": "NFKC"
      }
    ]
  },
  "pre_tokenizer": {
    "type": "Sequence",
    "pretokenizers": [
      {
        "type": "Split",
        "pattern": {
          "Regex": " "
        },
        "behavior": "MergedWithNext",
        "invert": false
      },
      {
        "type": "Split",
        "pattern": {
          "Regex": "\\d|[\\u2E80-\\u2FDF\\u3040-\\u318F\\u31A0-\\u31BF\\u31F0-\\u31FF\\u3400-\\u4DB5\\u4E00-\\u9FFF\\uA960-\\uA97F\\uAC00-\\uD7FF]"
        },
        "behavior": "Isolated",
        "invert": false
      },
      {
        "type": "Split",
        "pattern": {
          "Regex": " *(\\w+|[^\\w\\s]+)"
        },
        "behavior": "Isolated",
        "invert": false
      },
      {
        "type": "ByteLevel",
        "add_prefix_space": false,
        "trim_offsets": true,
        "use_regex": false
      }
    ]
  },
  "post_processor": null,
  "decoder": {
    "type": "Sequence",
    "decoders": [
      {
        "type": "ByteLevel",
        "add_prefix_space": true,
        "trim_offsets": true,
        "use_regex": true
      }
    ]
  },
  "model": {
    "type": "BPE",
    "dropout": null,
    "unk_token": "<unk>",
    "continuing_subword_prefix": null,
    "end_of_word_suffix": null,
    "fuse_unk": true,
    "byte_fallback": false,
    "ignore_merges": false,
    "vocab": {
      "<unk>": 0,
      "<s>": 1,
      "</s>": 2,
      "!": 3,
      "\"": 4,
      "#": 5,
      "$": 6,
      "%": 7,
      "&": 8,
      "'": 9,
      "(": 10,
      ")": 11,
      "*": 12,
      "+": 13,
      ",": 14,
      "-": 15,
      ".": 16,
      "/": 17,
      "0": 18,
      "1": 19,
      "2": 20,
      "3": 21,
      "4": 22,
      "5": 23,
      "6": 24,
      "7": 25,
      "8": 26,
      "9": 27,
      ":": 28,
      ";": 29,
      "<": 30,
      "=": 31,
      ">": 32,
      "?": 33,
      "@": 34,
      "A": 35,
      "B": 36,
      "C": 37,
      "D": 38,
      "E": 39,
      "F": 40,
      "G": 41,
      "H": 42,
      "I": 43,
      "J": 44,
      "K": 45,
      "L": 46,
      "M": 47,
      "N": 48,
      "O": 49,
      "P": 50,
      "Q": 51,
      "R": 52,
      "S": 53,
      "T": 54,
      "U": 55,
      "V": 56,
      "W": 57,
      "X": 58,
      "Y": 59,
      "Z": 60,
      "[": 61,
      "\\": 62,
      "]": 63,
      "^": 64,
      "_": 65,
      "`": 66,
      "a": 67,
      "b": 68,
      "c": 69,
      "d": 70,
      "e": 71,
      "f": 72,
      "g": 73,
      "h": 74,
      "i": 75,
      "j": 76,
      "k": 77,
      "l": 78,
      "m": 79,
      "n": 80,
      "o": 81,
      "p": 82,
      "q": 83,
      "r": 84,
      "s": 85,
      "t": 86,
      "u": 87,
      "v": 88,
      "w": 89,
      "x": 90,
      "y": 91,
      "z": 92,
      "{": 93,
      "|": 94,
      "}": 95,
      "~": 96,
      "¡": 97,
      "¢": 98,
      "£": 99,
      "¤": 100,
      "¥": 101,
      "¦": 102,
      "§": 103,
      "¨": 104,
      "©": 105,
      "ª": 106,
      "«": 107,
      "¬": 108,
      "®": 109,
      "¯": 110,
      "°": 111,
      "±": 112,
      "²": 113,
      "³": 114,
      "´": 115,
      "µ": 116,
      "¶": 117,
      "·": 118,
      "¸": 119,
      "¹": 120,
      "º": 121,
      "»": 122,
      "¼": 123,
      "½": 124,
      "¾": 125,
      "¿": 126,
      "À": 127,
      "Á": 128,
      "Â": 129,
      "Ã": 130,
      "Ä": 131,
      "Å": 132,
      "Æ": 133,
      "Ç": 134,
      "È": 135,
      "É": 136,
      "Ê": 137,
      "Ë": 138,
      "Ì": 139,
      "Í": 140,
      "Î": 141,
      "Ï": 142,
      "Ð": 143,
      "Ñ": 144,
      "Ò": 145,
      "Ó": 146,
      "Ô": 147,
      "Õ": 148,
      "Ö": 149,
      "×": 150,
      "Ø": 151,
      "Ù": 152,
      "Ú": 153,
      "Û": 154,
      "Ü": 155,
      "Ý": 156,
      "Þ": 157,
      "ß": 158,
      "à": 159,
      "á": 160,
      "â": 161,
      "ã": 162,
      "ä": 163,
      "å": 164,
      "æ": 165,
      "ç": 166,
      "è": 167,
      "é": 168,
      "ê": 169,
      "ë": 170,
      "ì": 171,
      "í": 172,
      "î": 173,
      "ï": 174,
      "ð": 175,
      "ñ": 176,
      "ò": 177,
      "ó": 178,
      "ô": 179,
      "õ": 180,
      "ö": 181,
      "÷": 182,
      "ø": 183,
      "ù": 184,
      "ú": 185,
      "û": 186,
      "ü": 187,
      "ý": 188,
      "þ": 189,
      "ÿ": 190,
      "Ā": 191,
      "ā": 192,
      "Ă": 193,
      "ă": 194,
      "Ą": 195,
      "ą": 196,
      "Ć": 197,
      "ć": 198,
      "Ĉ": 199,
      "ĉ": 200,
      "Ċ": 201,
      "ċ": 202,
      "Č": 203,
      "č": 204,
      "Ď": 205,
      "ď": 206,
      "Đ": 207,
      "đ": 208,
      "Ē": 209,
      "ē": 210,
      "Ĕ": 211,
      "ĕ": 212,
      "Ė": 213,
      "ė": 214,
      "Ę": 215,
      "ę": 216,
      "Ě": 217,
      "ě": 218,
      "Ĝ": 219,
      "ĝ": 220,
      "Ğ": 221,
      "ğ": 222,
      "Ġ": 223,
      "ġ": 224,
      "Ģ": 225,
      "ģ": 226,
      "Ĥ": 227,
      "ĥ": 228,
      "Ħ": 229,
      "ħ": 230,
      "Ĩ": 231,
      "ĩ": 232,
      "Ī": 233,
      "ī": 234,
      "Ĭ": 235,
      "ĭ": 236,
      "Į": 237,
      "į": 238,
      "İ": 239,
      "ı": 240,
      "Ĳ": 241,
      "ĳ": 242,
      "Ĵ": 243,
      "ĵ": 244,
      "Ķ": 245,
      "ķ": 246,
      "ĸ": 247,
      "Ĺ": 248,
      "ĺ": 249,
      "Ļ": 250,
      "ļ": 251,
      "Ľ": 252,
      "ľ": 253,
      "Ŀ": 254,
      "ŀ": 255,
      "Ł": 256,
      "ł": 257,
      "Ń": 258,
      "ss": 259,
      "rt": 260,
      "un": 261,
      "ĠI": 262,
      "ie": 263,
      "ow": 264,
      "ad": 265,
      "so": 266,
      "wa": 267,
      "âĢ": 268,
      "ĠT": 269,
      "em": 270,
      "nc": 271,
      "it": 272,
      "id": 273,
      "ol": 274,
      "ul": 275,
      "na": 276,
      "ĠS": 277,
      "pa": 278,
      "ke": 279,
      "st": 280,
      "pl": 281,
      "sh": 282,
      "ir": 283,
      "im": 284,
      "wh": 285,
      "we": 286,
      "ig": 287,
      "am": 288,
      "ĠA": 289,
      "ith": 290,
      "ĠC": 291,
      "iv": 292,
      "oo": 293,
      "Ġwh": 294,
      "no": 295,
      "Ġwa": 296,
      "po": 297,
      "Ġst": 298,
      "mo": 299,
      "ia": 300,
      "with": 301,
      "ry": 302,
      "Ġwith": 303,
      "Ġf": 304,
      "Ġfo": 305,
      "Ġfor": 306,
      "av": 307,
      "ts": 308,
      "Ġb": 309,
      "ev": 310,
      "ab": 311,
      "Ġit": 312,
      "Ġwe": 313,
      "ĠTh": 314,
      "ay": 315,
      "su": 316,
      "wo": 317,
      "ai": 318,
      "ĠM": 319,
      "ess": 320,
      "ed": 321,
      "čĊ": 322,
      "Ġmo": 323,
      "ni": 324,
      "Ġp": 325,
      "Ġpr": 326,
      "Ġso": 327,
      "Ġpro": 328,
      "he": 329,
      "her": 330,
      "Ġu": 331,
      "ive": 332,
      "ex": 333,
      "nce": 334,
      "in": 335,
      "ĠP": 336,
      "ĠB": 337,
      "rd": 338,
      "âĢĻ": 339,
      "est": 340,
      "Ġfr": 341,
      "Ġv": 342,
      "ag": 343,
      "eve": 344,
      "if": 345,
      "op": 346,
      "Ġno": 347,
      "ck": 348,
      "ther": 349,
      "ave": 350,
      "Ġpa": 351,
      "Ġwo": 352,
      "ĠW": 353,
      "ar": 354,
      "are": 355,
      "Ġare": 356,
      "ap": 357,
      "gr": 358,
      "Ġhe": 359,
      "re": 360,
      "Ġre": 361,
      "ĠThe": 362,
      "ĠH": 363,
      "ov": 364,
      "Ġsu": 365,
      "tu": 366,
      "Ġsh": 367,
      "do": 368,
      "ide": 369,
      "ted": 370,
      "ear": 371,
      "Ġwas": 372,
      "igh": 373,
      "ĠD": 374,
      "Ġex": 375,
      "Ġbu": 376,
      "tt": 377,
      "int": 378,
      "ĠF": 379,
      "the": 380,
      "qu": 381,
      "ist": 382,
      "ha": 383,
      "tha": 384,
      "Ġtha": 385,
      "Ġthat": 386,
      "ĠR": 387,
      "fe": 388,
      "ing": 389,
      "Ġfro": 390,
      "uc": 391,
      "sc": 392,
      "Ġha": 393,
      "ity": 394,
      "Ġdo": 395,
      "Ġ(": 396,
      "have": 397,
      "Ġpe": 398,
      "und": 399,
      "Ġhave": 400,
      "ove": 401,
      "cl": 402,
      "ĠL": 403,
      "Ġfrom": 404,
      "ug": 405,
      "ny": 406,
      "ies": 407,
      "nal": 408,
      "ain": 409,
      "sp": 410,
      "ust": 411,
      "ve": 412,
      "ĠG": 413,
      "Ġby": 414,
      "um": 415,
      "Ġnot": 416,
      "ĠE": 417,
      "ine": 418,
      "sa": 419,
      "ĠN": 420,
      "Ġus": 421,
      "le": 422,
      "ind": 423,
      "ake": 424,
      "ple": 425,
      "rm": 426,
      "uld": 427,
      "Ġint": 428,
      "ls": 429,
      "ight": 430,
      "Ġpo": 431,
      "nts": 432,
      "lu": 433,
      "ld": 434,
      "ĠO": 435,
      "Ġgr": 436,
      "Ġab": 437,
      "ime": 438,
      "Ġh": 439,
      "ugh": 440,
      "red": 441,
      "rn": 442,
      "Ġpl": 443,
      "nin": 444,
      "age": 445,
      "ite": 446,
      "ial": 447,
      "ew": 448,
      "od": 449,
      "ast": 450,
      "Ġba": 451,
      "own": 452,
      "any": 453,
      "Ġk": 454,
      "ĠâĢ": 455,
      "ep": 456,
      "Ġcl": 457,
      "ning": 458,
      "au": 459,
      "ting": 460,
      "Ġj": 461,
      "rk": 462,
      "mi": 463,
      "ef": 464,
      "art": 465,
      "ip": 466,
      "ib": 467,
      "go": 468,
      "rea": 469,
      "Ġle": 470,
      "oc": 471,
      "Ġwhe": 472,
      "Ġwhi": 473,
      "Ġho": 474,
      "ring": 475,
      "Ġeve": 476,
      "ĠJ": 477,
      "os": 478,
      "cu": 479,
      "ook": 480,
      "Ġad": 481,
      "se": 482,
      "Ġse": 483,
      "Ġm": 484,
      "Ġme": 485,
      "Ġma": 486,
      "Ġo": 487,
      "Ġon": 488,
      "Ġor": 489,
      "Ġou": 490,
      "spe": 491,
      "iti": 492,
      "ft": 493,
      "time": 494,
      "Ġhas": 495,
      "low": 496,
      "hing": 497,
      "on": 498,
      "con": 499,
      "Ġcon": 500,
      "ons": 501,
      "ions": 502,
      "tions": 503,
      "eme": 504,
      "ough": 505,
      "Ġbut": 506,
      "ame": 507,
      "port": 508,
      "inc": 509,
      "Ġsa": 510,
      "Ġper": 511,
      "The": 512,
      "Ġher": 513,
      "ĠIn": 514,
      "Ġone": 515,
      "their": 516,
      "Ġtheir": 517,
      "they": 518,
      "ard": 519,
      "Ġthey": 520,
      "Ġout": 521,
      "Ġup": 522,
      "ood": 523,
      "ff": 524,
      "Ġhi": 525,
      "able": 526,
      "og": 527,
      "Ġmore": 528,
      "Ġmy": 529,
      "Ġour": 530,
      "Ġsom": 531,
      "ike": 532,
      "Ġsome": 533,
      "Ġim": 534,
      "Ġhis": 535,
      "ĠU": 536,
      "cha": 537,
      "now": 538,
      "ture": 539,
      "over": 540,
      "oun": 541,
      "cc": 542,
      "dr": 543,
      "Ġcont": 544,
      "onal": 545,
      "hr": 546,
      "tive": 547,
      "Ġun": 548,
      "ren": 549,
      "Ġtime": 550,
      "Ġfa": 551,
      "lt": 552,
      "Ġgo": 553,
      "ue": 554,
      "mm": 555,
      "ong": 556,
      "cr": 557,
      "Ġwhic": 558,
      "Ġwhich": 559,
      "eed": 560,
      "da": 561,
      "Ġabo": 562,
      "ass": 563,
      "led": 564,
      "one": 565,
      "rv": 566,
      "Ġabou": 567,
      "Ġabout": 568,
      "Ġap": 569,
      "Ġsc": 570,
      "tte": 571,
      "ould": 572,
      "ade": 573,
      "ore": 574,
      "lso": 575,
      "Ġinc": 576,
      "Ġ\"": 577,
      "like": 578,
      "Ġve": 579,
      "Ġqu": 580,
      "ire": 581,
      "ty": 582,
      "ga": 583,
      "orm": 584,
      "Ġop": 585,
      "Ġpla": 586,
      "ĠY": 587,
      "ance": 588,
      "Ġhad": 589,
      "Ġinte": 590,
      "Ġfi": 591,
      "hem": 592,
      "sed": 593,
      "ĠK": 594,
      "Ġrec": 595,
      "thing": 596,
      "Ġother": 597,
      "Ġany": 598,
      "also": 599,
      "ud": 600,
      "..": 601,
      "Ġalso": 602,
      "Ġbo": 603,
      "Ġwork": 604,
      "Ġpu": 605,
      "Ġlike": 606,
      "Ġrea": 607,
      "year": 608,
      "nt": 609,
      "ent": 610,
      "ant": 611,
      "ment": 612,
      "ling": 613,
      "old": 614,
      "omm": 615,
      "ree": 616,
      "new": 617,
      "ional": 618,
      "Ġther": 619,
      "Ġfe": 620,
      "Ġwho": 621,
      "them": 622,
      "side": 623,
      "ated": 624,
      "ĠIt": 625,
      "iz": 626,
      "sy": 627,
      "Ġpart": 628,
      "spec": 629,
      "al": 630,
      "all": 631,
      "Ġall": 632,
      "Ġal": 633,
      "cal": 634,
      "ral": 635,
      "ally": 636,
      "form": 637,
      "ĠSt": 638,
      "ĠHe": 639,
      "Ġyear": 640,
      "day": 641,
      "Ġthem": 642,
      "ĠV": 643,
      "Ġwere": 644,
      "fte": 645,
      "sk": 646,
      "Ġpre": 647,
      "rc": 648,
      "ase": 649,
      "son": 650,
      "Ġwhen": 651,
      "Ġar": 652,
      "Ġexp": 653,
      "ose": 654,
      "Ġwha": 655,
      "ys": 656,
      "Ġsta": 657,
      "Ġwould": 658,
      "Ġwhat": 659,
      "ert": 660,
      "ail": 661,
      "Ġif": 662,
      "Ġbr": 663,
      "Ġmi": 664,
      "ish": 665,
      "Ġnew": 666,
      "Ġonl": 667,
      "Ġdr": 668,
      "king": 669,
      "Ġover": 670,
      "ound": 671,
      "ding": 672,
      "Ġthere": 673,
      "ign": 674,
      "need": 675,
      "acc": 676,
      "bl": 677,
      "Ġneed": 678,
      "Ġmake": 679,
      "ĠWe": 680,
      "thr": 681,
      "âĢĿ": 682,
      "rie": 683,
      "Ġna": 684,
      "Ġuse": 685,
      "ort": 686,
      "ild": 687,
      "Ġcha": 688,
      "che": 689,
      "Ġthan": 690,
      "ack": 691,
      "ement": 692,
      "as": 693,
      "Ġas": 694,
      "Ġres": 695,
      "Ġacc": 696,
      "Ġinto": 697,
      "ary": 698,
      "up": 699,
      "lec": 700,
      "ob": 701,
      "sm": 702,
      "ick": 703,
      "ian": 704,
      "ina": 705,
      "rg": 706,
      "ds": 707,
      "ations": 708,
      "Ġjust": 709,
      "ffe": 710,
      "Ġstr": 711,
      "ey": 712,
      "ever": 713,
      "Ġthr": 714,
      "Ġfir": 715,
      "Ġhow": 716,
      "ĠYo": 717,
      "duc": 718,
      "emb": 719,
      "mpa": 720,
      "ord": 721,
      "lp": 722,
      "lf": 723,
      "Ġsee": 724,
      "Ġag": 725,
      "Ġam": 726,
      "sl": 727,
      "ompa": 728,
      "ical": 729,
      "Ġshe": 730,
      "ents": 731,
      "ĠâĢľ": 732,
      "Ġcr": 733,
      "col": 734,
      "ople": 735,
      "two": 736,
      "Ġits": 737,
      "ount": 738,
      "ci": 739,
      "mp": 740,
      "ĠRe": 741,
      "ked": 742,
      "sing": 743,
      "oy": 744,
      "comm": 745,
      "rent": 746,
      "ink": 747,
      "Ġsup": 748,
      "les": 749,
      "rvi": 750,
      "ĠPr": 751,
      "ĠThi": 752,
      "Ġwel": 753,
      "Ġmay": 754,
      "ĠThis": 755,
      "Ġprov": 756,
      "cau": 757,
      "rr": 758,
      "sit": 759,
      "fter": 760,
      "Ġexpe": 761,
      "tional": 762,
      "Ġda": 763,
      "ool": 764,
      ").": 765,
      "Ġcomm": 766,
      "tter": 767,
      "Ġknow": 768,
      "Ġhelp": 769,
      "ise": 770,
      "cul": 771,
      "rse": 772,
      "Ġday": 773,
      "Ġapp": 774,
      "unde": 775,
      "rvic": 776,
      "Ġpeople": 777,
      "Ġonly": 778,
      "ory": 779,
      "evel": 780,
      "rvice": 781,
      "Ġind": 782,
      "alt": 783,
      "gu": 784,
      "Ġmost": 785,
      "rest": 786,
      "Ġcol": 787,
      "arg": 788,
      "Ġthrough": 789,
      "Ġcu": 790,
      "Ġfirst": 791,
      "take": 792,
      "Ġreal": 793,
      "ĠAn": 794,
      "Ġoff": 795,
      "ĠSe": 796,
      "uch": 797,
      "ĠYou": 798,
      "Ġvi": 799,
      "ition": 800,
      "Ġtake": 801,
      "look": 802,
      "lle": 803,
      "reat": 804,
      "Ġgre": 805,
      "use": 806,
      "je": 807,
      "Ġwell": 808,
      "Ġinclu": 809,
      "Ġ-": 810,
      "pon": 811,
      "ost": 812,
      "under": 813,
      "Ġproduc": 814,
      "itt": 815,
      "ded": 816,
      "Ġevery": 817,
      "Ġback": 818,
      "ĠâĢĵ": 819,
      "Ġwor": 820,
      "embe": 821,
      "dif": 822,
      "tc": 823,
      "Ġfl": 824,
      "Ġrel": 825,
      "cause": 826,
      "sign": 827,
      "compa": 828,
      "these": 829,
      "Ġlook": 830,
      "nds": 831,
      "Ġcompa": 832,
      "ĠDe": 833,
      "rem": 834,
      "jec": 835,
      "Ġthese": 836,
      "ull": 837,
      "iver": 838,
      "Ġbl": 839,
      "could": 840,
      "aw": 841,
      "nu": 842,
      "ember": 843,
      "Ġcould": 844,
      "ife": 845,
      "ries": 846,
      "Ġvery": 847,
      "then": 848,
      "isc": 849,
      "site": 850,
      "down": 851,
      "Ġunder": 852,
      "Ġsaid": 853,
      "ste": 854,
      "Ġtwo": 855,
      "less": 856,
      "Ġdif": 857,
      "rol": 858,
      "ĠBu": 859,
      "ĠCh": 860,
      "Ġdon": 861,
      "Ġmar": 862,
      "ile": 863,
      "ĠCo": 864,
      "ult": 865,
      "ities": 866,
      "Ġsy": 867,
      "ĠSo": 868,
      "wr": 869,
      "erm": 870,
      "Ġke": 871,
      "sin": 872,
      "ub": 873,
      "did": 874,
      "Ġhim": 875,
      "good": 876,
      "Ġthen": 877,
      "Ġmany": 878,
      "ible": 879,
      "Ġway": 880,
      "oom": 881,
      "lect": 882,
      "Ġgood": 883,
      "Ġph": 884,
      "gl": 885,
      "Ġhom": 886,
      "Ġope": 887,
      "long": 888,
      "Ġrem": 889,
      "Ġass": 890,
      "Ġservice": 891,
      "oad": 892,
      "Ġgrea": 893,
      "car": 894,
      "efore": 895,
      "Ġdown": 896,
      "Ġreg": 897,
      "fec": 898,
      "iss": 899,
      "ĠBe": 900,
      "Ġgreat": 901,
      "ĠMa": 902,
      "Ġspec": 903,
      "Ġshould": 904,
      "Ġhome": 905,
      "ied": 906,
      "Ġstud": 907,
      "str": 908,
      "ks": 909,
      ".\"": 910,
      "Ġeven": 911,
      "Ġyears": 912,
      "after": 913,
      "cess": 914,
      "Ġwr": 915,
      "lity": 916,
      "hough": 917,
      "Ġem": 918,
      "owe": 919,
      "Ġwhere": 920,
      "ami": 921,
      "Ġfre": 922,
      "loc": 923,
      "Ġmea": 924,
      "Ġown": 925,
      "Ġnow": 926,
      "arge": 927,
      "ock": 928,
      "umb": 929,
      "Ġent": 930,
      "ea": 931,
      "Ġea": 932,
      "Ġafter": 933,
      "unc": 934,
      "),": 935,
      "inv": 936,
      "line": 937,
      "Ġsuc": 938,
      "Ġoffe": 939,
      "Ġfac": 940,
      "Ġcar": 941,
      "siness": 942,
      "att": 943,
      "iat": 944,
      "right": 945,
      "Ġplay": 946,
      "aut": 947,
      "Ġsuch": 948,
      "oss": 949,
      "Ġinv": 950,
      "Ġdid": 951,
      "iew": 952,
      "cs": 953,
      "awa": 954,
      "eg": 955,
      "Ġloc": 956,
      "Ġgu": 957,
      "Ġbest": 958,
      "Ġfind": 959,
      "Ġplac": 960,
      "Ġmuch": 961,
      "Ġfee": 962,
      "forma": 963,
      "fi": 964,
      "give": 965,
      "stem": 966,
      "Ġstart": 967,
      "Ġhigh": 968,
      "omp": 969,
      "hose": 970,
      "app": 971,
      "eing": 972,
      "Ġlong": 973,
      "olog": 974,
      "wee": 975,
      "rde": 976,
      "Ġsm": 977,
      "ecause": 978,
      "Ġthing": 979,
      "ility": 980,
      "hy": 981,
      "life": 982,
      "du": 983,
      "Ġgive": 984,
      "Ġef": 985,
      "ful": 986,
      "ifi": 987,
      "Ġform": 988,
      "format": 989,
      "Ġdiffe": 990,
      "formati": 991,
      "evelop": 992,
      "ure": 993,
      "ĠAl": 994,
      "formation": 995,
      "tal": 996,
      "oa": 997,
      "Ġchan": 998,
      "hat": 999,
      "que": 1000,
      "ific": 1001,
      "Ġide": 1002,
      "disc": 1003,
      "Ġmade": 1004,
      "ĠBr": 1005,
      "Ġrequ": 1006,
      "comp": 1007,
      "Ġbecause": 1008,
      "ĠIf": 1009,
      "Ġsub": 1010,
      "Ġprovide": 1011,
      "cle": 1012,
      "hen": 1013,
      "Ġwant": 1014,
      "Ġdat": 1015,
      "Ġbefore": 1016,
      "Ġdisc": 1017,
      "say": 1018,
      "ient": 1019,
      "ext": 1020,
      "nag": 1021,
      "ship": 1022,
      "Ġcomp": 1023,
      "Ġbusiness": 1024,
      "cent": 1025,
      "oor": 1026,
      "ĠUn": 1027,
      "Ġagain": 1028,
      "Ġspe": 1029,
      "sim": 1030,
      "amil": 1031,
      "Ġhere": 1032,
      "Ġlife": 1033,
      "nic": 1034,
      "esign": 1035,
      "ower": 1036,
      "Ġext": 1037,
      "Ġsay": 1038,
      "nding": 1039,
      "earc": 1040,
      "Ġbeing": 1041,
      "Ġav": 1042,
      "bo": 1043,
      "Ġright": 1044,
      "Ġsim": 1045,
      "Ġsch": 1046,
      "Ġused": 1047,
      "ru": 1048,
      "Ġdu": 1049,
      "urt": 1050,
      "ket": 1051,
      "lue": 1052,
      "ĠFo": 1053,
      "ize": 1054,
      "design": 1055,
      "urc": 1056,
      "ited": 1057,
      "top": 1058,
      "ating": 1059,
      "rib": 1060,
      "those": 1061,
      "Ġtu": 1062,
      "Ġart": 1063,
      "Ġthose": 1064,
      "sta": 1065,
      "its": 1066,
      "ince": 1067,
      "tting": 1068,
      "spa": 1069,
      "ye": 1070,
      "care": 1071,
      "Ġstat": 1072,
      "Ġdesign": 1073,
      "We": 1074,
      "Ġpol": 1075,
      "rve": 1076,
      "develop": 1077,
      "gram": 1078,
      "information": 1079,
      "Ġplace": 1080,
      "Ġsp": 1081,
      "Ġinformation": 1082,
      "Ġsystem": 1083,
      "irec": 1084,
      "als": 1085,
      "Ġdoe": 1086,
      "az": 1087,
      "Ġdevelop": 1088,
      "cy": 1089,
      "eam": 1090,
      "ier": 1091,
      "Ġdoes": 1092,
      "Ġexperie": 1093,
      "hn": 1094,
      "Ġchang": 1095,
      "ned": 1096,
      "tch": 1097,
      "urse": 1098,
      "Ġplan": 1099,
      "Ġworld": 1100,
      "Th": 1101,
      "Ġawa": 1102,
      "In": 1103,
      "Ġshow": 1104,
      "Ġ&": 1105,
      "ĠAnd": 1106,
      "Ġhan": 1107,
      "ness": 1108,
      "ĠAm": 1109,
      "Ġeac": 1110,
      "Ġeach": 1111,
      "evi": 1112,
      "room": 1113,
      "fa": 1114,
      "Ġread": 1115,
      "Ġatt": 1116,
      "last": 1117,
      "ĠCon": 1118,
      "lls": 1119,
      "ano": 1120,
      "though": 1121,
      "live": 1122,
      "ject": 1123,
      "Ġadd": 1124,
      "list": 1125,
      "rder": 1126,
      "Ġpri": 1127,
      "usto": 1128,
      "ash": 1129,
      "âĢĶ": 1130,
      "Ġche": 1131,
      "umbe": 1132,
      "Ġ.": 1133,
      "love": 1134,
      "ress": 1135,
      "too": 1136,
      "iving": 1137,
      "Ġthough": 1138,
      "ole": 1139,
      "ourse": 1140,
      "rad": 1141,
      "Ġfamil": 1142,
      "eb": 1143,
      "hild": 1144,
      "twee": 1145,
      "Ġaround": 1146,
      "Ġappl": 1147,
      "inu": 1148,
      "Ġmed": 1149,
      "Ġwhile": 1150,
      "umber": 1151,
      "term": 1152,
      "Ġwee": 1153,
      "ale": 1154,
      "Ġmod": 1155,
      "nk": 1156,
      "ze": 1157,
      "ollow": 1158,
      "Ġlove": 1159,
      "anc": 1160,
      "hink": 1161,
      "child": 1162,
      "ming": 1163,
      "think": 1164,
      "Ġinter": 1165,
      "Ġcal": 1166,
      "Ġ$": 1167,
      "Ġdifferent": 1168,
      "tures": 1169,
      "tween": 1170,
      "Ġtoo": 1171,
      "ĠTr": 1172,
      "Ġob": 1173,
      "Ġthink": 1174,
      "Ġsupport": 1175,
      "Ġsk": 1176,
      "test": 1177,
      "ope": 1178,
      "earch": 1179,
      "Ġva": 1180,
      "Ġsti": 1181,
      "Thi": 1182,
      "Ġcare": 1183,
      "ĠMar": 1184,
      "Ġlast": 1185,
      "Ġed": 1186,
      "ĠPe": 1187,
      "ĠSc": 1188,
      "This": 1189,
      "count": 1190,
      "ĠTo": 1191,
      "same": 1192,
      "ler": 1193,
      "Ġchild": 1194,
      "ker": 1195,
      "els": 1196,
      "etween": 1197,
      "read": 1198,
      "ative": 1199,
      "...": 1200,
      "Ġweb": 1201,
      "run": 1202,
      "lear": 1203,
      "tl": 1204,
      "Ġbot": 1205,
      "Ġsame": 1206,
      "aving": 1207,
      "nted": 1208,
      "Ġstil": 1209,
      "ways": 1210,
      "Ġstill": 1211,
      "ics": 1212,
      "Ġbetween": 1213,
      "sure": 1214,
      "Ġgl": 1215,
      "oup": 1216,
      "ins": 1217,
      "ustom": 1218,
      "Ġcount": 1219,
      "Ġprocess": 1220,
      "ĠNo": 1221,
      "Ġbook": 1222,
      "nse": 1223,
      "Ġ'": 1224,
      "Ġboth": 1225,
      "ittle": 1226,
      "Ġreall": 1227,
      "Ġreally": 1228,
      "Ġoffer": 1229,
      "cial": 1230,
      "air": 1231,
      "ĠHo": 1232,
      "ĠMi": 1233,
      "light": 1234,
      "ĠBut": 1235,
      "ĠThey": 1236,
      "Ġhand": 1237,
      "Ġmu": 1238,
      "enc": 1239,
      "cur": 1240,
      "Ġfree": 1241,
      "Ġtop": 1242,
      "Ġcommun": 1243,
      "number": 1244,
      "came": 1245,
      "pt": 1246,
      "ari": 1247,
      "oi": 1248,
      "Ġwat": 1249,
      "Ġpubl": 1250,
      "game": 1251,
      "Ġnumber": 1252,
      "ean": 1253,
      "ĠOn": 1254,
      "earl": 1255,
      "Ġexperience": 1256,
      "mb": 1257,
      "ept": 1258,
      "Ġgoing": 1259,
      "Ġfound": 1260,
      "Ġlist": 1261,
      "nth": 1262,
      "ĠFr": 1263,
      "Ġimport": 1264,
      "ak": 1265,
      "alth": 1266,
      "Ġimp": 1267,
      "ems": 1268,
      "team": 1269,
      "ĠNew": 1270,
      "inst": 1271,
      "typ": 1272,
      "Ġfollow": 1273,
      "Ġprese": 1274,
      "ĠFor": 1275,
      "Ġwate": 1276,
      "amp": 1277,
      "Ġpur": 1278,
      "abl": 1279,
      "Ġteam": 1280,
      "Ġ_": 1281,
      "Ġavail": 1282,
      "Ġgame": 1283,
      "oot": 1284,
      "aste": 1285,
      "cted": 1286,
      "ages": 1287,
      "ality": 1288,
      "ward": 1289,
      "**": 1290,
      "mple": 1291,
      "Ġfull": 1292,
      "nti": 1293,
      "tiv": 1294,
      "Ġprogram": 1295,
      "ble": 1296,
      "rai": 1297,
      "Ġpost": 1298,
      "direc": 1299,
      "case": 1300,
      "Ġadv": 1301,
      "Ġprof": 1302,
      "rence": 1303,
      "ĠSta": 1304,
      "Ġusing": 1305,
      "lie": 1306,
      "har": 1307,
      "Ġmet": 1308,
      "ney": 1309,
      "Ġwater": 1310,
      "Ġrun": 1311,
      "self": 1312,
      "little": 1313,
      "ivers": 1314,
      ",\"": 1315,
      "ax": 1316,
      "Ġaut": 1317,
      "Ġexc": 1318,
      "Ġlittle": 1319,
      "Ġhapp": 1320,
      "ĠCa": 1321,
      "Ġnam": 1322,
      "Ġdirec": 1323,
      "Ġinst": 1324,
      "pla": 1325,
      "Ġspa": 1326,
      "ĠEn": 1327,
      "omple": 1328,
      "fort": 1329,
      "Ġcur": 1330,
      "ba": 1331,
      "Ġposs": 1332,
      "Ġfew": 1333,
      "lling": 1334,
      "Ġchange": 1335,
      "iting": 1336,
      "Ġkeep": 1337,
      "Ġmanag": 1338,
      "ĠShe": 1339,
      "ver": 1340,
      "Ġlear": 1341,
      "hree": 1342,
      "ired": 1343,
      "try": 1344,
      "mpl": 1345,
      "three": 1346,
      "Ġpat": 1347,
      "custom": 1348,
      "Ġbi": 1349,
      "ark": 1350,
      "ĠThere": 1351,
      "Ġsea": 1352,
      "Ġappr": 1353,
      "Ġcustom": 1354,
      "ĠGr": 1355,
      "ying": 1356,
      "Ġmain": 1357,
      "Ġset": 1358,
      "rth": 1359,
      "rial": 1360,
      "Ġmust": 1361,
      "Ġthree": 1362,
      "dist": 1363,
      "ĠTha": 1364,
      "Ġavailable": 1365,
      "ments": 1366,
      "comple": 1367,
      "ĠLe": 1368,
      "fac": 1369,
      "Ġsl": 1370,
      "Ġcompany": 1371,
      "ria": 1372,
      "Ġbuild": 1373,
      "ody": 1374,
      "Ġparti": 1375,
      "Ġprop": 1376,
      "fer": 1377,
      "ular": 1378,
      "Ġcomple": 1379,
      "crea": 1380,
      "once": 1381,
      "Ġoffi": 1382,
      "ssi": 1383,
      "Ġalways": 1384,
      "ards": 1385,
      "ues": 1386,
      "ements": 1387,
      "iate": 1388,
      "Ġdist": 1389,
      "uct": 1390,
      "Ġrest": 1391,
      "Ġthings": 1392,
      "apa": 1393,
      "Ġwitho": 1394,
      "Ġwithou": 1395,
      "Ġwithout": 1396,
      "Ġano": 1397,
      "Ġorga": 1398,
      "Ġtyp": 1399,
      "inal": 1400,
      "ĠGe": 1401,
      "Ġrep": 1402,
      "Ġallow": 1403,
      "oge": 1404,
      "ape": 1405,
      "ital": 1406,
      "large": 1407,
      "lar": 1408,
      "ology": 1409,
      "Ġpi": 1410,
      "Ġcase": 1411,
      "mon": 1412,
      "Ġmean": 1413,
      "Ġduring": 1414,
      "Ġwon": 1415,
      "Ġmonth": 1416,
      "Yo": 1417,
      "Ġred": 1418,
      "It": 1419,
      "Ġinclud": 1420,
      "Ġinclude": 1421,
      "Ġsure": 1422,
      "Ġdata": 1423,
      "conce": 1424,
      "ĠMe": 1425,
      "Ġinterest": 1426,
      "etter": 1427,
      "ĠAme": 1428,
      "ĠSa": 1429,
      "Ġlarge": 1430,
      "rne": 1431,
      "rip": 1432,
      "Ġmov": 1433,
      "Ġfamily": 1434,
      "eral": 1435,
      "fect": 1436,
      "seve": 1437,
      "You": 1438,
      "ield": 1439,
      "nded": 1440,
      "Ġfrie": 1441,
      "ĠAs": 1442,
      "Ġmil": 1443,
      "Ġsite": 1444,
      "Ġmight": 1445,
      "ode": 1446,
      "nn": 1447,
      "Ġconce": 1448,
      "Ġexam": 1449,
      "ings": 1450,
      "sive": 1451,
      "ader": 1452,
      "ima": 1453,
      "Ġschool": 1454,
      "Ġple": 1455,
      "Ġincluding": 1456,
      "Ġsomething": 1457,
      "Ġfu": 1458,
      "ather": 1459,
      "Ġbetter": 1460,
      "Ġhead": 1461,
      "inf": 1462,
      "Ġconf": 1463,
      "ven": 1464,
      "Ġwal": 1465,
      "cert": 1466,
      "cost": 1467,
      "Ġanother": 1468,
      "Ġjo": 1469,
      "urce": 1470,
      "oday": 1471,
      "city": 1472,
      "equ": 1473,
      "sonal": 1474,
      "Ġseve": 1475,
      "creat": 1476,
      "Ġsmall": 1477,
      "tly": 1478,
      "Ġmode": 1479,
      "tain": 1480,
      "ves": 1481,
      "Ġquest": 1482,
      "ompl": 1483,
      "ĠAmer": 1484,
      "here": 1485,
      "ula": 1486,
      "itte": 1487,
      "ster": 1488,
      "eno": 1489,
      "Ġimportant": 1490,
      "Ġpric": 1491,
      "ĠJo": 1492,
      "ĠAmeri": 1493,
      "ply": 1494,
      "inat": 1495,
      "Ġhou": 1496,
      "Ġfea": 1497,
      "ĠEx": 1498,
      "Ġmember": 1499,
      "Ġtry": 1500,
      "Ġrece": 1501,
      "ask": 1502,
      "ĠAmeric": 1503,
      "Ġold": 1504,
      "next": 1505,
      "Ġclass": 1506,
      "ĠCl": 1507,
      "Ġorder": 1508,
      "Ġpower": 1509,
      "Ġlive": 1510,
      "Ġservices": 1511,
      "ists": 1512,
      "Ġnext": 1513,
      "Ġiss": 1514,
      "ided": 1515,
      "Ġlow": 1516,
      "cally": 1517,
      "Ġvisit": 1518,
      "Ġrespon": 1519,
      "erg": 1520,
      "never": 1521,
      "Ġgroup": 1522,
      "ĠAmerica": 1523,
      "Ġcost": 1524,
      "Ġcreat": 1525,
      "icle": 1526,
      "ights": 1527,
      "Ġperform": 1528,
      "table": 1529,
      "early": 1530,
      "ĠHow": 1531,
      "Ġname": 1532,
      "Ġnever": 1533,
      "Ġga": 1534,
      "ĠPro": 1535,
      "eac": 1536,
      "Ġcrea": 1537,
      "Ġfact": 1538,
      "oic": 1539,
      "ined": 1540,
      "Ġroom": 1541,
      "itu": 1542,
      "ele": 1543,
      "ĠInt": 1544,
      "Ġsecon": 1545,
      "niz": 1546,
      "sig": 1547,
      "Ġstate": 1548,
      "Ġable": 1549,
      "ĠAd": 1550,
      "Ġprobl": 1551,
      "Ġproduct": 1552,
      "ule": 1553,
      "since": 1554,
      "Ġcolo": 1555,
      "course": 1556,
      "Ġreport": 1557,
      "rp": 1558,
      "avo": 1559,
      "epe": 1560,
      "Ġmat": 1561,
      "Ġsince": 1562,
      "Ġcert": 1563,
      "Ġarea": 1564,
      "med": 1565,
      "Ġhouse": 1566,
      "ĠAp": 1567,
      "If": 1568,
      "ĠSh": 1569,
      "itional": 1570,
      "rna": 1571,
      "nish": 1572,
      "Ġcourse": 1573,
      "Ġ,": 1574,
      "Ġprot": 1575,
      "ump": 1576,
      "Ġage": 1577,
      "Ġwithin": 1578,
      "ctu": 1579,
      "Ġline": 1580,
      "load": 1581,
      "iall": 1582,
      "Ġbig": 1583,
      "ially": 1584,
      "lim": 1585,
      "ream": 1586,
      "ients": 1587,
      "asi": 1588,
      "Ġfar": 1589,
      "Ġunt": 1590,
      "Ġincrea": 1591,
      "oice": 1592,
      "Ġest": 1593,
      "Ġlight": 1594,
      "Ġside": 1595,
      "rge": 1596,
      "aking": 1597,
      "Ġmee": 1598,
      "Ġcame": 1599,
      "ized": 1600,
      "law": 1601,
      "Ġless": 1602,
      "Ġcustome": 1603,
      "Ġonline": 1604,
      "Ġconside": 1605,
      "Ġcustomer": 1606,
      "ĠStat": 1607,
      "Ġpass": 1608,
      "oe": 1609,
      "âĢĵ": 1610,
      "uma": 1611,
      "nj": 1612,
      "ccess": 1613,
      "fic": 1614,
      "tai": 1615,
      "def": 1616,
      "ced": 1617,
      "ived": 1618,
      "ntion": 1619,
      "Ġdays": 1620,
      "ational": 1621,
      "err": 1622,
      "Ġstra": 1623,
      "ix": 1624,
      "ĠPa": 1625,
      "Ġye": 1626,
      "Ġoper": 1627,
      "imat": 1628,
      "ses": 1629,
      "Ġpay": 1630,
      "ĠQ": 1631,
      "Ġpho": 1632,
      "lut": 1633,
      "Ġgrow": 1634,
      "Ġaccess": 1635,
      "Ġhard": 1636,
      "nno": 1637,
      "Ġinf": 1638,
      "ically": 1639,
      "ono": 1640,
      "Ġcent": 1641,
      "eat": 1642,
      "hed": 1643,
      "ssion": 1644,
      "ĠInte": 1645,
      "Ġequ": 1646,
      "Ġman": 1647,
      "ĠChr": 1648,
      "ience": 1649,
      "Ġwebsite": 1650,
      "chn": 1651,
      "ctiv": 1652,
      "lay": 1653,
      "Ġprice": 1654,
      "elie": 1655,
      "ploy": 1656,
      "iversity": 1657,
      "ĠInd": 1658,
      "rev": 1659,
      "Ġspecial": 1660,
      "ena": 1661,
      "Ġfil": 1662,
      "Ġpop": 1663,
      "Ġoffic": 1664,
      "ĠCol": 1665,
      "esc": 1666,
      "Ġaway": 1667,
      "Ġgot": 1668,
      "dem": 1669,
      "rning": 1670,
      "bu": 1671,
      "tural": 1672,
      "ĠWh": 1673,
      "ered": 1674,
      "rage": 1675,
      "Ġinvest": 1676,
      "spo": 1677,
      "compl": 1678,
      "Ġdef": 1679,
      "echn": 1680,
      "Ġexpl": 1681,
      "aim": 1682,
      "Ġcomplet": 1683,
      "Ġtest": 1684,
      "eh": 1685,
      "Ġhour": 1686,
      "ER": 1687,
      "ogether": 1688,
      "ften": 1689,
      "ffi": 1690,
      "Ġquality": 1691,
      "ĠSp": 1692,
      "ere": 1693,
      "Ġcurrent": 1694,
      "Ġref": 1695,
      "overn": 1696,
      "cular": 1697,
      "Ġphot": 1698,
      "atte": 1699,
      "Ġopen": 1700,
      "Ġturn": 1701,
      "Ġprofess": 1702,
      "Ġpra": 1703,
      "Ġpersonal": 1704,
      "Ġextr": 1705,
      "Ġpubli": 1706,
      "Ġlead": 1707,
      "Ġpag": 1708,
      "ton": 1709,
      "Ġair": 1710,
      ".,": 1711,
      "ĠWo": 1712,
      "ua": 1713,
      "Ġcompl": 1714,
      "Ġweek": 1715,
      "Ġfood": 1716,
      "Ġunti": 1717,
      "Ġuntil": 1718,
      "ribu": 1719,
      "Ġcontrol": 1720,
      "Ġstan": 1721,
      "ĠZ": 1722,
      "uss": 1723,
      "anno": 1724,
      "Ġprac": 1725,
      "Ġpract": 1726,
      "Ġworking": 1727,
      "Ġperson": 1728,
      "Ġpage": 1729,
      "br": 1730,
      "Ġoc": 1731,
      "ms": 1732,
      "Ġlooking": 1733,
      "Ġhealth": 1734,
      "oming": 1735,
      "Ġlaw": 1736,
      "ains": 1737,
      "Ġput": 1738,
      "Ġundersta": 1739,
      "Ġfeel": 1740,
      "inut": 1741,
      "Ġmaking": 1742,
      "Ġbelie": 1743,
      "ĠOu": 1744,
      "opp": 1745,
      "Ġsec": 1746,
      "inute": 1747,
      "Ġrev": 1748,
      "vi": 1749,
      "entl": 1750,
      "ved": 1751,
      "usl": 1752,
      "door": 1753,
      "erc": 1754,
      "today": 1755,
      "char": 1756,
      "por": 1757,
      "Ġtype": 1758,
      "ken": 1759,
      "Ġchildren": 1760,
      "Ġwom": 1761,
      "lease": 1762,
      "ished": 1763,
      "Ġstand": 1764,
      "ering": 1765,
      "Ġtoday": 1766,
      "Ġreso": 1767,
      "ucti": 1768,
      "ito": 1769,
      "Ġsit": 1770,
      "Ġprote": 1771,
      "Ġagainst": 1772,
      "Ġlocal": 1773,
      "Ġappli": 1774,
      "imate": 1775,
      "Ġimpr": 1776,
      "ega": 1777,
      "jo": 1778,
      "Ġapplic": 1779,
      "ĠAll": 1780,
      "nat": 1781,
      "uction": 1782,
      "part": 1783,
      "Ġcomplete": 1784,
      "ulat": 1785,
      "actu": 1786,
      "Ġsig": 1787,
      "ches": 1788,
      "Ġalong": 1789,
      "Ġjob": 1790,
      "lecti": 1791,
      "swe": 1792,
      "ivid": 1793,
      "ipp": 1794,
      "lection": 1795,
      "Ġchar": 1796,
      "enj": 1797,
      "omb": 1798,
      "Ġpoint": 1799,
      "iron": 1800,
      "nown": 1801,
      "Ġpublic": 1802,
      "win": 1803,
      "Ġmarket": 1804,
      "Ġmoney": 1805,
      "night": 1806,
      "ĠState": 1807,
      "together": 1808,
      "Ġsing": 1809,
      "Ġoften": 1810,
      "Ġenj": 1811,
      "ference": 1812,
      "ĠBa": 1813,
      "Ġproducts": 1814,
      "way": 1815,
      "activ": 1816,
      "Ġver": 1817,
      "Ġstudents": 1818,
      "grap": 1819,
      "iety": 1820,
      "Ġdem": 1821,
      "oung": 1822,
      "sition": 1823,
      "ĠWhen": 1824,
      "ita": 1825,
      "Ġsuccess": 1826,
      "ently": 1827,
      "Ġtogether": 1828,
      "ines": 1829,
      "Ġcreate": 1830,
      "ets": 1831,
      "Ġindust": 1832,
      "Ġword": 1833,
      "Ġhist": 1834,
      "coming": 1835,
      "Ġrol": 1836,
      "ĠâĢĺ": 1837,
      "tem": 1838,
      "Ġsecond": 1839,
      "lab": 1840,
      "ctive": 1841,
      "Ġbeg": 1842,
      "wide": 1843,
      "Ġeno": 1844,
      "Ġleft": 1845,
      "Ġneeds": 1846,
      "ĠLa": 1847,
      "ĠMo": 1848,
      "Ġterm": 1849,
      "itions": 1850,
      "Ġclose": 1851,
      "ual": 1852,
      "Ġactu": 1853,
      "Ġactiv": 1854,
      "Ġoffice": 1855,
      "Ġarr": 1856,
      "ncy": 1857,
      "ĠBo": 1858,
      "ume": 1859,
      "ware": 1860,
      "ught": 1861,
      "uman": 1862,
      "Ġmate": 1863,
      "eal": 1864,
      "rre": 1865,
      "Ġminute": 1866,
      "Ġbas": 1867,
      "Ġconn": 1868,
      "ried": 1869,
      "Ġshort": 1870,
      "han": 1871,
      "Ġvalue": 1872,
      "Ġkind": 1873,
      "Ġconne": 1874,
      "rance": 1875,
      "ĠWith": 1876,
      "Ġeasy": 1877,
      "ably": 1878,
      "ified": 1879,
      "Ġev": 1880,
      "Ġpossible": 1881,
      "ium": 1882,
      "Ġdoc": 1883,
      "Ġproject": 1884,
      "!!": 1885,
      "Ġenjoy": 1886,
      "ults": 1887,
      "Ġview": 1888,
      "Ġwhy": 1889,
      "llen": 1890,
      "tent": 1891,
      "Ġ|": 1892,
      "oved": 1893,
      "usly": 1894,
      "ĠDr": 1895,
      "Ġtal": 1896,
      "Ġspac": 1897,
      "Ġeffec": 1898,
      "Ġnon": 1899,
      "Ġexample": 1900,
      "Ġmus": 1901,
      "ĠThat": 1902,
      "level": 1903,
      "ĠChrist": 1904,
      "Ġbring": 1905,
      "ence": 1906,
      "ĠHi": 1907,
      "gest": 1908,
      "Ġhaving": 1909,
      "Ġcompe": 1910,
      "lectr": 1911,
      "ley": 1912,
      "Ġvar": 1913,
      "turn": 1914,
      "oon": 1915,
      "So": 1916,
      "ift": 1917,
      "ah": 1918,
      "Ġspace": 1919,
      "iva": 1920,
      "cap": 1921,
      "Ġuser": 1922,
      "Ġemploy": 1923,
      "Ġtimes": 1924,
      "ĠUS": 1925,
      "eye": 1926,
      "sla": 1927,
      "ont": 1928,
      "Ġatte": 1929,
      "rl": 1930,
      "ĠWhat": 1931,
      "ids": 1932,
      "rese": 1933,
      "ĠGod": 1934,
      "call": 1935,
      "nda": 1936,
      "Ġbrea": 1937,
      "Ġgra": 1938,
      "ww": 1939,
      "ird": 1940,
      "aster": 1941,
      "Ġprofessional": 1942,
      "Ġindivid": 1943,
      "etting": 1944,
      "nef": 1945,
      "techn": 1946,
      "cross": 1947,
      "Ġenough": 1948,
      "cts": 1949,
      "Ġpic": 1950,
      "Ġdone": 1951,
      "Ġpoli": 1952,
      "iter": 1953,
      "Ġhappe": 1954,
      "Ġbeh": 1955,
      "wind": 1956,
      "wood": 1957,
      "Ġdirect": 1958,
      "overnment": 1959,
      "fr": 1960,
      "uce": 1961,
      "Ġbased": 1962,
      "Ġbody": 1963,
      "ously": 1964,
      "An": 1965,
      "Ġreac": 1966,
      "hie": 1967,
      "Ġrecord": 1968,
      "Ġdidn": 1969,
      "Ġcall": 1970,
      "ready": 1971,
      "Ġsafe": 1972,
      "Ġcheck": 1973,
      "ograp": 1974,
      "Ġsen": 1975,
      "nv": 1976,
      "sident": 1977,
      "ĠPh": 1978,
      "une": 1979,
      "Ġappear": 1980,
      "ithe": 1981,
      "ained": 1982,
      "Ġcertain": 1983,
      "rod": 1984,
      "Ġcond": 1985,
      "Ġtem": 1986,
      "Ġau": 1987,
      "ĠAmerican": 1988,
      "ffic": 1989,
      "sel": 1990,
      "Ġtechn": 1991,
      "rave": 1992,
      "Ġsto": 1993,
      "Ġever": 1994,
      "Ġfun": 1995,
      "reen": 1996,
      "Ġexte": 1997,
      "eu": 1998,
      "Ġmind": 1999,
      "ging": 2000,
      "IN": 2001,
      ",âĢĿ": 2002,
      "jor": 2003,
      "Ġpast": 2004,
      "inati": 2005,
      "ret": 2006,
      "Ġshare": 2007,
      "enef": 2008,
      "trad": 2009,
      "ination": 2010,
      "Ġothers": 2011,
      "ĠâĢĶ": 2012,
      "Ġcommunity": 2013,
      "Ġnight": 2014,
      "What": 2015,
      "Ġcap": 2016,
      "across": 2017,
      "rb": 2018,
      "Ġalt": 2019,
      "Ġthought": 2020,
      "Ġconta": 2021,
      "size": 2022,
      "treat": 2023,
      "Ġmill": 2024,
      "Ġski": 2025,
      "Ġmeans": 2026,
      "ini": 2027,
      "Ġseveral": 2028,
      "cipa": 2029,
      "Ġstep": 2030,
      "iding": 2031,
      "Ġfocu": 2032,
      "ph": 2033,
      "cover": 2034,
      "ilt": 2035,
      "Ġacross": 2036,
      "Ġcalled": 2037,
      "Ġeye": 2038,
      "Ġvide": 2039,
      "Ġbenef": 2040,
      "Ġpropert": 2041,
      "ĠBl": 2042,
      "Ġalready": 2043,
      "ĠPl": 2044,
      "ĠUniversity": 2045,
      "ither": 2046,
      "Ġlet": 2047,
      "He": 2048,
      "yle": 2049,
      "Ġopt": 2050,
      "Ġspo": 2051,
      "ged": 2052,
      "sport": 2053,
      "cono": 2054,
      "Ġresearch": 2055,
      "portun": 2056,
      "gle": 2057,
      "Ġtrad": 2058,
      "Ġmakes": 2059,
      "Ġcons": 2060,
      "isk": 2061,
      "ĠCar": 2062,
      "ĠWi": 2063,
      "Ġlim": 2064,
      "Ġsocial": 2065,
      "orn": 2066,
      "Ġlevel": 2067,
      "iec": 2068,
      "oac": 2069,
      "gar": 2070,
      "Ġson": 2071,
      "Ġtable": 2072,
      "ndo": 2073,
      "Ġfinal": 2074,
      "mmon": 2075,
      "anal": 2076,
      "ĠDo": 2077,
      "Ġcountry": 2078,
      "Ġonce": 2079,
      "Ġsoft": 2080,
      "search": 2081,
      "Ġwind": 2082,
      "Ġhold": 2083,
      "Ġpresent": 2084,
      "cil": 2085,
      "Ġmult": 2086,
      "On": 2087,
      "avor": 2088,
      "Ġenc": 2089,
      "iga": 2090,
      "iati": 2091,
      "iece": 2092,
      "Ġbra": 2093,
      "ĠCent": 2094,
      "Ġopportun": 2095,
      "Ġdevelopment": 2096,
      "Ġmusi": 2097,
      "trai": 2098,
      "ĠJe": 2099,
      "Ġreturn": 2100,
      "inte": 2101,
      "Ġorganiz": 2102,
      "oose": 2103,
      "gs": 2104,
      "ism": 2105,
      "Ġmusic": 2106,
      "spl": 2107,
      "Ġreason": 2108,
      "âĢľ": 2109,
      "Ġfou": 2110,
      "getting": 2111,
      "Ġfour": 2112,
      "ĠJa": 2113,
      "teac": 2114,
      "Ġspecific": 2115,
      "serv": 2116,
      "Ġcover": 2117,
      "ario": 2118,
      "Ġeduc": 2119,
      "took": 2120,
      "neral": 2121,
      "iation": 2122,
      "Ġcity": 2123,
      "etwo": 2124,
      "Ġhot": 2125,
      "ond": 2126,
      "Ġface": 2127,
      "Ġtook": 2128,
      "Ġquick": 2129,
      "ĠThese": 2130,
      "ully": 2131,
      "ĠSch": 2132,
      "Ġcontr": 2133,
      "ows": 2134,
      "aps": 2135,
      "Ġparticular": 2136,
      "sions": 2137,
      "Ġtrai": 2138,
      "trave": 2139,
      "ctions": 2140,
      "nies": 2141,
      "As": 2142,
      "ique": 2143,
      "desc": 2144,
      "etwork": 2145,
      "iet": 2146,
      "gine": 2147,
      "either": 2148,
      "Ġtreat": 2149,
      "autif": 2150,
      "elow": 2151,
      "Ġorig": 2152,
      "comb": 2153,
      "by": 2154,
      "urther": 2155,
      "Ġleast": 2156,
      "Ġteac": 2157,
      "Ġant": 2158,
      "ĠCr": 2159,
      "Ġbar": 2160,
      "Ġgetting": 2161,
      "dat": 2162,
      "Fo": 2163,
      "va": 2164,
      "young": 2165,
      "Ġmajor": 2166,
      "ĠFl": 2167,
      "ĠVi": 2168,
      "ĠOur": 2169,
      "Ġevent": 2170,
      "ergy": 2171,
      "dy": 2172,
      "Ġpracti": 2173,
      "Ġtrave": 2174,
      "env": 2175,
      "rnal": 2176,
      "hod": 2177,
      "Ġyoung": 2178,
      "most": 2179,
      "ĠMy": 2180,
      "Ġdoing": 2181,
      "rel": 2182,
      "inn": 2183,
      "rise": 2184,
      "Ġhig": 2185,
      "ON": 2186,
      "Ġdesc": 2187,
      "ording": 2188,
      "Ġbed": 2189,
      "ians": 2190,
      "Ġauth": 2191,
      "dress": 2192,
      "Ġkey": 2193,
      "Ġbal": 2194,
      "Ġhuman": 2195,
      "Ġfina": 2196,
      "Ġautho": 2197,
      "Ġenv": 2198,
      "ĠCan": 2199,
      "ots": 2200,
      "Ġfund": 2201,
      "ironment": 2202,
      "mic": 2203,
      "chie": 2204,
      "Ġport": 2205,
      "?\"": 2206,
      "Ġwent": 2207,
      "Ġanal": 2208,
      "Ġstory": 2209,
      "ES": 2210,
      "itc": 2211,
      "Ġcolor": 2212,
      "Ġcontac": 2213,
      "unt": 2214,
      "ese": 2215,
      "tool": 2216,
      "Ġwhole": 2217,
      "Ġcul": 2218,
      "Ġminutes": 2219,
      "Ġsize": 2220,
      "nor": 2221,
      "Ġbro": 2222,
      "Ġcomb": 2223,
      "Ġstay": 2224,
      "ints": 2225,
      "ox": 2226,
      "Ġhours": 2227,
      "oli": 2228,
      "par": 2229,
      "gre": 2230,
      "ĠMay": 2231,
      "dent": 2232,
      "ama": 2233,
      "Ġheart": 2234,
      "Ġask": 2235,
      "ips": 2236,
      "Ġauthor": 2237,
      "iple": 2238,
      "ledg": 2239,
      "jects": 2240,
      "Ġstarted": 2241,
      "Ġinvol": 2242,
      "Ġfunc": 2243,
      "Ġknown": 2244,
      "Ġseason": 2245,
      "town": 2246,
      "Ġlearn": 2247,
      "ĠAt": 2248,
      "my": 2249,
      "Ġwin": 2250,
      "rack": 2251,
      "plac": 2252,
      "Ġbelow": 2253,
      "ĠCoun": 2254,
      "Ġserve": 2255,
      "sw": 2256,
      "Ġtool": 2257,
      "Ġmanu": 2258,
      "eautif": 2259,
      "Ġpurcha": 2260,
      "ĠSou": 2261,
      "Ġpractic": 2262,
      "Ġfuture": 2263,
      "sle": 2264,
      "evic": 2265,
      "stra": 2266,
      "Ġident": 2267,
      "etai": 2268,
      "near": 2269,
      "Ġperfect": 2270,
      "electr": 2271,
      "road": 2272,
      "Ġchara": 2273,
      "AT": 2274,
      "Ġcharac": 2275,
      "Ġcharact": 2276,
      "Ġcharacte": 2277,
      "Ġstrong": 2278,
      "vert": 2279,
      "Ġcharacter": 2280,
      "leg": 2281,
      "Bu": 2282,
      "Ġyet": 2283,
      "Ġwide": 2284,
      "Ġsound": 2285,
      "Ġnear": 2286,
      "idd": 2287,
      "sat": 2288,
      "she": 2289,
      "Ġgiven": 2290,
      "Ġearly": 2291,
      "gress": 2292,
      "St": 2293,
      "Ġleave": 2294,
      "tit": 2295,
      "Ġcontact": 2296,
      "Ġdoor": 2297,
      "Ġabove": 2298,
      "rop": 2299,
      "Ġproblem": 2300,
      "Ġactually": 2301,
      "evice": 2302,
      "detai": 2303,
      "Ġrela": 2304,
      "Ġfrien": 2305,
      "Ġfriend": 2306,
      "ribut": 2307,
      "omme": 2308,
      "There": 2309,
      "Ġdetai": 2310,
      "Ġvol": 2311,
      "Ġfield": 2312,
      "Ġelectr": 2313,
      "Ġmembers": 2314,
      "ipe": 2315,
      "spect": 2316,
      "AR": 2317,
      "lled": 2318,
      "ledge": 2319,
      "onship": 2320,
      "curity": 2321,
      "orre": 2322,
      "Ġindustry": 2323,
      "AN": 2324,
      "ona": 2325,
      "oid": 2326,
      "ĠKe": 2327,
      "ĠComm": 2328,
      "Ã©": 2329,
      "government": 2330,
      "iday": 2331,
      "uly": 2332,
      "cred": 2333,
      "Ġeverything": 2334,
      "ĠEu": 2335,
      "Ġbeautif": 2336,
      "ecess": 2337,
      "ommon": 2338,
      "ionship": 2339,
      "aring": 2340,
      "Ġoffers": 2341,
      "mfort": 2342,
      "ariou": 2343,
      "ubl": 2344,
      "arious": 2345,
      "ĠFa": 2346,
      "ĠTe": 2347,
      "itical": 2348,
      "Ġrelat": 2349,
      "tow": 2350,
      "Ġess": 2351,
      "Ġpap": 2352,
      "ntu": 2353,
      "Ġcompanies": 2354,
      "iso": 2355,
      "Ġreview": 2356,
      "iod": 2357,
      "Ġbit": 2358,
      "Ġmatter": 2359,
      "ones": 2360,
      "ĠHowever": 2361,
      "nne": 2362,
      "For": 2363,
      "Ġwond": 2364,
      "Ġplaye": 2365,
      "Ġplayer": 2366,
      "Ġbuilding": 2367,
      "ĠX": 2368,
      "rain": 2369,
      "Ġaddress": 2370,
      "common": 2371,
      "ifica": 2372,
      "Ġpractice": 2373,
      "Ġtow": 2374,
      "Ġsays": 2375,
      "ĠOne": 2376,
      "ĠSom": 2377,
      "hs": 2378,
      "link": 2379,
      "Ġgovernment": 2380,
      "ĠNort": 2381,
      "Ġseem": 2382,
      "Ġdoesn": 2383,
      "Ġunderstan": 2384,
      "Ġunderstand": 2385,
      "rew": 2386,
      "card": 2387,
      "hu": 2388,
      "ificat": 2389,
      "ĠOr": 2390,
      "ank": 2391,
      "hni": 2392,
      "No": 2393,
      "Ġreprese": 2394,
      "nswe": 2395,
      "Ġpress": 2396,
      "Ġseen": 2397,
      "Ġconsider": 2398,
      "gal": 2399,
      "Ġmonths": 2400,
      "Ġsimple": 2401,
      "Ġmethod": 2402,
      "gt": 2403,
      "chni": 2404,
      "taking": 2405,
      "Ġfollowing": 2406,
      "Ġ[": 2407,
      "Ġrecomme": 2408,
      "Ġsw": 2409,
      "answe": 2410,
      "Ġwome": 2411,
      "Ġpape": 2412,
      "teg": 2413,
      "econo": 2414,
      "Ġwomen": 2415,
      "device": 2416,
      "uat": 2417,
      "ĠSy": 2418,
      "ĠAss": 2419,
      "Ġwhite": 2420,
      "Ġsingle": 2421,
      "omfort": 2422,
      "ead": 2423,
      "cked": 2424,
      "Ġclear": 2425,
      "Ġresults": 2426,
      "llow": 2427,
      "kers": 2428,
      "tax": 2429,
      "necess": 2430,
      "Ġfeatures": 2431,
      "idg": 2432,
      "Ġdevice": 2433,
      "Ġamong": 2434,
      "Ġban": 2435,
      "sn": 2436,
      "Ġsol": 2437,
      "Ġsign": 2438,
      "of": 2439,
      "res": 2440,
      "When": 2441,
      "Ġpiece": 2442,
      "ivi": 2443,
      "urces": 2444,
      "Ġbegin": 2445,
      "ĠEngl": 2446,
      "kets": 2447,
      "Ġcontin": 2448,
      "due": 2449,
      "Ġpaper": 2450,
      "ĠGu": 2451,
      "ysi": 2452,
      "Ġanswe": 2453,
      "specially": 2454,
      "ĠDa": 2455,
      "lege": 2456,
      "Ġperformance": 2457,
      "Ġchallen": 2458,
      "active": 2459,
      "Ġfriends": 2460,
      "ĠAc": 2461,
      "ising": 2462,
      "ĠJohn": 2463,
      "Ġusu": 2464,
      "Ġsupe": 2465,
      "ument": 2466,
      "Ġfront": 2467,
      "Ġmen": 2468,
      "Ġfinish": 2469,
      "luti": 2470,
      "Ġextra": 2471,
      "Ġstore": 2472,
      "rry": 2473,
      "Ġcontent": 2474,
      "ibr": 2475,
      "living": 2476,
      "hin": 2477,
      "Ġecono": 2478,
      "lution": 2479,
      "avi": 2480,
      "ĠVe": 2481,
      "Ġsect": 2482,
      "risk": 2483,
      "tty": 2484,
      "Ġcustomers": 2485,
      "don": 2486,
      "Ġidea": 2487,
      "Ġhope": 2488,
      "Ġcommon": 2489,
      "Ġprob": 2490,
      "Ġquestions": 2491,
      "ify": 2492,
      "nsive": 2493,
      "Ġdue": 2494,
      "Ġenvironment": 2495,
      "Ġplat": 2496,
      "ooked": 2497,
      "Ġpriva": 2498,
      "ability": 2499,
      "ought": 2500,
      "sum": 2501,
      "nergy": 2502,
      "Ġplease": 2503,
      "Ġdrive": 2504,
      "Ġtax": 2505,
      "Ġmilli": 2506,
      "Ġwhether": 2507,
      "Ġvideo": 2508,
      "ĠSome": 2509,
      "dig": 2510,
      "epen": 2511,
      "uge": 2512,
      "Ġtechnology": 2513,
      "elle": 2514,
      "Ġaccount": 2515,
      "ĠUnited": 2516,
      "ĠMed": 2517,
      "Ġleader": 2518,
      "nsure": 2519,
      "idge": 2520,
      "hoice": 2521,
      "ibility": 2522,
      "Ġperiod": 2523,
      "OR": 2524,
      "aining": 2525,
      "Ġhalf": 2526,
      "Ġlink": 2527,
      "Ġvarious": 2528,
      "Ġliving": 2529,
      "Ġauto": 2530,
      "ĠRo": 2531,
      "itor": 2532,
      "corre": 2533,
      "obe": 2534,
      "To": 2535,
      "oach": 2536,
      "face": 2537,
      "pose": 2538,
      "How": 2539,
      "choice": 2540,
      "Ġtraining": 2541,
      "roo": 2542,
      "Ġeither": 2543,
      "eci": 2544,
      "ban": 2545,
      "ntal": 2546,
      "Ġmillion": 2547,
      "Ġfive": 2548,
      "Ġemploye": 2549,
      "sun": 2550,
      "dam": 2551,
      "Ġstudy": 2552,
      "inne": 2553,
      "selves": 2554,
      "Ġclo": 2555,
      "Ġtaking": 2556,
      "Ġproperty": 2557,
      "Ġprovides": 2558,
      "cast": 2559,
      "comfort": 2560,
      "ilar": 2561,
      "ensure": 2562,
      "ngu": 2563,
      "rld": 2564,
      "aff": 2565,
      "Ġalmost": 2566,
      "Ġbeautiful": 2567,
      "posed": 2568,
      "Ġcred": 2569,
      "Ġrisk": 2570,
      "Ġworks": 2571,
      "Ġfit": 2572,
      "Ġanything": 2573,
      "Ġchoice": 2574,
      "network": 2575,
      "Ġeffective": 2576,
      "iste": 2577,
      "Ġfurther": 2578,
      "rpor": 2579,
      "Ġcorre": 2580,
      "energy": 2581,
      "Ġfinanc": 2582,
      "Ġsomeone": 2583,
      "Ġoriginal": 2584,
      "Ġblack": 2585,
      "ĠWa": 2586,
      "cir": 2587,
      "Ġmess": 2588,
      "Ġquite": 2589,
      "ulati": 2590,
      "ĠPre": 2591,
      "ulation": 2592,
      "Ġcompu": 2593,
      "deci": 2594,
      "ĠNot": 2595,
      "nific": 2596,
      "track": 2597,
      "Ġensure": 2598,
      "onc": 2599,
      "especially": 2600,
      "Ġquesti": 2601,
      "Ġareas": 2602,
      "apt": 2603,
      "Ġdeci": 2604,
      "ĠÂ": 2605,
      "Ġblog": 2606,
      "Ġhistory": 2607,
      "Ġcard": 2608,
      "Ġbelieve": 2609,
      "ĠWest": 2610,
      "Ġnetwork": 2611,
      "Ġexpert": 2612,
      "Ġrequire": 2613,
      "Ġmag": 2614,
      "told": 2615,
      "Ġbasi": 2616,
      "Ġissues": 2617,
      "Ġprotec": 2618,
      "Ġpack": 2619,
      "Ġmanagement": 2620,
      "Ġnecess": 2621,
      "lea": 2622,
      "Ġrequired": 2623,
      "Ġentire": 2624,
      "oll": 2625,
      "echni": 2626,
      "date": 2627,
      "stead": 2628,
      "igat": 2629,
      "Ġsumm": 2630,
      "oes": 2631,
      "ego": 2632,
      "Ġenergy": 2633,
      "pac": 2634,
      "cated": 2635,
      "Ġtold": 2636,
      "Ġmac": 2637,
      "Ġoi": 2638,
      "Ġbuy": 2639,
      "Ġclaim": 2640,
      "ggest": 2641,
      "tail": 2642,
      "Ġflow": 2643,
      "Ġnu": 2644,
      "itut": 2645,
      "Ġcir": 2646,
      "labo": 2647,
      "code": 2648,
      "techni": 2649,
      "ants": 2650,
      "Ġneeded": 2651,
      "init": 2652,
      "efe": 2653,
      "Ġsuggest": 2654,
      "deb": 2655,
      "Ġear": 2656,
      "Ġmix": 2657,
      "ngine": 2658,
      "rnet": 2659,
      "arde": 2660,
      "Ġki": 2661,
      "Ġresult": 2662,
      "Ġdate": 2663,
      "Ġouts": 2664,
      "arm": 2665,
      "Ġcontinu": 2666,
      "Ġpercent": 2667,
      "Ġunique": 2668,
      "Ġpartn": 2669,
      "Ġarticle": 2670,
      "Ġsat": 2671,
      "ĠService": 2672,
      "icated": 2673,
      "ĠYork": 2674,
      "Ġpotent": 2675,
      "Ġdig": 2676,
      "itat": 2677,
      "aker": 2678,
      "Ġcause": 2679,
      "dia": 2680,
      "Ġaud": 2681,
      "Ġrole": 2682,
      "ĠAfter": 2683,
      "Ġhowever": 2684,
      "Ġself": 2685,
      "hoose": 2686,
      "arte": 2687,
      "Ġstrateg": 2688,
      "ola": 2689,
      "Ġdownload": 2690,
      "Ġconstr": 2691,
      "Ġtaken": 2692,
      "Ġmedia": 2693,
      "Ġsur": 2694,
      "chen": 2695,
      "Ġmanage": 2696,
      "insu": 2697,
      "ficul": 2698,
      "yourse": 2699,
      "Ġtechni": 2700,
      "ĠIs": 2701,
      "eterm": 2702,
      "Ġespecially": 2703,
      "mas": 2704,
      "Ġsimply": 2705,
      "Ġfoot": 2706,
      "Ġseries": 2707,
      "Ġassist": 2708,
      "Ġdeb": 2709,
      "urch": 2710,
      "Ġupon": 2711,
      "Ġexist": 2712,
      "ident": 2713,
      "ĠRa": 2714,
      "Ġdoub": 2715,
      "sume": 2716,
      "Ġaddition": 2717,
      "engine": 2718,
      "unch": 2719,
      "Ġdam": 2720,
      "Ġcut": 2721,
      "rated": 2722,
      "round": 2723,
      "harge": 2724,
      "Ġimpl": 2725,
      "ĠHis": 2726,
      "Ġyourse": 2727,
      "Al": 2728,
      "times": 2729,
      "ĠSu": 2730,
      "ira": 2731,
      "Ġwriting": 2732,
      "Ġeduca": 2733,
      "Ġmove": 2734,
      "sal": 2735,
      "instr": 2736,
      "Ġcomfort": 2737,
      "Ġparticipa": 2738,
      "Ġeducat": 2739,
      "rather": 2740,
      "hine": 2741,
      "Ġquestion": 2742,
      "ining": 2743,
      "Ġbreak": 2744,
      "eath": 2745,
      "Ġdifficul": 2746,
      "sati": 2747,
      "rials": 2748,
      "Ġasked": 2749,
      "mit": 2750,
      "Ġeffort": 2751,
      "six": 2752,
      "EN": 2753,
      "defe": 2754,
      "ĠEl": 2755,
      "Ġwanted": 2756,
      "Ġlikel": 2757,
      "reet": 2758,
      "Ġstaff": 2759,
      "Ġrai": 2760,
      "af": 2761,
      ".âĢĿ": 2762,
      "rust": 2763,
      "Ġsignific": 2764,
      "work": 2765,
      "Ġrather": 2766,
      "Ġinstr": 2767,
      "orc": 2768,
      "nty": 2769,
      "thin": 2770,
      "irt": 2771,
      "rue": 2772,
      "Ġlu": 2773,
      "ĠSout": 2774,
      "Ġserv": 2775,
      "capa": 2776,
      "ars": 2777,
      "yer": 2778,
      "else": 2779,
      "Ġprovided": 2780,
      "cop": 2781,
      "Ġamount": 2782,
      "Ġengine": 2783,
      "ĠSouth": 2784,
      "ĠCity": 2785,
      "ĠAust": 2786,
      "Ġlay": 2787,
      "Ġyourself": 2788,
      "Ġdesigned": 2789,
      "gree": 2790,
      "choose": 2791,
      "achie": 2792,
      "Ġnatural": 2793,
      "eneral": 2794,
      "And": 2795,
      "Ġconnec": 2796,
      "determ": 2797,
      "Ġinsu": 2798,
      "Ġfavor": 2799,
      "sation": 2800,
      "Ġtrack": 2801,
      "Ġchoose": 2802,
      "Ġcomput": 2803,
      "lected": 2804,
      "Ġmiss": 2805,
      "ays": 2806,
      "entu": 2807,
      "hird": 2808,
      "Ġroad": 2809,
      "Ġelse": 2810,
      "third": 2811,
      "Ġeveryone": 2812,
      "lia": 2813,
      "ĠMr": 2814,
      "aur": 2815,
      "reve": 2816,
      "idence": 2817,
      "Ġknowledge": 2818,
      "ĠDu": 2819,
      "Ġcapa": 2820,
      "Ġachie": 2821,
      "Ġsuppl": 2822,
      "Ġsearch": 2823,
      "Ġz": 2824,
      "inted": 2825,
      "Ġperm": 2826,
      "Ġdefe": 2827,
      "amb": 2828,
      "Ġhost": 2829,
      "eful": 2830,
      "ĠYour": 2831,
      "Ġpartne": 2832,
      "ada": 2833,
      "Ġpartner": 2834,
      "ED": 2835,
      "AS": 2836,
      "sible": 2837,
      "Ġkit": 2838,
      "Ġmeeting": 2839,
      "ĠArt": 2840,
      "para": 2841,
      "Ġsoon": 2842,
      "Ġreceive": 2843,
      "Ġinit": 2844,
      "ude": 2845,
      "ik": 2846,
      "ĠQu": 2847,
      "Ġdeterm": 2848,
      "ript": 2849,
      "Ġprotect": 2850,
      "Ġhy": 2851,
      "igure": 2852,
      "Ġopera": 2853,
      "ispl": 2854,
      "Ġestabl": 2855,
      "Ġvo": 2856,
      "ps": 2857,
      "ĠBar": 2858,
      "where": 2859,
      "Ġsix": 2860,
      "mini": 2861,
      "ĠNational": 2862,
      "Ġago": 2863,
      "ĠCal": 2864,
      "Ġwonde": 2865,
      "Ġnothing": 2866,
      "Ġbehind": 2867,
      "nced": 2868,
      "Ġbad": 2869,
      "Ġways": 2870,
      "Ġforward": 2871,
      "Ġhea": 2872,
      "Ġpar": 2873,
      "inside": 2874,
      "elive": 2875,
      "Ġground": 2876,
      "keting": 2877,
      "Ġpopular": 2878,
      "ĠPer": 2879,
      "ball": 2880,
      "rally": 2881,
      "Ġevents": 2882,
      "ival": 2883,
      "strat": 2884,
      "Ġadded": 2885,
      "ĠSup": 2886,
      "ĠWil": 2887,
      "Ġwonder": 2888,
      "Ġpromo": 2889,
      "let": 2890,
      "IS": 2891,
      "Ġsle": 2892,
      "Ġincludes": 2893,
      "Ġoutside": 2894,
      "Ġmeet": 2895,
      "Ġ/": 2896,
      "etc": 2897,
      "nice": 2898,
      "ecu": 2899,
      "Ġstyle": 2900,
      "Ġlikely": 2901,
      "Ġstop": 2902,
      "tory": 2903,
      "Ġthin": 2904,
      "Ġmon": 2905,
      "Ġthird": 2906,
      "terr": 2907,
      "Ġinside": 2908,
      "Ġsystems": 2909,
      "ĠPla": 2910,
      "Ġprepa": 2911,
      "overed": 2912,
      "Ġphone": 2913,
      "Ġvia": 2914,
      "Ġreve": 2915,
      "ĠOc": 2916,
      "Ġproblems": 2917,
      "Ġheld": 2918,
      "Ġregard": 2919,
      "cket": 2920,
      "ised": 2921,
      "Ġcode": 2922,
      "ĠSchool": 2923,
      "Ġwords": 2924,
      "inter": 2925,
      "delive": 2926,
      "Ġanswer": 2927,
      "irst": 2928,
      "rig": 2929,
      "ino": 2930,
      "ourt": 2931,
      "Ġste": 2932,
      "ĠCha": 2933,
      "ĠNorth": 2934,
      "Ġoptions": 2935,
      "Ġcoming": 2936,
      "Ġexpec": 2937,
      "Ġideas": 2938,
      "Ġanno": 2939,
      "Ġcompute": 2940,
      "Ġoil": 2941,
      "Ou": 2942,
      "Ġclean": 2943,
      "Ġposition": 2944,
      "Ġemail": 2945,
      "Ġrequest": 2946,
      "Ġtrying": 2947,
      "Ġsimilar": 2948,
      "very": 2949,
      "Ġmem": 2950,
      "Ġsoftware": 2951,
      "conc": 2952,
      "true": 2953,
      "gth": 2954,
      "Ġowne": 2955,
      "pu": 2956,
      "Ġdelive": 2957,
      "Ġprobably": 2958,
      "Ġsun": 2959,
      "Ġowner": 2960,
      "ouch": 2961,
      "Ġgames": 2962,
      "Ġbox": 2963,
      "Ġwood": 2964,
      "AL": 2965,
      "Ġtown": 2966,
      "Ġready": 2967,
      "Ġrelationship": 2968,
      "IT": 2969,
      "angu": 2970,
      "Ġcommuni": 2971,
      "Ġgree": 2972,
      "general": 2973,
      "But": 2974,
      "canno": 2975,
      "ĠStu": 2976,
      "Ġetc": 2977,
      "obal": 2978,
      "asil": 2979,
      "Ġprivat": 2980,
      "irl": 2981,
      "inner": 2982,
      "uple": 2983,
      "deal": 2984,
      "Ġapplica": 2985,
      "Ġhighl": 2986,
      "Ġapplicat": 2987,
      "Ġassoc": 2988,
      "Ġindividual": 2989,
      "ĠEd": 2990,
      "Ġstruc": 2991,
      "iza": 2992,
      "ara": 2993,
      "Ġcanno": 2994,
      "itten": 2995,
      "azing": 2996,
      "aft": 2997,
      "ĠDec": 2998,
      "partment": 2999,
      "pp": 3000,
      "Se": 3001,
      "aged": 3002,
      "Ġprevi": 3003,
      "Ġcomputer": 3004,
      "ĠHa": 3005,
      "ories": 3006,
      "Ġcreated": 3007,
      "ificati": 3008,
      "nces": 3009,
      "ification": 3010,
      "Ġfire": 3011,
      "Ġnote": 3012,
      "Ġsaw": 3013,
      "Ġnoti": 3014,
      "ĠBi": 3015,
      "Ġapplicati": 3016,
      "Ġapplication": 3017,
      "Ġtrue": 3018,
      "Ġsent": 3019,
      "lig": 3020,
      "Ġaff": 3021,
      "Ġoperat": 3022,
      "ames": 3023,
      "ller": 3024,
      "ĠWorld": 3025,
      "urn": 3026,
      "ctly": 3027,
      "olde": 3028,
      "eas": 3029,
      "save": 3030,
      "labor": 3031,
      "arden": 3032,
      "Ġhu": 3033,
      "ung": 3034,
      "##": 3035,
      "log": 3036,
      "Ġgeneral": 3037,
      "Ġcommunic": 3038,
      "Ġparty": 3039,
      "hers": 3040,
      "Ġthrougho": 3041,
      "Ġthroughou": 3042,
      "Ġthroughout": 3043,
      "Ġadditional": 3044,
      "Ġconc": 3045,
      "Ġdraw": 3046,
      "Ġsignificant": 3047,
      "Pr": 3048,
      "Ġrecog": 3049,
      "Ġhappen": 3050,
      "sitive": 3051,
      "ott": 3052,
      "Ġprivate": 3053,
      "head": 3054,
      "ouple": 3055,
      "Ġissue": 3056,
      "rough": 3057,
      "Ġveh": 3058,
      "sus": 3059,
      "ĠMu": 3060,
      "ĠStates": 3061,
      "Ġterr": 3062,
      "ister": 3063,
      "displ": 3064,
      "Ġdia": 3065,
      "nim": 3066,
      "cook": 3067,
      "ida": 3068,
      "Ġusually": 3069,
      "Ġimage": 3070,
      "insp": 3071,
      "iated": 3072,
      "nting": 3073,
      "Ġfinancial": 3074,
      "ared": 3075,
      "ĠĊ": 3076,
      "Ġchanges": 3077,
      "couple": 3078,
      "Ġlonge": 3079,
      "ĠNe": 3080,
      "Ġlonger": 3081,
      "Ġbott": 3082,
      "Ġsecurity": 3083,
      "lin": 3084,
      "squ": 3085,
      "court": 3086,
      "chan": 3087,
      "Ġdetails": 3088,
      "Ġdiscuss": 3089,
      "hes": 3090,
      "Ġsense": 3091,
      "ĠInc": 3092,
      "parat": 3093,
      "cio": 3094,
      "national": 3095,
      "onic": 3096,
      "tree": 3097,
      "mission": 3098,
      "tru": 3099,
      "Ġcannot": 3100,
      "dest": 3101,
      "orpor": 3102,
      "Re": 3103,
      "som": 3104,
      "Ġdispl": 3105,
      "Ġrequir": 3106,
      "Ġexa": 3107,
      "Ġcouple": 3108,
      "affe": 3109,
      "Ġtakes": 3110,
      "Ġvehicle": 3111,
      "Ġclients": 3112,
      "ĠHar": 3113,
      "Ġcontra": 3114,
      "lities": 3115,
      "iam": 3116,
      "Ġloca": 3117,
      "Ġpick": 3118,
      "Ġsave": 3119,
      "rap": 3120,
      "ances": 3121,
      "Ġcop": 3122,
      "Ġmanufac": 3123,
      "Ġchalleng": 3124,
      "Ġchallenge": 3125,
      "Ġskin": 3126,
      "IC": 3127,
      "ĠFre": 3128,
      "Ġdifficult": 3129,
      "Ġlearning": 3130,
      "fully": 3131,
      "Ġopportunity": 3132,
      "langu": 3133,
      "Ġcook": 3134,
      "Ġincrease": 3135,
      "erna": 3136,
      "Ġreceived": 3137,
      "loss": 3138,
      "ature": 3139,
      "ĠMarc": 3140,
      "charge": 3141,
      "Ġfloor": 3142,
      "Ġconnect": 3143,
      "isn": 3144,
      "Ġbuilt": 3145,
      "ĠTH": 3146,
      "Ġlocat": 3147,
      "Ġlocated": 3148,
      "asily": 3149,
      "Ġhappy": 3150,
      "zen": 3151,
      "ency": 3152,
      "Wh": 3153,
      "sor": 3154,
      "rule": 3155,
      "cele": 3156,
      "Ġeyes": 3157,
      "Ġregular": 3158,
      "otal": 3159,
      "Ġdeal": 3160,
      "Ġguide": 3161,
      "ju": 3162,
      "Ġnice": 3163,
      "ipment": 3164,
      "Ġhigher": 3165,
      "oni": 3166,
      "ĠPart": 3167,
      "Ġproduce": 3168,
      "Ġlen": 3169,
      "Ġtreatment": 3170,
      "aid": 3171,
      "Ġcourt": 3172,
      "Ġforc": 3173,
      "Ġclick": 3174,
      "ats": 3175,
      "Ġave": 3176,
      "izat": 3177,
      "egan": 3178,
      "Ġeducati": 3179,
      "izati": 3180,
      "ization": 3181,
      "Ġeducation": 3182,
      "ouse": 3183,
      "ampa": 3184,
      "Ġrunning": 3185,
      "Ġisn": 3186,
      "ades": 3187,
      "ĠApr": 3188,
      "Ġmodel": 3189,
      "Ġpoints": 3190,
      "Ġexpress": 3191,
      "ĠSan": 3192,
      "Ġpretty": 3193,
      "Ġfast": 3194,
      "Ġleg": 3195,
      "ief": 3196,
      "Ġcente": 3197,
      "Ġwatch": 3198,
      "Ġfocus": 3199,
      "ae": 3200,
      "Ġpan": 3201,
      "ĠBy": 3202,
      "ĠChe": 3203,
      "coun": 3204,
      "Ġrule": 3205,
      "Ġcontinue": 3206,
      "Ġcharge": 3207,
      "Ġtru": 3208,
      "Ġpolic": 3209,
      "easily": 3210,
      "AC": 3211,
      "Ġrad": 3212,
      "Ġtree": 3213,
      "Ġmoment": 3214,
      "nch": 3215,
      "asti": 3216,
      "Ġmob": 3217,
      "ĠCont": 3218,
      "Ġhair": 3219,
      "Ġexpect": 3220,
      "Ġinsurance": 3221,
      "Ġvers": 3222,
      "Ġemployee": 3223,
      "Ġinternational": 3224,
      "Ġconcern": 3225,
      "place": 3226,
      "Ġpark": 3227,
      "Ġdest": 3228,
      "ubli": 3229,
      "hib": 3230,
      "Ġeasily": 3231,
      "Ġstu": 3232,
      "stitut": 3233,
      "Ġversi": 3234,
      "Ġmin": 3235,
      "cool": 3236,
      "Ġaccording": 3237,
      "Ġdescrib": 3238,
      "Ġquickl": 3239,
      "Ġinsp": 3240,
      "Ġquickly": 3241,
      "pair": 3242,
      "wise": 3243,
      "aily": 3244,
      "total": 3245,
      "Ġmaterial": 3246,
      "Ġlangu": 3247,
      "oan": 3248,
      "Ġmorning": 3249,
      "Ġversion": 3250,
      "eep": 3251,
      "giving": 3252,
      "anim": 3253,
      "emi": 3254,
      "Ġfilm": 3255,
      "ilities": 3256,
      "ĠOp": 3257,
      "Ġfile": 3258,
      "leve": 3259,
      "shing": 3260,
      "uni": 3261,
      "nate": 3262,
      "aging": 3263,
      "Ġkids": 3264,
      "Ġnational": 3265,
      "Ġcoun": 3266,
      "Ġactivities": 3267,
      "ublic": 3268,
      "ops": 3269,
      "Ġskills": 3270,
      "dea": 3271,
      "looked": 3272,
      "trip": 3273,
      "stant": 3274,
      "Our": 3275,
      "Ġdefin": 3276,
      "ĠAr": 3277,
      "Ġcenter": 3278,
      "Ġpreve": 3279,
      "egree": 3280,
      "ground": 3281,
      "Ġtotal": 3282,
      "Ġcompet": 3283,
      "Ġpotential": 3284,
      "RE": 3285,
      "ĠAu": 3286,
      "Ġusers": 3287,
      "Ġcy": 3288,
      "Ġmot": 3289,
      "Ġbil": 3290,
      "....": 3291,
      "Ġphys": 3292,
      "Ġloss": 3293,
      "degree": 3294,
      "Ġitself": 3295,
      "Ġwrite": 3296,
      "ĠJust": 3297,
      "Ġbegan": 3298,
      "wish": 3299,
      "ĠWill": 3300,
      "Ġshows": 3301,
      "Ġaffe": 3302,
      "ciou": 3303,
      "Ġwall": 3304,
      "cious": 3305,
      "Ġintrod": 3306,
      "arth": 3307,
      "Ġshall": 3308,
      "Ġweeks": 3309,
      "Ġworked": 3310,
      "spon": 3311,
      "camp": 3312,
      "Ġsuper": 3313,
      "ĠWar": 3314,
      "Ġcool": 3315,
      "Ġfeeling": 3316,
      "spective": 3317,
      "imum": 3318,
      "itch": 3319,
      "Ġround": 3320,
      "ecame": 3321,
      "Ġtalk": 3322,
      "Ġgrowt": 3323,
      "ser": 3324,
      "Ġcaree": 3325,
      "Ġemp": 3326,
      "Ġnorm": 3327,
      "Ġnews": 3328,
      "Ġexcelle": 3329,
      "iddle": 3330,
      "Ġbecame": 3331,
      "Ġemb": 3332,
      "Ġseems": 3333,
      "Ġcareer": 3334,
      "Ġmother": 3335,
      "Ġarc": 3336,
      "Ġgrowth": 3337,
      "Ġfix": 3338,
      "Ġstandard": 3339,
      "Ġser": 3340,
      "Ġitems": 3341,
      "Ġwish": 3342,
      "astic": 3343,
      "www": 3344,
      "ĠPo": 3345,
      "Ġx": 3346,
      "Ġincluded": 3347,
      "Ġret": 3348,
      "Ġanyone": 3349,
      "Ġtrip": 3350,
      "Ġcurrentl": 3351,
      "Ġcurrently": 3352,
      "Ġproducti": 3353,
      "Ġproduction": 3354,
      "Ġnecessary": 3355,
      "Ġhands": 3356,
      "Ġreading": 3357,
      "ĠCompa": 3358,
      "ells": 3359,
      "Ġthemselves": 3360,
      "Ġdifference": 3361,
      "Ġprojects": 3362,
      "ysis": 3363,
      "Ġvariety": 3364,
      "back": 3365,
      "nks": 3366,
      "Ġannounc": 3367,
      "haps": 3368,
      "Ġbran": 3369,
      "Ġprio": 3370,
      "Ġfresh": 3371,
      "Ġsetting": 3372,
      "Ġprior": 3373,
      "ĠCente": 3374,
      "Ġsales": 3375,
      "ibl": 3376,
      "istr": 3377,
      "ery": 3378,
      "ĠNow": 3379,
      "ĠReg": 3380,
      "Ġgreen": 3381,
      "Ġfelt": 3382,
      "Ġeffic": 3383,
      "ĠMc": 3384,
      "dise": 3385,
      "ui": 3386,
      "Ġcele": 3387,
      "ondon": 3388,
      "Ġopti": 3389,
      "point": 3390,
      "Ġfai": 3391,
      "Ġbase": 3392,
      "Ġprope": 3393,
      "uced": 3394,
      "ĠNov": 3395,
      "len": 3396,
      "Ġanim": 3397,
      "rating": 3398,
      "Ġterms": 3399,
      "Ġinstall": 3400,
      "tching": 3401,
      "Ġintegr": 3402,
      "Ġlives": 3403,
      "Ġbooks": 3404,
      "inary": 3405,
      "ving": 3406,
      "centu": 3407,
      "Ġmodern": 3408,
      "ĠThen": 3409,
      "ĠGerm": 3410,
      "slan": 3411,
      "ĠApri": 3412,
      "Ġena": 3413,
      "Ġapproach": 3414,
      "Ġdegree": 3415,
      "wed": 3416,
      "essi": 3417,
      "Ġforce": 3418,
      "Ġlooked": 3419,
      "Ġsumme": 3420,
      "rents": 3421,
      "Ġdea": 3422,
      "Ġsummer": 3423,
      "lost": 3424,
      "oop": 3425,
      "lute": 3426,
      "ĠIndia": 3427,
      "Ġimprove": 3428,
      "Ġrecent": 3429,
      "Ġlowe": 3430,
      "rec": 3431,
      "cro": 3432,
      "ĠCounty": 3433,
      "ebook": 3434,
      "ĠSoc": 3435,
      "just": 3436,
      "Ġlooks": 3437,
      "Ġallows": 3438,
      "ĠCenter": 3439,
      "Ġmass": 3440,
      "ĠApril": 3441,
      "Ġbrand": 3442,
      "With": 3443,
      "Ġbill": 3444,
      "Ġfavorite": 3445,
      "sland": 3446,
      "rday": 3447,
      "anced": 3448,
      "acy": 3449,
      "slow": 3450,
      "Ġparts": 3451,
      "sual": 3452,
      "rly": 3453,
      "Ġhol": 3454,
      "Ġrelated": 3455,
      "este": 3456,
      "death": 3457,
      "Ġfore": 3458,
      "Ġboard": 3459,
      "some": 3460,
      "Ġcamp": 3461,
      "Ġimmed": 3462,
      "Ġhimself": 3463,
      "Ġconditions": 3464,
      "wel": 3465,
      "Ġins": 3466,
      "ĠHigh": 3467,
      "ĠAustral": 3468,
      "ya": 3469,
      "Ġcredit": 3470,
      "Ġknew": 3471,
      "Ġsou": 3472,
      "Ġoption": 3473,
      "targe": 3474,
      "Ġlocati": 3475,
      "Ġamazing": 3476,
      "Ġlocation": 3477,
      "olu": 3478,
      "una": 3479,
      "Ġsched": 3480,
      "Ġmedical": 3481,
      "fri": 3482,
      "Ġimmediate": 3483,
      "Ġkitchen": 3484,
      "ĠEnglish": 3485,
      "touch": 3486,
      "Ġmyself": 3487,
      "trust": 3488,
      "Ġlost": 3489,
      "Ġsport": 3490,
      "ĠPark": 3491,
      "Ġlower": 3492,
      "Ġpatients": 3493,
      "inno": 3494,
      "Ġfeed": 3495,
      "instead": 3496,
      "tin": 3497,
      "Ġdisplay": 3498,
      "lad": 3499,
      "ison": 3500,
      "Ġslow": 3501,
      "ĠMon": 3502,
      "ham": 3503,
      "hood": 3504,
      "opping": 3505,
      "Ġpain": 3506,
      "Ġcelebr": 3507,
      "Ġpolicy": 3508,
      "Ġability": 3509,
      "isti": 3510,
      "Ġmarketing": 3511,
      "Ġmaterials": 3512,
      "Ġdeath": 3513,
      "Ġexpa": 3514,
      "eck": 3515,
      "atest": 3516,
      "udg": 3517,
      "fric": 3518,
      "Ġente": 3519,
      "Ġut": 3520,
      "ĠCom": 3521,
      "Ġcross": 3522,
      "ĠSm": 3523,
      "ĠRi": 3524,
      "Ġlog": 3525,
      "ibe": 3526,
      "urnal": 3527,
      "oogle": 3528,
      "ĠHer": 3529,
      "Ġcommit": 3530,
      "ema": 3531,
      "Ġleve": 3532,
      "ĠOct": 3533,
      "Ġimpac": 3534,
      "frica": 3535,
      "Ġsqu": 3536,
      "Ġinstead": 3537,
      "based": 3538,
      "Ġtrust": 3539,
      "text": 3540,
      "//": 3541,
      "Ġproviding": 3542,
      "Ġwarm": 3543,
      "aby": 3544,
      "My": 3545,
      "Ġgrad": 3546,
      "eo": 3547,
      "ential": 3548,
      "Ġtarge": 3549,
      "ĠMarch": 3550,
      "Ġcosts": 3551,
      "icul": 3552,
      "Ġworth": 3553,
      "Ġscreen": 3554,
      "latest": 3555,
      "arter": 3556,
      "Ġheat": 3557,
      "arl": 3558,
      "ĠLo": 3559,
      "Ġwritten": 3560,
      "ĠHom": 3561,
      "Ġtouch": 3562,
      "ĠAir": 3563,
      "tured": 3564,
      "althy": 3565,
      "Ġletter": 3566,
      "rable": 3567,
      "Ġstock": 3568,
      "Ġlatest": 3569,
      "Ġchance": 3570,
      "ĠHouse": 3571,
      "__": 3572,
      "akes": 3573,
      "Ġinno": 3574,
      "Ġoccur": 3575,
      "Ġlegal": 3576,
      "Ġtravel": 3577,
      "Ġcau": 3578,
      "hus": 3579,
      "Ġagre": 3580,
      "Ġdema": 3581,
      "Ġprim": 3582,
      "san": 3583,
      "Ġfan": 3584,
      "ĠÐ": 3585,
      "Ġhit": 3586,
      "Ġprograms": 3587,
      "Ġweight": 3588,
      "Ġequipment": 3589,
      "lutions": 3590,
      "Ġplatform": 3591,
      "Ġpaint": 3592,
      "Ġattention": 3593,
      "Ġplayers": 3594,
      "Ġanti": 3595,
      "??": 3596,
      "Ġremember": 3597,
      "Ġrecently": 3598,
      "Ġleading": 3599,
      "Ġwar": 3600,
      "trea": 3601,
      "Ġphotograp": 3602,
      "Ġpea": 3603,
      "Ġpurchase": 3604,
      "rrow": 3605,
      "Ġsurp": 3606,
      "Ġones": 3607,
      "sday": 3608,
      "Ġtemp": 3609,
      "Ġrelease": 3610,
      "cance": 3611,
      "Ġspir": 3612,
      "Ġru": 3613,
      "nte": 3614,
      "Ġimpact": 3615,
      "Ġtypes": 3616,
      "Ġhear": 3617,
      "Ġinvolved": 3618,
      "gave": 3619,
      "Ġorgani": 3620,
      "Ġwalk": 3621,
      "Ġtit": 3622,
      "Ġmachine": 3623,
      "tics": 3624,
      "Ġ#": 3625,
      "Ġstudent": 3626,
      "aught": 3627,
      "istic": 3628,
      "Ġgoal": 3629,
      "Ġrepresent": 3630,
      "Ġsale": 3631,
      "Ġblood": 3632,
      "Ġturned": 3633,
      "Ġfacto": 3634,
      "ĠLondon": 3635,
      "ague": 3636,
      "Ġspeed": 3637,
      "Ġsubject": 3638,
      "ĠAg": 3639,
      "Ġhighly": 3640,
      "uati": 3641,
      "lers": 3642,
      "rner": 3643,
      "Ġaward": 3644,
      "uation": 3645,
      "Ġwasn": 3646,
      "\".": 3647,
      "Ġsolution": 3648,
      "Ġcases": 3649,
      "Ġlevels": 3650,
      "ĠWhile": 3651,
      "ĠManag": 3652,
      "Ġsold": 3653,
      "Ġblock": 3654,
      "--": 3655,
      "sfer": 3656,
      "Ġdecis": 3657,
      "Ġdecisi": 3658,
      "nsfer": 3659,
      "avy": 3660,
      "ercial": 3661,
      "ansfer": 3662,
      "cided": 3663,
      "Ġcollection": 3664,
      "Ġtraditional": 3665,
      "Ġdecision": 3666,
      "nual": 3667,
      "Ġfine": 3668,
      "Ġgave": 3669,
      "OU": 3670,
      "Ġindi": 3671,
      "eur": 3672,
      "ĠFac": 3673,
      "amo": 3674,
      "ĠAug": 3675,
      "ĠGo": 3676,
      "Ġroo": 3677,
      "Ġvoice": 3678,
      "ĠFro": 3679,
      "bor": 3680,
      "Ġenco": 3681,
      "Ġencou": 3682,
      "Ġeme": 3683,
      "ecided": 3684,
      "tus": 3685,
      "Ġautom": 3686,
      "ĠUK": 3687,
      "decided": 3688,
      "Ġhar": 3689,
      "Ġcance": 3690,
      "Ġexcellent": 3691,
      "shi": 3692,
      "Ġgiving": 3693,
      "Ġcontrac": 3694,
      "Ġdecided": 3695,
      "turing": 3696,
      "wer": 3697,
      "ĠGl": 3698,
      "ession": 3699,
      "Ġindividu": 3700,
      "Ġimm": 3701,
      "Ġdise": 3702,
      "Ġstren": 3703,
      "ĠSept": 3704,
      "ĠKa": 3705,
      "itter": 3706,
      "ĠIr": 3707,
      "Ġvic": 3708,
      "OT": 3709,
      "daily": 3710,
      "dg": 3711,
      "ĠAfrica": 3712,
      "Ġdirectly": 3713,
      "ffice": 3714,
      "rope": 3715,
      "tw": 3716,
      "dry": 3717,
      "tego": 3718,
      "ride": 3719,
      "Ġglass": 3720,
      "hol": 3721,
      "Ġheard": 3722,
      "Ġfather": 3723,
      "ripti": 3724,
      "cide": 3725,
      "Ġabso": 3726,
      "ological": 3727,
      "ests": 3728,
      "ĠNa": 3729,
      "Ġgives": 3730,
      "Ġparents": 3731,
      "ĠDi": 3732,
      "ĠJune": 3733,
      "://": 3734,
      "task": 3735,
      "ription": 3736,
      "Ġhuge": 3737,
      "Ġcountries": 3738,
      "Ġtools": 3739,
      "Ġarch": 3740,
      "inju": 3741,
      "Ġsend": 3742,
      "At": 3743,
      "Ġnature": 3744,
      "loved": 3745,
      "Ġplans": 3746,
      "Ġsort": 3747,
      "avio": 3748,
      "nsport": 3749,
      "ĠRob": 3750,
      "ansport": 3751,
      "tives": 3752,
      "oving": 3753,
      "Ġsurface": 3754,
      "Ġsource": 3755,
      "Ġdaily": 3756,
      "Ġfactor": 3757,
      "apte": 3758,
      "itati": 3759,
      "opr": 3760,
      "bility": 3761,
      "OS": 3762,
      "apter": 3763,
      "Ġthinking": 3764,
      "Ġresources": 3765,
      "Ġattr": 3766,
      "opped": 3767,
      "Ġtext": 3768,
      "ony": 3769,
      "itation": 3770,
      "bou": 3771,
      "uments": 3772,
      "dd": 3773,
      "Ġfight": 3774,
      "Ġeffect": 3775,
      "ern": 3776,
      "Ġqual": 3777,
      "Ġbenefits": 3778,
      "lm": 3779,
      "ĠHome": 3780,
      "za": 3781,
      "aint": 3782,
      "Ġgar": 3783,
      "dark": 3784,
      "Ġtrea": 3785,
      "Ġattem": 3786,
      "Ġextreme": 3787,
      "ured": 3788,
      "Ġgran": 3789,
      "ĠFrom": 3790,
      "Ġliste": 3791,
      "Ġinju": 3792,
      "Ġforme": 3793,
      "Ġtask": 3794,
      "Ġseri": 3795,
      "inge": 3796,
      "eyond": 3797,
      "Ġaverage": 3798,
      "Ġmobile": 3799,
      "ober": 3800,
      "ka": 3801,
      "Ġcompletel": 3802,
      "ĠPlease": 3803,
      "Ġcompletely": 3804,
      "itel": 3805,
      "Ġsecti": 3806,
      "Ġsection": 3807,
      "Ġsafety": 3808,
      "deep": 3809,
      "ense": 3810,
      "Ġplea": 3811,
      "Ġprint": 3812,
      "Ġgoe": 3813,
      "Ġfal": 3814,
      "Ġsometimes": 3815,
      "Ġgroups": 3816,
      "rnational": 3817,
      "Ġfunct": 3818,
      "ample": 3819,
      "ĠGeo": 3820,
      "ounts": 3821,
      "Ġfuncti": 3822,
      "Ġwoma": 3823,
      "Ġ*": 3824,
      "Ġfeet": 3825,
      "Ġrestaur": 3826,
      "iture": 3827,
      "house": 3828,
      "AM": 3829,
      "Ġmultiple": 3830,
      "Ġcomplex": 3831,
      "Ġsuit": 3832,
      "Ġfully": 3833,
      "Ġwoman": 3834,
      "ttern": 3835,
      "Ġlanguage": 3836,
      "iring": 3837,
      "nha": 3838,
      "Ġmention": 3839,
      "nuary": 3840,
      "ĠWind": 3841,
      "Ġsolutions": 3842,
      "Ġindic": 3843,
      "Ġclos": 3844,
      "Ġtowards": 3845,
      "Ġexecu": 3846,
      "Ġactive": 3847,
      "Ġmoun": 3848,
      "Ġreach": 3849,
      "Ġdark": 3850,
      "Ġgoes": 3851,
      "ampaign": 3852,
      "apan": 3853,
      "Ġmaintain": 3854,
      "Ġdisease": 3855,
      "Ġdigital": 3856,
      "ibly": 3857,
      "ĠKing": 3858,
      "nsa": 3859,
      "Ġfigure": 3860,
      "ĠInternational": 3861,
      "Ġinterv": 3862,
      "Ġplaying": 3863,
      "Ġinteresting": 3864,
      "board": 3865,
      "ĠYe": 3866,
      "ĠDay": 3867,
      "lus": 3868,
      "century": 3869,
      "ĠSpa": 3870,
      "Ġimages": 3871,
      "Ġcontract": 3872,
      "weet": 3873,
      "Ġded": 3874,
      "Ġhelps": 3875,
      "Ġwrong": 3876,
      "smi": 3877,
      "ãģ": 3878,
      "rights": 3879,
      "Ġrefer": 3880,
      "itely": 3881,
      "Ġupdate": 3882,
      "Ġconse": 3883,
      "Ġpositive": 3884,
      "Ġconduc": 3885,
      "Ġreside": 3886,
      "iff": 3887,
      "nner": 3888,
      "Ġcommunica": 3889,
      "Ġcommunicat": 3890,
      "cting": 3891,
      "Ġfeature": 3892,
      "liver": 3893,
      "dream": 3894,
      "Ġglobal": 3895,
      "Ġpicture": 3896,
      "Ġ:": 3897,
      "ek": 3898,
      "Ġfall": 3899,
      "uel": 3900,
      "Ġpolitical": 3901,
      "Ġdeep": 3902,
      "rade": 3903,
      "Ġeas": 3904,
      "All": 3905,
      "nable": 3906,
      "Ġcru": 3907,
      "ipped": 3908,
      "vent": 3909,
      "That": 3910,
      "cqu": 3911,
      "Ġorganiza": 3912,
      "Ġbrought": 3913,
      "ĠAcc": 3914,
      "Ġconsidered": 3915,
      "Ġorganizat": 3916,
      "Ġorganizati": 3917,
      "Ġorganization": 3918,
      "Ġdry": 3919,
      "Ġadmini": 3920,
      "word": 3921,
      "Ġdeveloped": 3922,
      "Ġcarry": 3923,
      "AP": 3924,
      "Ġpred": 3925,
      "sumer": 3926,
      "ray": 3927,
      "Ġmid": 3928,
      "dead": 3929,
      "Ġoffering": 3930,
      "Ġmatch": 3931,
      "Ġplanning": 3932,
      "loan": 3933,
      "olic": 3934,
      "Ġbirth": 3935,
      "mpo": 3936,
      "lage": 3937,
      "ransfer": 3938,
      "Ġplaces": 3939,
      "gets": 3940,
      "imatel": 3941,
      "imately": 3942,
      "ishe": 3943,
      "ĠOf": 3944,
      "Ġprices": 3945,
      "ĠMac": 3946,
      "Ġconsist": 3947,
      "lack": 3948,
      "ĠRuss": 3949,
      "Ġfirm": 3950,
      "igi": 3951,
      "ĠAssoc": 3952,
      "izing": 3953,
      "ĠSpe": 3954,
      "anch": 3955,
      "nio": 3956,
      "Ġdoct": 3957,
      "irs": 3958,
      "Ġbag": 3959,
      "garden": 3960,
      "Ðµ": 3961,
      "Ġsce": 3962,
      "Ġapa": 3963,
      "Ġval": 3964,
      "pat": 3965,
      "Ġblue": 3966,
      "ckets": 3967,
      "ĠMore": 3968,
      "Ġfacil": 3969,
      "ĠFeb": 3970,
      "aine": 3971,
      "nna": 3972,
      "syc": 3973,
      "One": 3974,
      "Ġsleep": 3975,
      "iers": 3976,
      "Ġsecu": 3977,
      "unte": 3978,
      "Ġrepair": 3979,
      "Ġtw": 3980,
      "tried": 3981,
      "Ġdream": 3982,
      "itary": 3983,
      "Ġrights": 3984,
      "Ġ...": 3985,
      "atego": 3986,
      "Ġdress": 3987,
      "ffee": 3988,
      "atch": 3989,
      "Ġanaly": 3990,
      "oning": 3991,
      "eigh": 3992,
      "Ġvot": 3993,
      "Ġrequirements": 3994,
      "Ġseparat": 3995,
      "Ġreduce": 3996,
      "igati": 3997,
      "ecl": 3998,
      "Ġeat": 3999,
      "stitute": 4000,
      "igation": 4001,
      "Ġtried": 4002,
      "ials": 4003,
      "Ġexpected": 4004,
      "irect": 4005,
      "ĠWeb": 4006,
      "ĠJuly": 4007,
      "ĠEa": 4008,
      "ored": 4009,
      "rock": 4010,
      "mpt": 4011,
      "ĠJanuary": 4012,
      "orpora": 4013,
      "Ġdead": 4014,
      "ana": 4015,
      "Ġtechnique": 4016,
      "Ġgarden": 4017,
      "ĠPhi": 4018,
      "amm": 4019,
      "orporat": 4020,
      "dge": 4021,
      "actions": 4022,
      "Ġattack": 4023,
      "Ġled": 4024,
      "Ġsuccessful": 4025,
      "ĠChina": 4026,
      "chang": 4027,
      "ĠBlack": 4028,
      "Ġep": 4029,
      "Ġvote": 4030,
      "Ġhisto": 4031,
      "acqu": 4032,
      ".'": 4033,
      "nati": 4034,
      "Ġapply": 4035,
      "ashing": 4036,
      "Ġ**": 4037,
      "div": 4038,
      "lots": 4039,
      "transfer": 4040,
      "Ġsho": 4041,
      "ĠOpe": 4042,
      "Ġpublished": 4043,
      "ĠSeptember": 4044,
      "Ġlimited": 4045,
      "neigh": 4046,
      "Ġmoving": 4047,
      "Ġdom": 4048,
      "Ġphysical": 4049,
      "ING": 4050,
      "ĠHere": 4051,
      "âĢĿ.": 4052,
      "ĠFe": 4053,
      "tena": 4054,
      "iable": 4055,
      "illing": 4056,
      "Ġloan": 4057,
      "ĠTu": 4058,
      "ipping": 4059,
      "gy": 4060,
      "Ġsituation": 4061,
      "ĠAlt": 4062,
      "pli": 4063,
      "casi": 4064,
      "Ġsites": 4065,
      "ford": 4066,
      "change": 4067,
      "Ġinterested": 4068,
      "Ġexactly": 4069,
      "Ġprem": 4070,
      "Ġimpress": 4071,
      "Ġneigh": 4072,
      "Ġformer": 4073,
      "sher": 4074,
      "ky": 4075,
      "Ġconver": 4076,
      "ĠGra": 4077,
      "ĠOctober": 4078,
      "Ġunderstanding": 4079,
      "Ġmeasure": 4080,
      "Ġadvant": 4081,
      "set": 4082,
      "Ġprogress": 4083,
      "Ġapart": 4084,
      "Ġcreating": 4085,
      "Ġpath": 4086,
      "undred": 4087,
      "cks": 4088,
      "Ġclient": 4089,
      "ĠPresident": 4090,
      "bs": 4091,
      "Ġdrug": 4092,
      "ĠRed": 4093,
      "cry": 4094,
      "ĠRep": 4095,
      "ependent": 4096,
      "Ġhistor": 4097,
      "Ġpattern": 4098,
      "ttle": 4099,
      "sych": 4100,
      "Ġanalysis": 4101,
      "lock": 4102,
      "OM": 4103,
      "Ġtransfer": 4104,
      "Ġeva": 4105,
      "ĠGoogle": 4106,
      "ĠOffice": 4107,
      "Ġpressure": 4108,
      "ĠAugust": 4109,
      "Ġacqu": 4110,
      "leased": 4111,
      "dding": 4112,
      "ĠPet": 4113,
      "ĠTV": 4114,
      "EC": 4115,
      "band": 4116,
      "ittee": 4117,
      "ĠJapan": 4118,
      "Ġphotos": 4119,
      "iforn": 4120,
      "ĠPhil": 4121,
      "Do": 4122,
      "Ġcollege": 4123,
      "campaign": 4124,
      "rround": 4125,
      "ĠThu": 4126,
      "She": 4127,
      "Ġtempe": 4128,
      "put": 4129,
      "liter": 4130,
      "Ġbeginning": 4131,
      "Ġplant": 4132,
      "Ġgrowing": 4133,
      "Ġindividuals": 4134,
      "Ġspen": 4135,
      "rch": 4136,
      "ĠSim": 4137,
      "Ġspend": 4138,
      "tton": 4139,
      "ĠStr": 4140,
      "Ð¾": 4141,
      "aph": 4142,
      "Ġcampaign": 4143,
      "ante": 4144,
      "wards": 4145,
      "Ġtemper": 4146,
      "ET": 4147,
      "Ġmax": 4148,
      "Ġmedi": 4149,
      "Ġpul": 4150,
      "ando": 4151,
      "Ġprinc": 4152,
      "ropean": 4153,
      "Ġstarting": 4154,
      "shed": 4155,
      "Ġaim": 4156,
      "key": 4157,
      "tim": 4158,
      "Ġconstruction": 4159,
      "ST": 4160,
      "oner": 4161,
      "oast": 4162,
      "Ġapplications": 4163,
      "oat": 4164,
      "ĠAut": 4165,
      "cash": 4166,
      "Ġdiv": 4167,
      "Ġprevio": 4168,
      "After": 4169,
      "Ġpreviou": 4170,
      "Ġprevious": 4171,
      "ĠHealth": 4172,
      "ribute": 4173,
      "Ġclub": 4174,
      "Ġwonderful": 4175,
      "cations": 4176,
      "ifornia": 4177,
      "Ġplayed": 4178,
      "irm": 4179,
      "ĠEven": 4180,
      "olut": 4181,
      "iance": 4182,
      "Ġ--": 4183,
      "owd": 4184,
      "Ġregi": 4185,
      "Ġcamer": 4186,
      "spite": 4187,
      "rations": 4188,
      "rick": 4189,
      "Ġexerc": 4190,
      "Ġinflue": 4191,
      "ĠAN": 4192,
      "Ġactivity": 4193,
      "apo": 4194,
      "Ġofficial": 4195,
      "avid": 4196,
      "Ġfunction": 4197,
      "Ġdog": 4198,
      "itish": 4199,
      "Ġalterna": 4200,
      "Ġcommercial": 4201,
      "Ġprovider": 4202,
      "Ġmeaning": 4203,
      "vat": 4204,
      "Ġregion": 4205,
      "Ġmessage": 4206,
      "inate": 4207,
      "oluti": 4208,
      "hest": 4209,
      "Ġsati": 4210,
      "Ġbeyond": 4211,
      "Ġbusinesse": 4212,
      "Ġbusinesses": 4213,
      "Ġsatis": 4214,
      "Ġnotic": 4215,
      "Ġsan": 4216,
      "Ġstorage": 4217,
      "ĠAdd": 4218,
      "trade": 4219,
      "dol": 4220,
      "ĠEvery": 4221,
      "Ġlab": 4222,
      "Ġquo": 4223,
      "Ġplu": 4224,
      "Ġearl": 4225,
      "yl": 4226,
      "vel": 4227,
      "Ġresponse": 4228,
      "decl": 4229,
      "Ġwait": 4230,
      "Ġshape": 4231,
      "ĠDecember": 4232,
      "Ġautoma": 4233,
      "Ġstress": 4234,
      "EL": 4235,
      "Ġemployees": 4236,
      "Ġdocument": 4237,
      "tea": 4238,
      "ĠPort": 4239,
      "ĠWel": 4240,
      "Ġspent": 4241,
      "Ġframe": 4242,
      "eight": 4243,
      "hurch": 4244,
      "catego": 4245,
      "ederal": 4246,
      "Ġpurpose": 4247,
      "ĠLi": 4248,
      "Ġautomat": 4249,
      "ipl": 4250,
      "Ġload": 4251,
      "Ġgets": 4252,
      "Ġcash": 4253,
      "Ġsurround": 4254,
      "ĠCu": 4255,
      "dom": 4256,
      "Ġstage": 4257,
      "Ġfab": 4258,
      "Ġexcl": 4259,
      "cab": 4260,
      "Ġbehavio": 4261,
      "erally": 4262,
      "nest": 4263,
      "Ġphoto": 4264,
      "Ġcertainl": 4265,
      "Ġcertainly": 4266,
      "body": 4267,
      "ears": 4268,
      "Ex": 4269,
      "ĠNovember": 4270,
      "ĠGreat": 4271,
      "ĠVa": 4272,
      "mou": 4273,
      "Ġdecl": 4274,
      "ĠPat": 4275,
      "ĠGroup": 4276,
      "serve": 4277,
      "Ġsel": 4278,
      "plat": 4279,
      "cold": 4280,
      "zz": 4281,
      "alent": 4282,
      "ĠChristmas": 4283,
      "Ġassess": 4284,
      "nior": 4285,
      "Ġreleased": 4286,
      "Ġimag": 4287,
      "Ġarra": 4288,
      "Ġhealthy": 4289,
      "Ġhosp": 4290,
      "Ġadvi": 4291,
      "Ġult": 4292,
      "Ġsuffe": 4293,
      "ige": 4294,
      "Ġvil": 4295,
      "wife": 4296,
      "ughte": 4297,
      "ughter": 4298,
      "ransport": 4299,
      "Ġpaid": 4300,
      "Ġscen": 4301,
      "older": 4302,
      "Ġoffered": 4303,
      "Ġopportunities": 4304,
      "Ġalone": 4305,
      "fl": 4306,
      "thes": 4307,
      "Ġprefer": 4308,
      "Ġbenefit": 4309,
      "ives": 4310,
      "Ġloved": 4311,
      "Ġhote": 4312,
      "Ġborn": 4313,
      "larg": 4314,
      "lines": 4315,
      "ĠMost": 4316,
      "Ġdocto": 4317,
      "ĠRom": 4318,
      "Ġarran": 4319,
      "ĠDon": 4320,
      "Ġhotel": 4321,
      "church": 4322,
      "Ġmini": 4323,
      "Ġstuff": 4324,
      "ID": 4325,
      "mmo": 4326,
      "Ġball": 4327,
      "Ġrock": 4328,
      "ites": 4329,
      "Ġtrade": 4330,
      "aril": 4331,
      "ĠPar": 4332,
      "Ġhundred": 4333,
      "Ġscience": 4334,
      "Ġpictures": 4335,
      "oca": 4336,
      "Ġaccept": 4337,
      "Ġemo": 4338,
      "ĠAct": 4339,
      "Ġuses": 4340,
      "Ġemerg": 4341,
      "Ġtea": 4342,
      "Ġfamilies": 4343,
      "eau": 4344,
      "enha": 4345,
      "Ġholiday": 4346,
      "IL": 4347,
      "Ġappropr": 4348,
      "ĠAb": 4349,
      "gage": 4350,
      "ands": 4351,
      "used": 4352,
      "Ġmoved": 4353,
      "ferences": 4354,
      "gold": 4355,
      "Ġdefinitely": 4356,
      "Ġcopy": 4357,
      "Ġfinall": 4358,
      "Ġfinally": 4359,
      "aye": 4360,
      "ĠTHE": 4361,
      "ĠCalifornia": 4362,
      "Pe": 4363,
      "ompo": 4364,
      "mpon": 4365,
      "more": 4366,
      "Ġculture": 4367,
      "ompon": 4368,
      "ibrary": 4369,
      "Ġstraight": 4370,
      "Ġgoals": 4371,
      "Ġerr": 4372,
      "rian": 4373,
      "useum": 4374,
      "olat": 4375,
      "not": 4376,
      "transport": 4377,
      "sna": 4378,
      "ĠSund": 4379,
      "Ġshown": 4380,
      "Ġcold": 4381,
      "ivil": 4382,
      "ĠTime": 4383,
      "ĠEuropean": 4384,
      "lement": 4385,
      "Ġwedding": 4386,
      "ĠAlso": 4387,
      "zer": 4388,
      "Ġclea": 4389,
      "ocr": 4390,
      "Ġinvestment": 4391,
      "Ġcatego": 4392,
      "ruary": 4393,
      "avou": 4394,
      "Ġcab": 4395,
      "ĠFrench": 4396,
      "Ġnotice": 4397,
      "unat": 4398,
      "depe": 4399,
      "Ġdamage": 4400,
      "ĠII": 4401,
      "lose": 4402,
      "throom": 4403,
      "uit": 4404,
      "ccur": 4405,
      "ĠStud": 4406,
      "Ġentry": 4407,
      "Ġafford": 4408,
      "compon": 4409,
      "ndid": 4410,
      "nion": 4411,
      "nation": 4412,
      "Ġride": 4413,
      "ĠEast": 4414,
      "Ġwindow": 4415,
      "Ġliter": 4416,
      "Ġatta": 4417,
      "ĠDesign": 4418,
      "Ġavoid": 4419,
      "bi": 4420,
      "Ġappropriate": 4421,
      "Ġtransport": 4422,
      "ĠDepartment": 4423,
      "ĠFirst": 4424,
      "Ġbank": 4425,
      "Ġimmediatel": 4426,
      "Ġimmediately": 4427,
      "Ġdan": 4428,
      "ĠBook": 4429,
      "nerally": 4430,
      "ĠMan": 4431,
      "ĠBritish": 4432,
      "ended": 4433,
      "Ġeffects": 4434,
      "Ġconsumer": 4435,
      "dep": 4436,
      "Ġposted": 4437,
      "ĠFree": 4438,
      "Ġreported": 4439,
      "ooth": 4440,
      "Ġstati": 4441,
      "train": 4442,
      "Ġcondition": 4443,
      "Ġsaying": 4444,
      "compo": 4445,
      "arily": 4446,
      "offee": 4447,
      "Ġgon": 4448,
      "ĠCollege": 4449,
      "Ġcompon": 4450,
      "Ġstories": 4451,
      "unate": 4452,
      "Fr": 4453,
      "Ġcouldn": 4454,
      "Ġparticularl": 4455,
      "Ġparticularly": 4456,
      "covered": 4457,
      "Ġrecipe": 4458,
      "turer": 4459,
      "Ġschools": 4460,
      "rim": 4461,
      "Ġeight": 4462,
      "Ġband": 4463,
      "ruly": 4464,
      "Ġpages": 4465,
      "iar": 4466,
      "Ġcapital": 4467,
      "Ġenha": 4468,
      "ĠFriday": 4469,
      "nearly": 4470,
      "ĠKo": 4471,
      "Ġeasier": 4472,
      "Ġeconomic": 4473,
      "Ġbasis": 4474,
      "Ġshop": 4475,
      "Ġrecommen": 4476,
      "Ġrecommend": 4477,
      "iment": 4478,
      "oring": 4479,
      "Ġlines": 4480,
      "Ġobtain": 4481,
      "Ġpromot": 4482,
      "Ġdoctor": 4483,
      "ĠEurope": 4484,
      "kend": 4485,
      "Ġdepe": 4486,
      "amou": 4487,
      "ĠIN": 4488,
      "ĠStreet": 4489,
      "ron": 4490,
      "Ġchurch": 4491,
      "Ġpeac": 4492,
      "Ġwife": 4493,
      "Ġsoc": 4494,
      "Ġwhose": 4495,
      "Ġgrand": 4496,
      "abe": 4497,
      "Ġalthough": 4498,
      "wine": 4499,
      "wild": 4500,
      "rail": 4501,
      "Ġserver": 4502,
      "ĠLaw": 4503,
      "Ġmine": 4504,
      "Ġincreasing": 4505,
      "Ġnearly": 4506,
      "bum": 4507,
      "Ġsupply": 4508,
      "Ġgold": 4509,
      "Ġbudge": 4510,
      "heme": 4511,
      "Ġexperienced": 4512,
      "Ġscore": 4513,
      "Ġbotto": 4514,
      "Ġadvic": 4515,
      "Ġsmart": 4516,
      "sweet": 4517,
      "Ġadvice": 4518,
      "Ġfollowed": 4519,
      "arc": 4520,
      "Ġje": 4521,
      "Ġdemon": 4522,
      "ĠLu": 4523,
      "ram": 4524,
      "Ġassociated": 4525,
      "Ġlack": 4526,
      "Ġproced": 4527,
      "Ġapprec": 4528,
      "bly": 4529,
      "umer": 4530,
      "Ġbaby": 4531,
      "Ġmanager": 4532,
      "Ġperhaps": 4533,
      "ĠItal": 4534,
      "Ġbasic": 4535,
      "Ġserved": 4536,
      "epend": 4537,
      "aders": 4538,
      "Ġchanged": 4539,
      "Ġvisito": 4540,
      "Ġvisitor": 4541,
      "Ġdep": 4542,
      "Ġcolou": 4543,
      "me": 4544,
      "ome": 4545,
      "come": 4546,
      "Ġcome": 4547,
      "ecome": 4548,
      "Ġbecome": 4549,
      "Ġcomes": 4550,
      "mer": 4551,
      "men": 4552,
      "urney": 4553,
      "labora": 4554,
      "inform": 4555,
      "Ġuseful": 4556,
      "Ġdistr": 4557,
      "truly": 4558,
      "esti": 4559,
      "slat": 4560,
      "ĠCompany": 4561,
      "Le": 4562,
      "Ġspot": 4563,
      "chem": 4564,
      "Ġadjust": 4565,
      "coffee": 4566,
      "Ġpromi": 4567,
      "Ġexercise": 4568,
      "nia": 4569,
      "chae": 4570,
      "Ġstructure": 4571,
      "plate": 4572,
      "Ġpool": 4573,
      "Ġtruly": 4574,
      "ĠWork": 4575,
      "irr": 4576,
      "Ġadvert": 4577,
      "ires": 4578,
      "Ġincreased": 4579,
      "Ġgone": 4580,
      "Ġont": 4581,
      "epti": 4582,
      "Ġtrain": 4583,
      "astr": 4584,
      "yp": 4585,
      "rative": 4586,
      "lte": 4587,
      "largest": 4588,
      "Not": 4589,
      "ĠMini": 4590,
      "Ġinternet": 4591,
      "ulations": 4592,
      "Ġunit": 4593,
      "ommo": 4594,
      "Ġsna": 4595,
      "Ġdevices": 4596,
      "Ġweather": 4597,
      "Ð°": 4598,
      "Ġrelative": 4599,
      "ĠFi": 4600,
      "los": 4601,
      "Ġwild": 4602,
      "Ġpatient": 4603,
      "Ġseparate": 4604,
      "chani": 4605,
      "ĠFebruary": 4606,
      "Ġmayb": 4607,
      "Ġdouble": 4608,
      "Ġedg": 4609,
      "Ġmaybe": 4610,
      "cad": 4611,
      "tag": 4612,
      "Ġestablished": 4613,
      "Ġevidence": 4614,
      "Ġcompo": 4615,
      "gift": 4616,
      "saving": 4617,
      "overy": 4618,
      "roy": 4619,
      "ishing": 4620,
      "Ġcentury": 4621,
      "die": 4622,
      "nine": 4623,
      ".)": 4624,
      "orporate": 4625,
      "Ġhtt": 4626,
      "Ġhop": 4627,
      "ĠGreen": 4628,
      "ĠWat": 4629,
      "Ġflu": 4630,
      "lap": 4631,
      "Ġdirecto": 4632,
      "oval": 4633,
      "cles": 4634,
      "irat": 4635,
      "Ġedge": 4636,
      "Ġinstal": 4637,
      "Ġcoffee": 4638,
      "Ġnumbers": 4639,
      "They": 4640,
      "field": 4641,
      "ĠChi": 4642,
      "Ġbottom": 4643,
      "Ġlots": 4644,
      "turday": 4645,
      "is": 4646,
      "Ġis": 4647,
      "his": 4648,
      "this": 4649,
      "Ġthis": 4650,
      "dis": 4651,
      "Ġdis": 4652,
      "sis": 4653,
      "uble": 4654,
      "ja": 4655,
      "Ġoverall": 4656,
      "Ġmiddle": 4657,
      "Ġmiles": 4658,
      "Ġabsolute": 4659,
      "Ġagree": 4660,
      "Ġwine": 4661,
      "Ġintel": 4662,
      "ĠTra": 4663,
      "ributi": 4664,
      "ĠDirect": 4665,
      "Ġhighest": 4666,
      "Ġaudience": 4667,
      "ribution": 4668,
      "De": 4669,
      "ĠSee": 4670,
      "porary": 4671,
      "Ġguar": 4672,
      "Ġcomfortable": 4673,
      "!\"": 4674,
      "Ġindica": 4675,
      "theme": 4676,
      "Ġgift": 4677,
      "Ġevening": 4678,
      "Ġresponsible": 4679,
      "strati": 4680,
      "Ġdirector": 4681,
      "stration": 4682,
      "Ġprocedure": 4683,
      "Ġgreate": 4684,
      "Ġregarding": 4685,
      "udge": 4686,
      "Ġgreater": 4687,
      "Ġkept": 4688,
      "Ġcompleted": 4689,
      "Ġjoin": 4690,
      "off": 4691,
      "ĠServices": 4692,
      "ĠJesus": 4693,
      "Ġessential": 4694,
      "ĠMil": 4695,
      "Ġtoward": 4696,
      "Ġremain": 4697,
      "ĠSystem": 4698,
      "Ġallowed": 4699,
      "avour": 4700,
      "Ġcolour": 4701,
      "omo": 4702,
      "Ġindicat": 4703,
      "Ġsell": 4704,
      "igr": 4705,
      "Ġexisting": 4706,
      "rising": 4707,
      "accur": 4708,
      "ched": 4709,
      "nue": 4710,
      "andid": 4711,
      "Ġlargest": 4712,
      "Ġdrink": 4713,
      "Ġvis": 4714,
      "ĠFacebook": 4715,
      "Ġinform": 4716,
      "ĠRev": 4717,
      "Ġnormal": 4718,
      "ĠPu": 4719,
      "Ġscene": 4720,
      "cken": 4721,
      "ament": 4722,
      "Ġfat": 4723,
      "tren": 4724,
      "Ġbow": 4725,
      "ĠExp": 4726,
      "Ġseemed": 4727,
      "EO": 4728,
      "PS": 4729,
      "Ġslight": 4730,
      "Ġbre": 4731,
      "inde": 4732,
      "Ġideal": 4733,
      "Ġstudies": 4734,
      "spects": 4735,
      "olf": 4736,
      "Ġforma": 4737,
      "Ġdelivery": 4738,
      "rup": 4739,
      "Ġpowerful": 4740,
      "enerally": 4741,
      "Ġaccur": 4742,
      "lements": 4743,
      "Ġreasons": 4744,
      "pti": 4745,
      "tual": 4746,
      "Ġpieces": 4747,
      "Ġsteps": 4748,
      "Be": 4749,
      "ĠPal": 4750,
      "Ġtheme": 4751,
      "Ġbudget": 4752,
      "Ġsmi": 4753,
      "ĠCanada": 4754,
      "Ġdaughter": 4755,
      "cards": 4756,
      "AD": 4757,
      "Ġstates": 4758,
      "Ġonto": 4759,
      "rier": 4760,
      "Ġearlier": 4761,
      "ĠMany": 4762,
      "each": 4763,
      "Ġbroad": 4764,
      "Ġsong": 4765,
      "istics": 4766,
      "Cl": 4767,
      "Ġgas": 4768,
      "Ġpoor": 4769,
      "Ġincome": 4770,
      "ĠSunday": 4771,
      "ĠLan": 4772,
      "ahead": 4773,
      "ville": 4774,
      "ĠThanks": 4775,
      "Ġdol": 4776,
      "rob": 4777,
      "Ġcreative": 4778,
      "ĠWhite": 4779,
      "Ġscient": 4780,
      "Ġesta": 4781,
      "dev": 4782,
      "Ġsweet": 4783,
      "orner": 4784,
      "ĠFlo": 4785,
      "ĠÂ£": 4786,
      "Ġcry": 4787,
      "Ġopening": 4788,
      "Ġspring": 4789,
      "chose": 4790,
      "Ġwriter": 4791,
      "Ġenter": 4792,
      "ĠDavid": 4793,
      "Ġhelped": 4794,
      "ION": 4795,
      "Ġerro": 4796,
      "girl": 4797,
      "Ġprevent": 4798,
      "Ġerror": 4799,
      "Ġestat": 4800,
      "Ġformat": 4801,
      "Ġestate": 4802,
      "Ġlinks": 4803,
      "Ġpolice": 4804,
      "anta": 4805,
      "emy": 4806,
      "Ġfiles": 4807,
      "candid": 4808,
      "ncing": 4809,
      "lif": 4810,
      "Ġspread": 4811,
      "nnual": 4812,
      "annual": 4813,
      "ider": 4814,
      "Ġsurv": 4815,
      "Ġahead": 4816,
      "OL": 4817,
      "Ġlarger": 4818,
      "ael": 4819,
      "Ph": 4820,
      "Ġchose": 4821,
      "Ġextremel": 4822,
      "Ġextremely": 4823,
      "Ġschedule": 4824,
      "corner": 4825,
      "cture": 4826,
      "quently": 4827,
      "Ġfish": 4828,
      "Ġcorrec": 4829,
      "Ġcandid": 4830,
      "cing": 4831,
      "Ġmovie": 4832,
      "Ġsecto": 4833,
      "Ġstee": 4834,
      "amous": 4835,
      "ĠBea": 4836,
      "Ġfear": 4837,
      "aller": 4838,
      "Ġsal": 4839,
      "Ġhelping": 4840,
      "Ġselect": 4841,
      "rra": 4842,
      "Ġfinished": 4843,
      "Ġprotecti": 4844,
      "Ġove": 4845,
      "Ġtren": 4846,
      "tical": 4847,
      "Ġthanks": 4848,
      "Sh": 4849,
      "ĠAng": 4850,
      "Ġflowe": 4851,
      "Ġbackground": 4852,
      "):": 4853,
      "uate": 4854,
      "Ġofficer": 4855,
      "Ġinterview": 4856,
      "lter": 4857,
      "Ġheavy": 4858,
      "Ġsector": 4859,
      "vati": 4860,
      "ĠProf": 4861,
      "yn": 4862,
      "Ġstrategy": 4863,
      "oud": 4864,
      "Ġswe": 4865,
      "Ġconsult": 4866,
      "cut": 4867,
      "ĠInternet": 4868,
      "nother": 4869,
      "Ġfla": 4870,
      "Ġtherefore": 4871,
      "Ġbrother": 4872,
      "Ġconstant": 4873,
      "Ġflower": 4874,
      "iest": 4875,
      "yers": 4876,
      "uring": 4877,
      "Ġtitle": 4878,
      "Ġtalking": 4879,
      "Ġselection": 4880,
      "Ġremove": 4881,
      "generally": 4882,
      "ĠCourt": 4883,
      "ĠMag": 4884,
      "Ġcorner": 4885,
      "Ġcovered": 4886,
      "ĠBusiness": 4887,
      "Ġcorrect": 4888,
      "Ġstrug": 4889,
      "Ġserio": 4890,
      "Ġseriou": 4891,
      "lust": 4892,
      "ashington": 4893,
      "Ġserious": 4894,
      "Ġweekend": 4895,
      "Ġalbum": 4896,
      "Ġmethods": 4897,
      "Ġhomes": 4898,
      "rub": 4899,
      "sper": 4900,
      "Ġprotection": 4901,
      "ĠDat": 4902,
      "Ġexplore": 4903,
      "Ġrules": 4904,
      "yard": 4905,
      "Ġannual": 4906,
      "Ġpet": 4907,
      "Ġveg": 4908,
      "imal": 4909,
      "ĠMiss": 4910,
      "Ġpayment": 4911,
      "ĠCouncil": 4912,
      "Ġhus": 4913,
      "row": 4914,
      "tre": 4915,
      "Ġsubmit": 4916,
      "shion": 4917,
      "ĠAustralia": 4918,
      "aven": 4919,
      "eliver": 4920,
      "Ġcast": 4921,
      "Ġund": 4922,
      "deliver": 4923,
      "US": 4924,
      "ertain": 4925,
      "Ġrelax": 4926,
      "vation": 4927,
      "ĠSaturday": 4928,
      "Ġsca": 4929,
      "Ġchem": 4930,
      "itude": 4931,
      "Ġnamed": 4932,
      "Ġteams": 4933,
      "ĠPi": 4934,
      "Ġelectri": 4935,
      "Ġexhib": 4936,
      "Ġjourney": 4937,
      "gun": 4938,
      "Ġspeak": 4939,
      "Ġmodels": 4940,
      "Ġsaving": 4941,
      "inger": 4942,
      "ĠOther": 4943,
      "Ġbedroom": 4944,
      "ĠHol": 4945,
      "ologies": 4946,
      "Now": 4947,
      "Ġdeliver": 4948,
      "Ġplus": 4949,
      "Ġdang": 4950,
      "âĢ¢": 4951,
      "ĠWilliam": 4952,
      "taste": 4953,
      "Ġgenerally": 4954,
      "Ġbrow": 4955,
      "Ġpassed": 4956,
      "TM": 4957,
      "ĠRem": 4958,
      "Ġwants": 4959,
      "Ġmovement": 4960,
      "ĠSec": 4961,
      "Ġwro": 4962,
      "served": 4963,
      "Ġwrot": 4964,
      "Ġcompared": 4965,
      "sample": 4966,
      "Ġefficient": 4967,
      "Ġevalu": 4968,
      "Ġwrote": 4969,
      "ĠSte": 4970,
      "Con": 4971,
      "Ġconven": 4972,
      "stat": 4973,
      "ĠAny": 4974,
      "Ġboo": 4975,
      "Ġfant": 4976,
      "ki": 4977,
      "lver": 4978,
      "gno": 4979,
      "chr": 4980,
      "Ma": 4981,
      "Ġpopulation": 4982,
      "winter": 4983,
      "ĠWindows": 4984,
      "Ġtaste": 4985,
      "Ġhappened": 4986,
      "numer": 4987,
      "Ġfurn": 4988,
      "Ġachieve": 4989,
      "rehen": 4990,
      "Ye": 4991,
      "Ġbright": 4992,
      "uctions": 4993,
      "Ġpresident": 4994,
      "rien": 4995,
      "dar": 4996,
      "Ġfurniture": 4997,
      "Ġannounced": 4998,
      "Ġdev": 4999,
      "ĠPaul": 5000,
      "Ġsust": 5001,
      "Ġconnecti": 5002,
      "Ġmeasu": 5003,
      "imb": 5004,
      "ĠOb": 5005,
      "ĠAssociation": 5006,
      "died": 5007,
      "smo": 5008,
      "Ca": 5009,
      "Ġshot": 5010,
      "ends": 5011,
      "cas": 5012,
      "Ġconnection": 5013,
      "Ġopened": 5014,
      "Ġuti": 5015,
      "Ġadvantage": 5016,
      "ĠScience": 5017,
      "Ġstar": 5018,
      "cum": 5019,
      "ĠRec": 5020,
      "Ġteaching": 5021,
      "ĠChurch": 5022,
      "ĠSam": 5023,
      "These": 5024,
      "burg": 5025,
      "inse": 5026,
      "Ġradi": 5027,
      "Ġcards": 5028,
      "tually": 5029,
      "ĠPol": 5030,
      "Ġutil": 5031,
      "Ġrespons": 5032,
      "Ġopini": 5033,
      "iber": 5034,
      "core": 5035,
      "Ġcancer": 5036,
      "wit": 5037,
      "IG": 5038,
      "Ġgirl": 5039,
      "ingr": 5040,
      "forc": 5041,
      "Ġthank": 5042,
      "ĠVal": 5043,
      "Ġsurve": 5044,
      "eption": 5045,
      "Ġmulti": 5046,
      "Some": 5047,
      "Ġreports": 5048,
      "ĠWed": 5049,
      "Ġsample": 5050,
      "ava": 5051,
      "Ġtrut": 5052,
      "Ġcontinued": 5053,
      "ĠOnce": 5054,
      "ĠGood": 5055,
      "Ġproduced": 5056,
      "irls": 5057,
      "uts": 5058,
      "Ġplaced": 5059,
      "Ġarchite": 5060,
      "Wel": 5061,
      "Ġresist": 5062,
      "ĠSea": 5063,
      "ocat": 5064,
      "ilver": 5065,
      "Ġcup": 5066,
      "cker": 5067,
      "vest": 5068,
      "ris": 5069,
      "Ġmemory": 5070,
      "Ġlearned": 5071,
      "Ġarg": 5072,
      "affic": 5073,
      "ĠLord": 5074,
      "Ġrequires": 5075,
      "raffic": 5076,
      "Ġgather": 5077,
      "Ġmilitary": 5078,
      "imen": 5079,
      "Ġquot": 5080,
      "Ġ+": 5081,
      "Ġnumer": 5082,
      "tex": 5083,
      "Ġbon": 5084,
      "rce": 5085,
      "nie": 5086,
      "Ġcomment": 5087,
      "gra": 5088,
      "mar": 5089,
      "Ġbutton": 5090,
      "Ġvalu": 5091,
      "Ġcandida": 5092,
      "Ġbrain": 5093,
      "Ġwinter": 5094,
      "earth": 5095,
      "Ġpot": 5096,
      "gin": 5097,
      "ĠEac": 5098,
      "Ġviews": 5099,
      "Ġrespect": 5100,
      "ĠEach": 5101,
      "ĠMet": 5102,
      "ĠMont": 5103,
      "Ġefforts": 5104,
      "ĠCat": 5105,
      "Ġitem": 5106,
      "Ġwear": 5107,
      "ĠIS": 5108,
      "Ġdange": 5109,
      "Ġdanger": 5110,
      "pal": 5111,
      "ĠBest": 5112,
      "usa": 5113,
      "Ġcandidat": 5114,
      "ĠRiver": 5115,
      "gain": 5116,
      "Ġcandidate": 5117,
      "Ġseven": 5118,
      "Ġreligi": 5119,
      "Ġdriving": 5120,
      "Ġ=": 5121,
      "Ġhusband": 5122,
      "Is": 5123,
      "akers": 5124,
      "ĠWashington": 5125,
      "ht": 5126,
      "Ġforms": 5127,
      "book": 5128,
      "rael": 5129,
      "dl": 5130,
      "Ġvirt": 5131,
      "oke": 5132,
      "ĠPlan": 5133,
      "\",": 5134,
      "Ġdied": 5135,
      "ĠGerma": 5136,
      "traffic": 5137,
      "ncies": 5138,
      "Ġoutdoor": 5139,
      "anti": 5140,
      "IP": 5141,
      "Ġchann": 5142,
      "sci": 5143,
      "elements": 5144,
      "LE": 5145,
      "Ġimprov": 5146,
      "nega": 5147,
      "Ġseeing": 5148,
      "plic": 5149,
      "ĠIT": 5150,
      "oga": 5151,
      "Un": 5152,
      "Ġstream": 5153,
      "icious": 5154,
      "Ġcamera": 5155,
      "evant": 5156,
      "Ġwelcome": 5157,
      "Ġlif": 5158,
      "mina": 5159,
      "ĠHot": 5160,
      "Ġprimary": 5161,
      "thus": 5162,
      "cream": 5163,
      "Ġfaith": 5164,
      "Ġcommunicati": 5165,
      "Ġelements": 5166,
      "Ġcommunication": 5167,
      "ĠSha": 5168,
      "Ġvalues": 5169,
      "ĠJack": 5170,
      "abo": 5171,
      "ĠClu": 5172,
      "ĠTex": 5173,
      "ansa": 5174,
      "Ġlose": 5175,
      "ĠLet": 5176,
      "Ġfair": 5177,
      "oso": 5178,
      "ĠGran": 5179,
      "Ġbathroom": 5180,
      "ecide": 5181,
      "pm": 5182,
      "Ġincred": 5183,
      "Ġwaiting": 5184,
      "decide": 5185,
      "Ġmaster": 5186,
      "rts": 5187,
      "ei": 5188,
      "emic": 5189,
      "Ġmetal": 5190,
      "ĠArm": 5191,
      "Ġdecide": 5192,
      "dsc": 5193,
      "ĠProgram": 5194,
      "acad": 5195,
      "Ġtraffic": 5196,
      "dated": 5197,
      "session": 5198,
      "Ġsharing": 5199,
      "ĠTa": 5200,
      "Ġshared": 5201,
      "inder": 5202,
      "Ġmedic": 5203,
      "Ġfinding": 5204,
      "Ġring": 5205,
      "Ġcritical": 5206,
      "Ġneighbor": 5207,
      "Ġren": 5208,
      "epo": 5209,
      "Ġparticipat": 5210,
      "Ġeg": 5211,
      "Ġnut": 5212,
      "Ġflex": 5213,
      "cells": 5214,
      "Ġexten": 5215,
      "iverse": 5216,
      "Â®": 5217,
      "scrib": 5218,
      "Ġingr": 5219,
      "Ġexperiences": 5220,
      "Ġlaye": 5221,
      "Ġmist": 5222,
      "Ġprepared": 5223,
      "ĠGerman": 5224,
      "Ġadop": 5225,
      "hapter": 5226,
      "thern": 5227,
      "Ġthus": 5228,
      "Ġlayer": 5229,
      "Ġsignal": 5230,
      "Ġsociety": 5231,
      "ĠGeneral": 5232,
      "ĠIm": 5233,
      "standing": 5234,
      "Ġnat": 5235,
      "Ġcentral": 5236,
      "ĠHist": 5237,
      "Ġaren": 5238,
      "Ġrooms": 5239,
      "rid": 5240,
      "Ġorganizations": 5241,
      "ĠEngla": 5242,
      "ago": 5243,
      "iness": 5244,
      "ĠEnglan": 5245,
      "ivis": 5246,
      "ĠEngland": 5247,
      "Ġdescribed": 5248,
      "Ġmechani": 5249,
      "Ġsolid": 5250,
      "dinner": 5251,
      "itizen": 5252,
      "While": 5253,
      "Ġstick": 5254,
      "gan": 5255,
      "ĠTho": 5256,
      "ĠPC": 5257,
      "ĠBoard": 5258,
      "Ġmountain": 5259,
      "ĠVic": 5260,
      "ĠSince": 5261,
      "Ġhandle": 5262,
      "ĠBel": 5263,
      "Ġrise": 5264,
      "Ġjobs": 5265,
      "olate": 5266,
      "Ġwouldn": 5267,
      "ĠCap": 5268,
      "ĠDown": 5269,
      "hold": 5270,
      "aud": 5271,
      "à¤": 5272,
      "Ġtechnical": 5273,
      "Ġactual": 5274,
      "exi": 5275,
      "Ġsout": 5276,
      "xu": 5277,
      "Ġcells": 5278,
      "Ġdirecti": 5279,
      "ĠPete": 5280,
      "ĠMonday": 5281,
      "Ġdirection": 5282,
      "Ġflo": 5283,
      "Ġsouth": 5284,
      "Ġplane": 5285,
      "Ġbalance": 5286,
      "Ġstation": 5287,
      "Ġtruth": 5288,
      "tips": 5289,
      "Ġsurge": 5290,
      "Ġhorse": 5291,
      "Ġsports": 5292,
      "Ġsteel": 5293,
      "Ġreviews": 5294,
      "Ġfort": 5295,
      "usive": 5296,
      "wire": 5297,
      "ĠWhy": 5298,
      "Ġfriendl": 5299,
      "unds": 5300,
      "Ġpresented": 5301,
      "Ġboy": 5302,
      "ĠGal": 5303,
      "Ġacad": 5304,
      "Ġnati": 5305,
      "BC": 5306,
      "chael": 5307,
      "Ġdinner": 5308,
      "Ġcontains": 5309,
      "ede": 5310,
      "Ġnation": 5311,
      "rida": 5312,
      "EM": 5313,
      "Ġstandards": 5314,
      "apy": 5315,
      "Ġparties": 5316,
      "Ġimplement": 5317,
      "Ġapprox": 5318,
      "ĠPlay": 5319,
      "laborat": 5320,
      "ĠFound": 5321,
      "ĠEduc": 5322,
      "Ġcollec": 5323,
      "Ġroof": 5324,
      "esk": 5325,
      "ttery": 5326,
      "Ġcream": 5327,
      "estival": 5328,
      "Ġleaders": 5329,
      "Ġnorth": 5330,
      "serva": 5331,
      "Ġcomma": 5332,
      "Ġearth": 5333,
      "Ġdetermine": 5334,
      "iant": 5335,
      "ĠBlue": 5336,
      "Ġstreet": 5337,
      "Ġhat": 5338,
      "Ġpen": 5339,
      "ann": 5340,
      "inese": 5341,
      "llust": 5342,
      "Ġrecogni": 5343,
      "fast": 5344,
      "nized": 5345,
      "reate": 5346,
      "Ġadvanced": 5347,
      "Ġdrop": 5348,
      "Ġfriendly": 5349,
      "Ġolde": 5350,
      "Ġkeeping": 5351,
      "Ġnames": 5352,
      "Ġbilli": 5353,
      "Ġfabr": 5354,
      "Ġtips": 5355,
      "Ġplants": 5356,
      "ĠChristian": 5357,
      "Ġstatement": 5358,
      "org": 5359,
      "Ġhaven": 5360,
      "Ġtarget": 5361,
      "Ġbul": 5362,
      "Ġsugar": 5363,
      "see": 5364,
      "Ġpredi": 5365,
      "Ġobvi": 5366,
      "Ġpsych": 5367,
      "Ġexperts": 5368,
      "harg": 5369,
      "Ġtag": 5370,
      "ĠWhe": 5371,
      "ĠMary": 5372,
      "Ġdollar": 5373,
      "ĠDirecto": 5374,
      "olution": 5375,
      "Ġforg": 5376,
      "casino": 5377,
      "ĠDirector": 5378,
      "Ġingred": 5379,
      "ivisi": 5380,
      "Ġdy": 5381,
      "snow": 5382,
      "ios": 5383,
      "rare": 5384,
      "ĠWell": 5385,
      "ĠDevelop": 5386,
      "ifying": 5387,
      "Ġolder": 5388,
      "Ġkn": 5389,
      "Ġatten": 5390,
      "desk": 5391,
      "Ġstrength": 5392,
      "ĠPost": 5393,
      "abase": 5394,
      "ayer": 5395,
      "IM": 5396,
      "ĠRoad": 5397,
      "twe": 5398,
      "wal": 5399,
      "ĠMart": 5400,
      "ĠChar": 5401,
      "Ġassign": 5402,
      "Ġcloud": 5403,
      "ivision": 5404,
      "Ġenab": 5405,
      "Ġregist": 5406,
      "Ġluck": 5407,
      "Ġprofessionals": 5408,
      "Ġcolors": 5409,
      "Ġaware": 5410,
      "ĠJames": 5411,
      "bon": 5412,
      "Ġdeveloping": 5413,
      "eauty": 5414,
      "unatel": 5415,
      "Ġcasino": 5416,
      "Ġencour": 5417,
      "Ġvolume": 5418,
      "ĠChinese": 5419,
      "unately": 5420,
      "Ġsmo": 5421,
      "ĠLife": 5422,
      "Ġlimit": 5423,
      "Ġcleaning": 5424,
      "Ġmedium": 5425,
      "Ġwaste": 5426,
      "Ġnega": 5427,
      "Ġshopping": 5428,
      "Ġclosed": 5429,
      "ĠResearch": 5430,
      "Ġforge": 5431,
      "Ġsett": 5432,
      "ĠApp": 5433,
      "Ġwhatever": 5434,
      "Ġdedicated": 5435,
      "ĠProd": 5436,
      "Ġchallenges": 5437,
      "oin": 5438,
      "ado": 5439,
      "Ġcars": 5440,
      "ĠIsrael": 5441,
      "Ġreached": 5442,
      "abi": 5443,
      "Ġsecure": 5444,
      "Ġlength": 5445,
      "Ġlisted": 5446,
      "Ġmanufacturer": 5447,
      "ports": 5448,
      "Ġsnow": 5449,
      "Ġaccep": 5450,
      "ĠOut": 5451,
      "ndr": 5452,
      "ĠGa": 5453,
      "ĠWal": 5454,
      "Ġdistance": 5455,
      "Ġbecomes": 5456,
      "Ġdie": 5457,
      "Ġfactors": 5458,
      "ĠClub": 5459,
      "ĠClass": 5460,
      "Ġstatus": 5461,
      "Ġplenty": 5462,
      "lights": 5463,
      "Ġrare": 5464,
      "Ġreality": 5465,
      "thy": 5466,
      "ĠPeople": 5467,
      "ĠCe": 5468,
      "Ġgraph": 5469,
      "rep": 5470,
      "wat": 5471,
      "Ġdeman": 5472,
      "Ġdemand": 5473,
      "ĠBan": 5474,
      "Ġfamous": 5475,
      "ĠInstitute": 5476,
      "ĠGen": 5477,
      "Ġoperations": 5478,
      "ĠLake": 5479,
      "Ġcounte": 5480,
      "Ġclasse": 5481,
      "cula": 5482,
      "Ġsitu": 5483,
      "Ġselected": 5484,
      "usands": 5485,
      "Ġclasses": 5486,
      "Ġcontem": 5487,
      "Ġship": 5488,
      "Ġsmaller": 5489,
      "ulting": 5490,
      "Ġsenior": 5491,
      "Ġfle": 5492,
      "Ġcelebra": 5493,
      "ãĤ": 5494,
      "Ġworkers": 5495,
      "Ġtechniques": 5496,
      "Ġmou": 5497,
      "wesome": 5498,
      "Ġjump": 5499,
      "Ġjournal": 5500,
      "Please": 5501,
      "Ġbillion": 5502,
      "afte": 5503,
      "hain": 5504,
      "Ġoppo": 5505,
      "Ġesc": 5506,
      "evis": 5507,
      "ĠMal": 5508,
      "ued": 5509,
      "Ġfacilities": 5510,
      "Ġsquare": 5511,
      "rete": 5512,
      "Ġstone": 5513,
      "Ġexper": 5514,
      "ussion": 5515,
      "Ġsession": 5516,
      "Ġcapacity": 5517,
      "Here": 5518,
      "oms": 5519,
      "cos": 5520,
      "ĠAre": 5521,
      "Ġarrang": 5522,
      "rprise": 5523,
      "sters": 5524,
      "Ġproperties": 5525,
      "Ġalle": 5526,
      "aper": 5527,
      "Ge": 5528,
      "rist": 5529,
      "ties": 5530,
      "Ġexchange": 5531,
      "Ġcommunities": 5532,
      "ĠOF": 5533,
      "ĠPress": 5534,
      "Ġtex": 5535,
      "Ġtwe": 5536,
      "iency": 5537,
      "ograph": 5538,
      "Ġdriver": 5539,
      "ĠBil": 5540,
      "Ġforeign": 5541,
      "free": 5542,
      "Ġdesk": 5543,
      "Ġproper": 5544,
      "ption": 5545,
      "Ġlad": 5546,
      "Ġmentioned": 5547,
      "Ġtrees": 5548,
      "ected": 5549,
      "Ġvege": 5550,
      "civil": 5551,
      "Ġmanner": 5552,
      "antee": 5553,
      "Ġleaving": 5554,
      "ĠComp": 5555,
      "Ġexpan": 5556,
      "Ġvisi": 5557,
      "unk": 5558,
      "Ġpromote": 5559,
      "Ġguests": 5560,
      "ides": 5561,
      "ĠUp": 5562,
      "Ġpoliti": 5563,
      "olar": 5564,
      "ĠNi": 5565,
      "aries": 5566,
      "riag": 5567,
      "isp": 5568,
      "diet": 5569,
      "riage": 5570,
      "rely": 5571,
      "CC": 5572,
      "ulate": 5573,
      "itors": 5574,
      "Ġmenu": 5575,
      "Ġcheap": 5576,
      "Ġknows": 5577,
      "ĠQue": 5578,
      "ecoming": 5579,
      "Ġafte": 5580,
      "willing": 5581,
      "ickets": 5582,
      "âĢĿ,": 5583,
      "Ġbeauty": 5584,
      "Ġnumero": 5585,
      "Ġsmooth": 5586,
      "Ġamb": 5587,
      "ĠHan": 5588,
      "Ġpresence": 5589,
      "Ġcelebrat": 5590,
      "ulated": 5591,
      "Ġwhom": 5592,
      "Ġtesting": 5593,
      "ĠMus": 5594,
      "ĠStan": 5595,
      "ĠAlthough": 5596,
      "ĠThank": 5597,
      "Ġreturned": 5598,
      "roc": 5599,
      "Ġnumerou": 5600,
      "Ġnumerous": 5601,
      "Ġotherwise": 5602,
      "Ġcomments": 5603,
      "Ġgain": 5604,
      "Ġtemperature": 5605,
      "exic": 5606,
      "ĠManagement": 5607,
      "inding": 5608,
      "Ġleaves": 5609,
      "ises": 5610,
      "iewed": 5611,
      "Ġwire": 5612,
      "Ġgun": 5613,
      "Ġconcept": 5614,
      "Ġmusc": 5615,
      "Ġbeach": 5616,
      "Ġcore": 5617,
      "cities": 5618,
      "Sp": 5619,
      "ils": 5620,
      "Ġmap": 5621,
      "Ġremains": 5622,
      "Ġaccommo": 5623,
      "Ġcounter": 5624,
      "icken": 5625,
      "reek": 5626,
      "Ġrelevant": 5627,
      "Ġcompetition": 5628,
      "Ġbecoming": 5629,
      "ĠExt": 5630,
      "Ġadding": 5631,
      "Ġmaintena": 5632,
      "Ġreaso": 5633,
      "Ġfill": 5634,
      "Ġdiet": 5635,
      "sti": 5636,
      "ndsc": 5637,
      "Ġcharacters": 5638,
      "Ġrestaurant": 5639,
      "orr": 5640,
      "Ġrap": 5641,
      "olly": 5642,
      "mics": 5643,
      "Ġchr": 5644,
      "ĠIndian": 5645,
      "Ġspecies": 5646,
      "andsc": 5647,
      "icket": 5648,
      "Ġbat": 5649,
      "Ġbru": 5650,
      "onary": 5651,
      "ĠBecause": 5652,
      "oof": 5653,
      "chain": 5654,
      "Ġmaintenance": 5655,
      "exp": 5656,
      "sch": 5657,
      "sister": 5658,
      "Ġmission": 5659,
      "lde": 5660,
      "itr": 5661,
      "Ġrob": 5662,
      "ĠGet": 5663,
      "ĠBay": 5664,
      "mail": 5665,
      "Why": 5666,
      "Me": 5667,
      "hnic": 5668,
      "Ġowners": 5669,
      "ousands": 5670,
      "Ġquarter": 5671,
      "Ġdiscover": 5672,
      "ĠTexas": 5673,
      "ĠFlorida": 5674,
      "ien": 5675,
      "Ġfilled": 5676,
      "Ġcalls": 5677,
      "ppe": 5678,
      "Ġeconomy": 5679,
      "Ġrestr": 5680,
      "ii": 5681,
      "Ġcivil": 5682,
      "Ġcaused": 5683,
      "Ġrain": 5684,
      "Ġartist": 5685,
      "cense": 5686,
      "Ġwww": 5687,
      "ĠSal": 5688,
      "well": 5689,
      "Ġpractices": 5690,
      "Ġraised": 5691,
      "Ġguess": 5692,
      "nage": 5693,
      "west": 5694,
      "Ġbuying": 5695,
      "Ġfunds": 5696,
      "oope": 5697,
      "Ġconnected": 5698,
      "Ġcriti": 5699,
      "ĠST": 5700,
      "ĠFrance": 5701,
      "ĠGeorge": 5702,
      "ĠSupe": 5703,
      "Ġvisitors": 5704,
      "ĠÃ": 5705,
      "Ġpursu": 5706,
      "inated": 5707,
      "Ġlin": 5708,
      "bed": 5709,
      "ĠCommun": 5710,
      "UR": 5711,
      "New": 5712,
      "landsc": 5713,
      "Ġforget": 5714,
      "soft": 5715,
      "evisi": 5716,
      "ĠSub": 5717,
      "chel": 5718,
      "phone": 5719,
      "tten": 5720,
      "Ġconference": 5721,
      "aris": 5722,
      "Ġproud": 5723,
      "Ġoperating": 5724,
      "ĠWate": 5725,
      "Ġinitial": 5726,
      "Ġbiggest": 5727,
      "Ġlisten": 5728,
      "CH": 5729,
      "aunc": 5730,
      "Ġdistri": 5731,
      "Ġkil": 5732,
      "box": 5733,
      "Ġmeant": 5734,
      "whe": 5735,
      "rentl": 5736,
      "Ġcomprehen": 5737,
      "rently": 5738,
      "Your": 5739,
      "Ġmodif": 5740,
      "Ġcombination": 5741,
      "hick": 5742,
      "ĠMount": 5743,
      "elling": 5744,
      "depo": 5745,
      "Ġsister": 5746,
      "dump": 5747,
      "reme": 5748,
      "ĠCare": 5749,
      "Ġlandsc": 5750,
      "ĠMode": 5751,
      "Ġanimals": 5752,
      "Ġhal": 5753,
      "Ġinternal": 5754,
      "housands": 5755,
      "thousands": 5756,
      "ĠTw": 5757,
      "ressi": 5758,
      "Ġclearly": 5759,
      "ĠPower": 5760,
      "culat": 5761,
      "scription": 5762,
      "Ġshowed": 5763,
      "Ġhappens": 5764,
      "Ġseed": 5765,
      "ĠOver": 5766,
      "Ġspect": 5767,
      "ped": 5768,
      "Yes": 5769,
      "yr": 5770,
      "ĠDem": 5771,
      "Ġpasse": 5772,
      "Ġseat": 5773,
      "untee": 5774,
      "unteer": 5775,
      "ĠRepublic": 5776,
      "evision": 5777,
      "Ġthousands": 5778,
      "augh": 5779,
      "Ġinfluence": 5780,
      "ĠRobert": 5781,
      "Ġpeace": 5782,
      "ĠLove": 5783,
      "Ġmanaged": 5784,
      "Ġchanging": 5785,
      "OW": 5786,
      "Ġhelpful": 5787,
      "Ġthoughts": 5788,
      "itar": 5789,
      "ĠPeter": 5790,
      "shop": 5791,
      "Ġalternative": 5792,
      "Ġdent": 5793,
      "cond": 5794,
      "Ġindependent": 5795,
      "Ġreplac": 5796,
      "Ġworry": 5797,
      "Ġstran": 5798,
      "Ġattend": 5799,
      "poses": 5800,
      "TS": 5801,
      "ading": 5802,
      "Ġsounds": 5803,
      "Ġshu": 5804,
      "Ġdepo": 5805,
      "Ġdesigns": 5806,
      "Ġwalking": 5807,
      "oord": 5808,
      "oppe": 5809,
      "Ġdance": 5810,
      "Ġoperati": 5811,
      "Ġattra": 5812,
      "mor": 5813,
      "Ġapplied": 5814,
      "rsday": 5815,
      "Ġsand": 5816,
      "Ġpane": 5817,
      "Ġruns": 5818,
      "Ġsalt": 5819,
      "ransa": 5820,
      "Ġexpensive": 5821,
      "Ġsources": 5822,
      "Ġprocesse": 5823,
      "isod": 5824,
      "Ġappoint": 5825,
      "Ġmout": 5826,
      "ĠAP": 5827,
      "ĠEduca": 5828,
      "Ġclassi": 5829,
      "Ġvision": 5830,
      "Ġsty": 5831,
      "servat": 5832,
      "Ġconvert": 5833,
      "ille": 5834,
      "Ġprocesses": 5835,
      "Ġflat": 5836,
      "ĠSun": 5837,
      "lowe": 5838,
      "launc": 5839,
      "Ġinse": 5840,
      "hern": 5841,
      "ĠPri": 5842,
      "Ġconcent": 5843,
      "Ġshowing": 5844,
      "Ġplate": 5845,
      "Ġbought": 5846,
      "ĠEducat": 5847,
      "lived": 5848,
      "Ġunits": 5849,
      "idde": 5850,
      "Ġdesigne": 5851,
      "Ġspl": 5852,
      "Ġclassic": 5853,
      "titive": 5854,
      "ĠPho": 5855,
      "inall": 5856,
      "even": 5857,
      "ĠMake": 5858,
      "Ġpackage": 5859,
      "ĠIsland": 5860,
      "IV": 5861,
      "ending": 5862,
      "licious": 5863,
      "Ġobject": 5864,
      "Ġoperation": 5865,
      "Ġslightl": 5866,
      "Ġslightly": 5867,
      "amet": 5868,
      "Ġwindows": 5869,
      "inally": 5870,
      "Ġlock": 5871,
      "ĠColo": 5872,
      "Ġidentify": 5873,
      "rban": 5874,
      "illust": 5875,
      "cility": 5876,
      "Ġfashion": 5877,
      "Ġestablish": 5878,
      "hlet": 5879,
      "MS": 5880,
      "Ġinnov": 5881,
      "ression": 5882,
      "Ġessay": 5883,
      "Ġfans": 5884,
      "citizen": 5885,
      "Ġdistinc": 5886,
      "Ġaffec": 5887,
      "Ġrecords": 5888,
      "Ġaffect": 5889,
      "irati": 5890,
      "stan": 5891,
      "istra": 5892,
      "sform": 5893,
      "ouble": 5894,
      "chard": 5895,
      "Ġresident": 5896,
      "apped": 5897,
      "Ġagreement": 5898,
      "nsform": 5899,
      "Ġbehavior": 5900,
      "Ġdesigner": 5901,
      "pts": 5902,
      "girls": 5903,
      "Ġhospital": 5904,
      "antic": 5905,
      "Ġhab": 5906,
      "igu": 5907,
      "eper": 5908,
      "Ġresidents": 5909,
      "Ġlaunc": 5910,
      "azon": 5911,
      "ocolate": 5912,
      "ãĥ": 5913,
      "Ġprinciple": 5914,
      "etail": 5915,
      "ĠBank": 5916,
      "Ġperformed": 5917,
      "Ġque": 5918,
      "sire": 5919,
      "detail": 5920,
      "ĠBen": 5921,
      "ndor": 5922,
      "Ġdump": 5923,
      "ĠAnge": 5924,
      "iqu": 5925,
      "sts": 5926,
      "transa": 5927,
      "diss": 5928,
      "Ġbear": 5929,
      "Ġdecisions": 5930,
      "Ġsecret": 5931,
      "Ġnegative": 5932,
      "Ġsets": 5933,
      "Ġmajority": 5934,
      "Ġdocuments": 5935,
      ");": 5936,
      "ĠSing": 5937,
      "iration": 5938,
      "ĠAv": 5939,
      "essions": 5940,
      "uled": 5941,
      "Ġfel": 5942,
      "swa": 5943,
      "isode": 5944,
      "Ġfocused": 5945,
      "Ġcircum": 5946,
      "wha": 5947,
      "het": 5948,
      "Ġillust": 5949,
      "ĠJew": 5950,
      "Ġobjec": 5951,
      "dde": 5952,
      "other": 5953,
      "ainer": 5954,
      "isa": 5955,
      "dining": 5956,
      "aming": 5957,
      "oyal": 5958,
      "Ġinstalla": 5959,
      "neck": 5960,
      "Ġjoined": 5961,
      "Ġinstallat": 5962,
      "Ġfederal": 5963,
      "Ġinstallati": 5964,
      "Ġoccu": 5965,
      "ista": 5966,
      "Ġinstallation": 5967,
      "Ġmort": 5968,
      "ĠVol": 5969,
      "inical": 5970,
      "ease": 5971,
      "rever": 5972,
      "Ġwilling": 5973,
      "Ġcitizen": 5974,
      "ï¿": 5975,
      "Ġarm": 5976,
      "uesday": 5977,
      "elega": 5978,
      "Ġbike": 5979,
      "Ð¸": 5980,
      "tight": 5981,
      "Ġdatabase": 5982,
      "Ġdetail": 5983,
      "Ġame": 5984,
      "zed": 5985,
      "Ġfunctional": 5986,
      "Ġtransa": 5987,
      "nses": 5988,
      "Ġcoverage": 5989,
      "hicken": 5990,
      "izes": 5991,
      "ams": 5992,
      "tally": 5993,
      "nl": 5994,
      "ï¿½": 5995,
      "Dr": 5996,
      "Ġvisual": 5997,
      "Ġinteri": 5998,
      "ĠProfess": 5999,
      "Ġappears": 6000,
      "Ġexcited": 6001,
      "istrat": 6002,
      "ault": 6003,
      "cott": 6004,
      "sitions": 6005,
      "Ġdoubt": 6006,
      "nni": 6007,
      "Ġinterio": 6008,
      "Ġwatching": 6009,
      "Ġadven": 6010,
      "ĠTechn": 6011,
      "plica": 6012,
      "Ġluxu": 6013,
      "Ġinterior": 6014,
      "Ġâ": 6015,
      "ĠPR": 6016,
      "ĠTheir": 6017,
      "TH": 6018,
      "Ġshee": 6019,
      "Ġdiagno": 6020,
      "Ġfol": 6021,
      "Ġdiss": 6022,
      "Ġmoto": 6023,
      "Ġartists": 6024,
      "hang": 6025,
      "Ġoptim": 6026,
      "uk": 6027,
      "what": 6028,
      "Ġplastic": 6029,
      "cit": 6030,
      "NA": 6031,
      "Ġkid": 6032,
      "Ġdrama": 6033,
      "Ġunde": 6034,
      ",'": 6035,
      "dish": 6036,
      "ĠMexic": 6037,
      "ĠWood": 6038,
      "Ġmaximum": 6039,
      "Ġgirls": 6040,
      "DA": 6041,
      "Ġabsolutel": 6042,
      "esday": 6043,
      "Ġaccura": 6044,
      "Ġabsolutely": 6045,
      "Ġnine": 6046,
      "ĠApple": 6047,
      "Ġking": 6048,
      "Ġenjoyed": 6049,
      "Ġselling": 6050,
      "ĠBill": 6051,
      "Ġcomman": 6052,
      "Ġdescribe": 6053,
      "Ġcommand": 6054,
      "taining": 6055,
      "ĠMichael": 6056,
      "Ġclaims": 6057,
      "uis": 6058,
      "lev": 6059,
      "ester": 6060,
      "Ġaccurat": 6061,
      "Ġphi": 6062,
      "sity": 6063,
      "Ġaccurate": 6064,
      "ucing": 6065,
      "reg": 6066,
      "ĠMad": 6067,
      "Ġtub": 6068,
      "sol": 6069,
      "ĠHil": 6070,
      "hm": 6071,
      "Ġteacher": 6072,
      "olden": 6073,
      "lands": 6074,
      "Ġhonest": 6075,
      "Ġleadership": 6076,
      "Ġattempt": 6077,
      "element": 6078,
      "!!!": 6079,
      "Ġfootball": 6080,
      "Ġbrief": 6081,
      "stances": 6082,
      "Ġvillage": 6083,
      "Ġeating": 6084,
      "Ġreference": 6085,
      "nesday": 6086,
      "amily": 6087,
      "ĠIra": 6088,
      "Ã¡": 6089,
      "ĠStar": 6090,
      "Ġprocessing": 6091,
      "Ġdyna": 6092,
      "Ġcities": 6093,
      "Ġnor": 6094,
      "Ġscale": 6095,
      "overing": 6096,
      "Ġphil": 6097,
      "ĠEducati": 6098,
      "ĠBot": 6099,
      "ĠMicro": 6100,
      "ĠEducation": 6101,
      "aved": 6102,
      "Ġcollect": 6103,
      "Ġsatisf": 6104,
      "esse": 6105,
      "Ġexclusive": 6106,
      "Ġmicr": 6107,
      "Ġinstitu": 6108,
      "ceed": 6109,
      "ĠMat": 6110,
      "orial": 6111,
      "ĠSpring": 6112,
      "elong": 6113,
      "island": 6114,
      "opper": 6115,
      "Ġmarkets": 6116,
      "ĠIts": 6117,
      "sight": 6118,
      "odd": 6119,
      "Ġstanding": 6120,
      "ĠAND": 6121,
      "ĠEngine": 6122,
      "ography": 6123,
      "ĠMaster": 6124,
      "dese": 6125,
      "rouble": 6126,
      "Ġproperly": 6127,
      "hl": 6128,
      "Ġcourses": 6129,
      "reath": 6130,
      "ĠUSA": 6131,
      "ĠWord": 6132,
      "Ġven": 6133,
      "Ġextensive": 6134,
      "Ġserving": 6135,
      "ĠThursday": 6136,
      "Ġpair": 6137,
      "ĠDel": 6138,
      "Ġhole": 6139,
      "Ġdining": 6140,
      "ustomi": 6141,
      "Ġactions": 6142,
      "Ġtight": 6143,
      "Ġspoke": 6144,
      "Ġhttp": 6145,
      "rus": 6146,
      "ĠJan": 6147,
      "corporate": 6148,
      "Ġvideos": 6149,
      "Ġmouth": 6150,
      "rnoon": 6151,
      "Ġquote": 6152,
      "sad": 6153,
      "Ġrelationships": 6154,
      "itual": 6155,
      "unning": 6156,
      "neu": 6157,
      "Ġpreviously": 6158,
      "Ġrub": 6159,
      "Ġteachers": 6160,
      "Ġingredients": 6161,
      "ĠOl": 6162,
      "east": 6163,
      "charg": 6164,
      "Ġlived": 6165,
      "sex": 6166,
      "Ġimpo": 6167,
      "Ġpump": 6168,
      "Ġcontribu": 6169,
      "ĠOh": 6170,
      "Ġspending": 6171,
      "coast": 6172,
      "Ġelement": 6173,
      "Ġoutcome": 6174,
      "epartment": 6175,
      "Ġnav": 6176,
      "Ġassistance": 6177,
      "amete": 6178,
      "department": 6179,
      "azine": 6180,
      "laugh": 6181,
      "ĠUse": 6182,
      "ĠArch": 6183,
      "ifts": 6184,
      "Ġperspective": 6185,
      "Ġended": 6186,
      "Ġsitting": 6187,
      "Ġtemplate": 6188,
      "Ġcontinues": 6189,
      "ameter": 6190,
      "Ġlovel": 6191,
      "ĠDisc": 6192,
      "ĠInst": 6193,
      "Ġbus": 6194,
      "ĠVer": 6195,
      "servati": 6196,
      "ĠFranc": 6197,
      "Ġimportance": 6198,
      "Ġdese": 6199,
      "trouble": 6200,
      "Ġbusy": 6201,
      "ĠChild": 6202,
      "Ġorde": 6203,
      "met": 6204,
      "rof": 6205,
      "ĠGrand": 6206,
      "Ġisland": 6207,
      "state": 6208,
      "rison": 6209,
      "Ġfailu": 6210,
      "Ġguarantee": 6211,
      "Ġfruit": 6212,
      "adi": 6213,
      "ucture": 6214,
      "ĠYear": 6215,
      "Ġstrang": 6216,
      "cart": 6217,
      "ĠLike": 6218,
      "Ġtrouble": 6219,
      "Ġcorporate": 6220,
      "Ġfavour": 6221,
      "icon": 6222,
      "Ġhor": 6223,
      "Ġbrings": 6224,
      "Ġfees": 6225,
      "Ġoperate": 6226,
      "ĠPhot": 6227,
      "Ġcentre": 6228,
      "river": 6229,
      "Ġdepartment": 6230,
      "ĠWater": 6231,
      "Ġpha": 6232,
      "aped": 6233,
      "Ġstarts": 6234,
      "known": 6235,
      "Ġlovely": 6236,
      "Ġputting": 6237,
      "Ġminimum": 6238,
      "ĠBig": 6239,
      "Ġfantastic": 6240,
      "Ġunless": 6241,
      "Ġpropo": 6242,
      "ĠDuring": 6243,
      "Ġexciting": 6244,
      "Ġallowing": 6245,
      "Ġsudde": 6246,
      "ĠVir": 6247,
      "Ġrecommended": 6248,
      "Ġconcerns": 6249,
      "Ġmostl": 6250,
      "Ġmostly": 6251,
      "itive": 6252,
      "Ġlaws": 6253,
      "Ġappeared": 6254,
      "Ġbound": 6255,
      "zy": 6256,
      "ĠTuesday": 6257,
      "Ġaccompl": 6258,
      "ĠPublic": 6259,
      "chapter": 6260,
      "Fro": 6261,
      "Ġpolicies": 6262,
      "Ġir": 6263,
      "rised": 6264,
      "tta": 6265,
      "ĠTO": 6266,
      "tar": 6267,
      "ansform": 6268,
      "ransform": 6269,
      "ĠHall": 6270,
      "roll": 6271,
      "ĠAlex": 6272,
      "esig": 6273,
      "istri": 6274,
      "craft": 6275,
      "itable": 6276,
      "Ġfacility": 6277,
      "but": 6278,
      "udi": 6279,
      "Ġourselves": 6280,
      "Ġproceed": 6281,
      "Ġdetailed": 6282,
      "Ġfem": 6283,
      "dept": 6284,
      "Ġbrown": 6285,
      "Ġinterp": 6286,
      "Ġtin": 6287,
      "quent": 6288,
      "servation": 6289,
      "ĠGold": 6290,
      "Ġcarried": 6291,
      "asse": 6292,
      "Ġbattle": 6293,
      "Ġtypically": 6294,
      "âĢ²": 6295,
      "Ġdebt": 6296,
      "Ġinstance": 6297,
      "slati": 6298,
      "Than": 6299,
      "ships": 6300,
      "ĠCentral": 6301,
      "slation": 6302,
      "going": 6303,
      "Ġoccas": 6304,
      "Ġnotes": 6305,
      "Ġbeat": 6306,
      "By": 6307,
      "Ġinjury": 6308,
      "Ġrestri": 6309,
      "gon": 6310,
      "Ġspon": 6311,
      "tale": 6312,
      "Ġmental": 6313,
      "rum": 6314,
      "how": 6315,
      "rose": 6316,
      "Ġlaugh": 6317,
      "ishes": 6318,
      "Ġdiscussion": 6319,
      "Ġwinn": 6320,
      "Ġresearc": 6321,
      "Ġshower": 6322,
      "ĠUnd": 6323,
      "Ġobl": 6324,
      "liqu": 6325,
      "ocal": 6326,
      "Ġwinne": 6327,
      "idden": 6328,
      "Ġappa": 6329,
      "Ġconsu": 6330,
      "Ġwinner": 6331,
      "urb": 6332,
      "Ġdoors": 6333,
      "Ġresponsibility": 6334,
      "Ġupgr": 6335,
      "ĠLight": 6336,
      "ĠOpen": 6337,
      "Ġadvance": 6338,
      "thea": 6339,
      "Ġfamiliar": 6340,
      "trial": 6341,
      "Ġpreci": 6342,
      "Ġintera": 6343,
      "ĠMusi": 6344,
      "elim": 6345,
      "Ġneck": 6346,
      "sem": 6347,
      "From": 6348,
      "RA": 6349,
      "Ġpractical": 6350,
      "espite": 6351,
      "attle": 6352,
      "Ġstores": 6353,
      "despite": 6354,
      "Ġinstalled": 6355,
      "ĠTrump": 6356,
      "awesome": 6357,
      "ĠReso": 6358,
      "Ġcharg": 6359,
      "Ġeventually": 6360,
      "ĠSociety": 6361,
      "Ġrepu": 6362,
      "Ġwebsites": 6363,
      "Ġcoast": 6364,
      "Ġcombined": 6365,
      "Ġsuitable": 6366,
      "Ġstrange": 6367,
      "Ġexcept": 6368,
      "Ġboa": 6369,
      "Ġhel": 6370,
      "ivity": 6371,
      "Ġenvironmental": 6372,
      "scio": 6373,
      "ĠGermany": 6374,
      "Ġapproximately": 6375,
      "Ġregistered": 6376,
      "udd": 6377,
      "Thanks": 6378,
      "Ġfabri": 6379,
      "ÂŃ": 6380,
      "ĠCommittee": 6381,
      "Ġcomponents": 6382,
      "Ġposts": 6383,
      "Ġcultural": 6384,
      "astern": 6385,
      "lunch": 6386,
      "omi": 6387,
      "icense": 6388,
      "pper": 6389,
      "PA": 6390,
      "Ġthrow": 6391,
      "ĠClick": 6392,
      "ĠMusic": 6393,
      "ĠHen": 6394,
      "istrati": 6395,
      "transform": 6396,
      "Ġmer": 6397,
      "istration": 6398,
      "Ġseconds": 6399,
      "ube": 6400,
      "ĠWednesday": 6401,
      "sciou": 6402,
      "ĠChic": 6403,
      "Ġsoul": 6404,
      "scious": 6405,
      "Ġchapter": 6406,
      "Ġlocations": 6407,
      "ĠSum": 6408,
      "IA": 6409,
      "Ġconve": 6410,
      "Ġtopi": 6411,
      "Ġclimate": 6412,
      "Ġlia": 6413,
      "overs": 6414,
      "Ġ?": 6415,
      "Ġfabric": 6416,
      "Ġriver": 6417,
      "Ġtopic": 6418,
      "wate": 6419,
      "Ġherself": 6420,
      "ĠAcad": 6421,
      "Ġguys": 6422,
      "ĠFort": 6423,
      "Ġaffordable": 6424,
      "desig": 6425,
      "sile": 6426,
      "Ġafternoon": 6427,
      "fficient": 6428,
      "Ġagency": 6429,
      "Ġsauce": 6430,
      "chicken": 6431,
      "Ġ||": 6432,
      "Ġholding": 6433,
      "than": 6434,
      "tine": 6435,
      "lit": 6436,
      "thick": 6437,
      "aspects": 6438,
      "ĠCheck": 6439,
      "Ġswim": 6440,
      "Tha": 6441,
      "Ġarrived": 6442,
      "ĠGovernment": 6443,
      "Ġaspects": 6444,
      "Ġawesome": 6445,
      "ĠRock": 6446,
      "rained": 6447,
      "Ġlunch": 6448,
      "Ġwalls": 6449,
      "Ġsongs": 6450,
      "Ġstrategies": 6451,
      "library": 6452,
      "Ġinvesto": 6453,
      "whi": 6454,
      "Ġinvestor": 6455,
      "Ġleads": 6456,
      "Ġsurprise": 6457,
      "Ġopinion": 6458,
      "ĠID": 6459,
      "Ġboat": 6460,
      "sations": 6461,
      "Ġchair": 6462,
      "Ġindustrial": 6463,
      "using": 6464,
      "levision": 6465,
      "oys": 6466,
      "Ġvehicles": 6467,
      "olo": 6468,
      "ĠMedi": 6469,
      "Can": 6470,
      "Ġfellow": 6471,
      "berg": 6472,
      "Ġcart": 6473,
      "water": 6474,
      "Ġdespite": 6475,
      "tele": 6476,
      "CA": 6477,
      "esire": 6478,
      "desire": 6479,
      "Ġtransform": 6480,
      "ĠDevelopment": 6481,
      "Ġwit": 6482,
      "Ġig": 6483,
      "ĠDistri": 6484,
      "Ġbuildings": 6485,
      "license": 6486,
      "Ġshoulde": 6487,
      "Ġshoulder": 6488,
      "cid": 6489,
      "Ġdesire": 6490,
      "ĠSuper": 6491,
      "cher": 6492,
      "ĠMark": 6493,
      "Ġsymb": 6494,
      "inating": 6495,
      "Ġchicken": 6496,
      "ĠAnt": 6497,
      "agement": 6498,
      "Ġelim": 6499,
      "SS": 6500,
      "Ġasking": 6501,
      "Ġmotor": 6502,
      "Ġevalua": 6503,
      "ÑĢ": 6504,
      "Ġsad": 6505,
      "Ġremoved": 6506,
      "Ġevaluat": 6507,
      "whic": 6508,
      "which": 6509,
      "ÑĤ": 6510,
      "odies": 6511,
      "Ġaudi": 6512,
      "Ñģ": 6513,
      "Ġfinger": 6514,
      "inking": 6515,
      "Ġfunctions": 6516,
      "uses": 6517,
      "ertainment": 6518,
      "ĠLear": 6519,
      "ĠTwo": 6520,
      "Ġperfec": 6521,
      "ymp": 6522,
      "ros": 6523,
      "ails": 6524,
      "fortunately": 6525,
      "Ġsides": 6526,
      "Well": 6527,
      "ĠTop": 6528,
      "Ġprepare": 6529,
      "Ġrapid": 6530,
      "Ġmarried": 6531,
      "Ġupdated": 6532,
      "oph": 6533,
      "Ġmissing": 6534,
      "Ġflight": 6535,
      "Ġintroduced": 6536,
      "shire": 6537,
      "IR": 6538,
      "Ġfunding": 6539,
      "ĠSocial": 6540,
      "Ġintellig": 6541,
      "Ġdesig": 6542,
      "enu": 6543,
      "Ġhydr": 6544,
      "Ġbutter": 6545,
      "ĠSl": 6546,
      "Ġlegi": 6547,
      "nif": 6548,
      "Ġlicense": 6549,
      "Ġwinning": 6550,
      "Ġpanel": 6551,
      "ĠFounda": 6552,
      "Ġanimal": 6553,
      "ĠFoundat": 6554,
      "ĠFoundati": 6555,
      "Ġrespond": 6556,
      "ĠFoundation": 6557,
      "Ġthick": 6558,
      "Ġdiscovered": 6559,
      "Ġflowers": 6560,
      "customi": 6561,
      "Ġarticles": 6562,
      "Ġdevelope": 6563,
      "Ġperc": 6564,
      "sphere": 6565,
      "ĠOnline": 6566,
      "Ġliqu": 6567,
      "cable": 6568,
      "Ġplug": 6569,
      "ĠTem": 6570,
      "Ġvac": 6571,
      "Ġdepending": 6572,
      "irds": 6573,
      "Ġlights": 6574,
      "ĠAndr": 6575,
      "Ġfell": 6576,
      "atives": 6577,
      "II": 6578,
      "Ġinfr": 6579,
      "Ġbelong": 6580,
      "Ġspecifically": 6581,
      "ĠForm": 6582,
      "Ġdeveloper": 6583,
      "ĠCD": 6584,
      "Ġsupported": 6585,
      "Ġanywhere": 6586,
      "Ġexpertise": 6587,
      "Ġexplain": 6588,
      "urth": 6589,
      "cake": 6590,
      "Ġgoods": 6591,
      "ĠCarol": 6592,
      "Ġpartners": 6593,
      "Ġacademic": 6594,
      "ĠWr": 6595,
      "Ġcommitted": 6596,
      "Ġcategory": 6597,
      "bal": 6598,
      "dial": 6599,
      "____": 6600,
      "Ġconfidence": 6601,
      "Ġvolunteer": 6602,
      "Ġtrial": 6603,
      "irma": 6604,
      "Ġpurposes": 6605,
      "ĠAfrican": 6606,
      "ĠAM": 6607,
      "ĠDistric": 6608,
      "Ġcheese": 6609,
      "ĠDistrict": 6610,
      "ĠSco": 6611,
      "Ġcustomi": 6612,
      "aunch": 6613,
      "iner": 6614,
      "Just": 6615,
      "ĠUnde": 6616,
      "estic": 6617,
      "Ġstopped": 6618,
      "Ġelectric": 6619,
      "unct": 6620,
      "Ġpossibly": 6621,
      "Ġconfident": 6622,
      "eman": 6623,
      "Ġradio": 6624,
      "ĠBeac": 6625,
      "nx": 6626,
      "Ġminor": 6627,
      "Ġfixed": 6628,
      "Ġmeal": 6629,
      "Ġlibrary": 6630,
      "Ġinfo": 6631,
      "ĠValley": 6632,
      "Ġremo": 6633,
      "Thank": 6634,
      "kin": 6635,
      "caught": 6636,
      "ĠHill": 6637,
      "Ġtrading": 6638,
      "ĠUnion": 6639,
      "Ġthea": 6640,
      "Ġtele": 6641,
      "Ġfreed": 6642,
      "Ġappearance": 6643,
      "aled": 6644,
      "Ġconfl": 6645,
      "Ġglad": 6646,
      "Ġfarm": 6647,
      "Ġrent": 6648,
      "ĠBeach": 6649,
      "Ġshar": 6650,
      "Ġparking": 6651,
      "Ġinstant": 6652,
      "Ġinitia": 6653,
      "ĠHu": 6654,
      "ighted": 6655,
      "theory": 6656,
      "Ġvaluable": 6657,
      "Ġstre": 6658,
      "trick": 6659,
      "ĠRoma": 6660,
      "telling": 6661,
      "Ġkilled": 6662,
      "epart": 6663,
      "sant": 6664,
      "ĠFu": 6665,
      "Ġbreakfast": 6666,
      "Ġsigned": 6667,
      "depart": 6668,
      "mous": 6669,
      "Ġelectronic": 6670,
      "Ġchoices": 6671,
      "ĠSi": 6672,
      "Ġarms": 6673,
      "ĠHal": 6674,
      "OD": 6675,
      "elicious": 6676,
      "Ġcompetitive": 6677,
      "Ġbattery": 6678,
      "Ġbroken": 6679,
      "Ġaccounts": 6680,
      "azy": 6681,
      "Ġflavor": 6682,
      "ĠMel": 6683,
      "Ġmotiv": 6684,
      "delicious": 6685,
      "Ġtechnologies": 6686,
      "Ġswa": 6687,
      "Ġsile": 6688,
      "hocolate": 6689,
      "Ġmeasures": 6690,
      "asp": 6691,
      "Ġintended": 6692,
      "Ġcontain": 6693,
      "Ġnone": 6694,
      "Ġscr": 6695,
      "Ġtale": 6696,
      "nly": 6697,
      "inent": 6698,
      "corr": 6699,
      "LC": 6700,
      "while": 6701,
      "Ġcaught": 6702,
      "ĠMuseum": 6703,
      "iations": 6704,
      "Ġpil": 6705,
      "Ġprogramme": 6706,
      "Ġlandscape": 6707,
      "Are": 6708,
      "tast": 6709,
      "launch": 6710,
      "Ġful": 6711,
      "coa": 6712,
      "ij": 6713,
      "ĠEr": 6714,
      "ĠNews": 6715,
      "Ġemotional": 6716,
      "Ġdelicious": 6717,
      "Ġhouses": 6718,
      "Ġju": 6719,
      "Ġsympt": 6720,
      "omed": 6721,
      "apon": 6722,
      "igate": 6723,
      "Ġindicate": 6724,
      "Ġreliable": 6725,
      "Ġforces": 6726,
      "Ġstri": 6727,
      "Ġshipping": 6728,
      "hoo": 6729,
      "Ġcalling": 6730,
      "pointed": 6731,
      "ĠTeam": 6732,
      "otally": 6733,
      "Ġrespective": 6734,
      "Ġdelivered": 6735,
      "Ġtheory": 6736,
      "Ġdepart": 6737,
      "ĠParty": 6738,
      "BA": 6739,
      "yt": 6740,
      "hamp": 6741,
      "ificate": 6742,
      "Ġsurvey": 6743,
      "totally": 6744,
      "Ġconversation": 6745,
      "Ġmilk": 6746,
      "ENT": 6747,
      "Ġencourage": 6748,
      "catch": 6749,
      "Ġdial": 6750,
      "cific": 6751,
      "ĠWall": 6752,
      "Ġseek": 6753,
      "pload": 6754,
      "PR": 6755,
      "Ġinterests": 6756,
      "Ġfaster": 6757,
      "ĠToday": 6758,
      "ĠData": 6759,
      "ĠFina": 6760,
      "Ġguy": 6761,
      "acts": 6762,
      "Ġsustai": 6763,
      "Ġdish": 6764,
      "Ġprofile": 6765,
      "Ġautomatically": 6766,
      "Ġknowing": 6767,
      "ĠJournal": 6768,
      "Ġbreath": 6769,
      "Ġconfli": 6770,
      "ĠTran": 6771,
      "Ġfeedback": 6772,
      "Ġlap": 6773,
      "Ġspirit": 6774,
      "ĠLook": 6775,
      "ogo": 6776,
      "eans": 6777,
      "Ġfuel": 6778,
      "Ġcollaborat": 6779,
      "ĠTou": 6780,
      "Ġhearing": 6781,
      "Ġinfl": 6782,
      "ĠStep": 6783,
      "ĠTake": 6784,
      "CT": 6785,
      "Ġepisode": 6786,
      "Ġdetermined": 6787,
      "stry": 6788,
      "Ġsem": 6789,
      "inet": 6790,
      "rug": 6791,
      "Ġfields": 6792,
      "Ð½": 6793,
      "Ġgreatest": 6794,
      "BS": 6795,
      "searc": 6796,
      "Ġtotally": 6797,
      "elay": 6798,
      "Ġton": 6799,
      "iminal": 6800,
      "ĠMass": 6801,
      "cm": 6802,
      "ooting": 6803,
      "Ġworse": 6804,
      "ĠCount": 6805,
      "ĠBuild": 6806,
      "prof": 6807,
      "nings": 6808,
      "reness": 6809,
      "ĠWestern": 6810,
      "Ġcomprehensive": 6811,
      "Ġbread": 6812,
      "Ġmach": 6813,
      "Ġpee": 6814,
      "Ġconv": 6815,
      "Ġlaunch": 6816,
      "igra": 6817,
      "Ġaccident": 6818,
      "ĠÎ": 6819,
      "rf": 6820,
      "egot": 6821,
      "Ġinnovative": 6822,
      "chocolate": 6823,
      "Ġintegra": 6824,
      "Ġinspired": 6825,
      "Ġrepe": 6826,
      "ĠCommunity": 6827,
      "ĠUnder": 6828,
      "holder": 6829,
      "Ġquant": 6830,
      "Don": 6831,
      "ady": 6832,
      "ĠAmazon": 6833,
      "Ġdeals": 6834,
      "ĠRic": 6835,
      "Ġstood": 6836,
      "coord": 6837,
      "Ġphysi": 6838,
      "Ġhousing": 6839,
      "Ġfeels": 6840,
      "strate": 6841,
      "Ġintegrat": 6842,
      "Ġadults": 6843,
      "ĠSmith": 6844,
      "Ġcatch": 6845,
      "ĠKit": 6846,
      "Ġdistric": 6847,
      "ĠLeague": 6848,
      "rity": 6849,
      "ĠPay": 6850,
      "Ġtail": 6851,
      "Ġdistrict": 6852,
      "isco": 6853,
      "deck": 6854,
      "ĠJapanese": 6855,
      "Ġadm": 6856,
      "Ġexpo": 6857,
      "Ġremaining": 6858,
      "ĠTown": 6859,
      "Ġsucc": 6860,
      "election": 6861,
      "ĠSpecial": 6862,
      "Oh": 6863,
      "ĠCustom": 6864,
      "delay": 6865,
      "Ġremot": 6866,
      "Ġparticipants": 6867,
      "Ġnovel": 6868,
      "lite": 6869,
      "anx": 6870,
      "tickets": 6871,
      "Ġpipe": 6872,
      "Ġsigns": 6873,
      "Ġremote": 6874,
      "Ġraise": 6875,
      "Ġpad": 6876,
      "isi": 6877,
      "Ġcooking": 6878,
      "orney": 6879,
      "Ġdeposit": 6880,
      "nsu": 6881,
      "Ġborder": 6882,
      "Ġadmit": 6883,
      "ocra": 6884,
      "Ġcrime": 6885,
      "ĠCongress": 6886,
      "Ġanc": 6887,
      "Ġexamples": 6888,
      "Ġdogs": 6889,
      "asc": 6890,
      "Ġemergency": 6891,
      "Ġroll": 6892,
      "ĠChicago": 6893,
      "Ġina": 6894,
      "Ġchocolate": 6895,
      "Ġreduced": 6896,
      "Ġpull": 6897,
      "Ġrealize": 6898,
      "Ġreplace": 6899,
      "ecrea": 6900,
      "ually": 6901,
      "decrea": 6902,
      "Ġwhee": 6903,
      "Ġperfectly": 6904,
      "ĠHave": 6905,
      "hand": 6906,
      "Ġtwi": 6907,
      "toes": 6908,
      "Every": 6909,
      "sized": 6910,
      "Ġcable": 6911,
      "ĠAL": 6912,
      "bout": 6913,
      "silver": 6914,
      "Ġupp": 6915,
      "Ġkinds": 6916,
      "ooper": 6917,
      "Ġburn": 6918,
      "plicat": 6919,
      "uste": 6920,
      "Ġfilter": 6921,
      "lem": 6922,
      "Ġmark": 6923,
      "Ġagent": 6924,
      "cking": 6925,
      "ĠRu": 6926,
      "ĠCall": 6927,
      "Ġcutting": 6928,
      "Ġcarefully": 6929,
      "raw": 6930,
      "Ġbringing": 6931,
      "ĠEarth": 6932,
      "Ġappreciate": 6933,
      "Ġemployer": 6934,
      "ums": 6935,
      "depth": 6936,
      "Ġpush": 6937,
      "efully": 6938,
      "thenti": 6939,
      "ĠParis": 6940,
      "stic": 6941,
      "ĠCanad": 6942,
      "sma": 6943,
      "Ġtickets": 6944,
      "Ġbrands": 6945,
      "Ġclimb": 6946,
      "trained": 6947,
      "Ġquiet": 6948,
      "OP": 6949,
      "Ġjoy": 6950,
      "astructure": 6951,
      "Ġdecrea": 6952,
      "Ġmeat": 6953,
      "mark": 6954,
      "sand": 6955,
      "arr": 6956,
      "Ġcorr": 6957,
      "ĠElectr": 6958,
      "ĠScott": 6959,
      "ĠSw": 6960,
      "Ġpermit": 6961,
      "Ġinten": 6962,
      "Ġsin": 6963,
      "Ġdelay": 6964,
      "Ġadult": 6965,
      "Ġrating": 6966,
      "Ad": 6967,
      "fil": 6968,
      "isher": 6969,
      "ko": 6970,
      "upon": 6971,
      "gna": 6972,
      "Ġvet": 6973,
      "ĠBoth": 6974,
      "ambe": 6975,
      "Ġcoord": 6976,
      "dly": 6977,
      "Ġeducational": 6978,
      "ĠPM": 6979,
      "Ġphiloso": 6980,
      "rson": 6981,
      "lections": 6982,
      "ĠMatt": 6983,
      "Ġmel": 6984,
      "Ġvegetable": 6985,
      "Ġdestroy": 6986,
      "Ġexpressi": 6987,
      "ĠDoc": 6988,
      "âģ": 6989,
      "hon": 6990,
      "Ġchart": 6991,
      "Ġchosen": 6992,
      "ĠIP": 6993,
      "Ġspi": 6994,
      "irty": 6995,
      "Ġspee": 6996,
      "irro": 6997,
      "Ġvary": 6998,
      "igan": 6999,
      "ups": 7000,
      "ĠQuee": 7001,
      "ĠCamp": 7002,
      "Ġorders": 7003,
      "ĠInformation": 7004,
      "Ġyes": 7005,
      "Ġbea": 7006,
      "alen": 7007,
      "ĠUN": 7008,
      "nou": 7009,
      "ĠStra": 7010,
      "Ġapproved": 7011,
      "Ġcoa": 7012,
      "Ġconclu": 7013,
      "Ġchain": 7014,
      "Ġbowl": 7015,
      "Ġcreati": 7016,
      "llery": 7017,
      "ani": 7018,
      "nesse": 7019,
      "ĠChamp": 7020,
      "Ġcovers": 7021,
      "âģĦ": 7022,
      "ĠCru": 7023,
      "crew": 7024,
      "owde": 7025,
      "Ġrestaurants": 7026,
      "Ĥ¬": 7027,
      "Ġtrick": 7028,
      "champ": 7029,
      "Ġaid": 7030,
      "Ġaudio": 7031,
      "Ġreact": 7032,
      "Ġexcep": 7033,
      "ĠInter": 7034,
      "ĠSecurity": 7035,
      "Ġmom": 7036,
      "td": 7037,
      "Ġdeck": 7038,
      "tmo": 7039,
      "Ġadministration": 7040,
      "Ġfailure": 7041,
      "ĠAtl": 7042,
      "Ġlabe": 7043,
      "irror": 7044,
      "ĠFood": 7045,
      "ĠProt": 7046,
      "ĠMot": 7047,
      "Ġformed": 7048,
      "Ġcontext": 7049,
      "coach": 7050,
      "lson": 7051,
      "Ġexpression": 7052,
      "SA": 7053,
      "lined": 7054,
      "Ġowned": 7055,
      "IF": 7056,
      "Ġproviders": 7057,
      "placed": 7058,
      "las": 7059,
      "lies": 7060,
      "dimen": 7061,
      "DF": 7062,
      "vement": 7063,
      "Ġhundreds": 7064,
      "ĠProject": 7065,
      "Ġimproved": 7066,
      "Ġsupposed": 7067,
      "Ġtwenty": 7068,
      "ĠLong": 7069,
      "Ġbridge": 7070,
      "Ġuppe": 7071,
      "Ġupper": 7072,
      "Pa": 7073,
      "Ġpaying": 7074,
      "erated": 7075,
      "Ġsurrounding": 7076,
      "Ġeffectivel": 7077,
      "Ġtherapy": 7078,
      "Ġeffectively": 7079,
      "ocrat": 7080,
      "Ġreaders": 7081,
      "Ġuniversity": 7082,
      "Ġadvertising": 7083,
      "ĠWho": 7084,
      "Ġporti": 7085,
      "Ġrose": 7086,
      "igrat": 7087,
      "Ġstrugg": 7088,
      "ĠMicrosoft": 7089,
      "Ġanx": 7090,
      "ĠOnl": 7091,
      "Ġenable": 7092,
      "Ġyellow": 7093,
      "ssible": 7094,
      "Ġcauses": 7095,
      "cades": 7096,
      "ules": 7097,
      "ĠVirgin": 7098,
      "atmo": 7099,
      "Ġperma": 7100,
      "Acc": 7101,
      "essed": 7102,
      "Ġfailed": 7103,
      "Ġsky": 7104,
      "Ġagreed": 7105,
      "idat": 7106,
      "erial": 7107,
      "Br": 7108,
      "Ġgraduate": 7109,
      "ĠProv": 7110,
      "Ġigno": 7111,
      "ĠFrank": 7112,
      "Ġinterface": 7113,
      "Ã¼": 7114,
      "ĠCard": 7115,
      "evil": 7116,
      "Ġindeed": 7117,
      "Sc": 7118,
      "Sa": 7119,
      "fact": 7120,
      "Ġswitch": 7121,
      "Ġalum": 7122,
      "ĠOnly": 7123,
      "Ġsilver": 7124,
      "Ġexternal": 7125,
      "Ġhistorical": 7126,
      "Ġfoods": 7127,
      "Ġaccepted": 7128,
      "azi": 7129,
      "Ġempha": 7130,
      "Mi": 7131,
      "Ġresolution": 7132,
      "iled": 7133,
      "Ġpremium": 7134,
      "ĠHy": 7135,
      "ĠQueen": 7136,
      "uck": 7137,
      "ĠCons": 7138,
      "gear": 7139,
      "Ġharm": 7140,
      "Ġweapon": 7141,
      "Ġchamp": 7142,
      "Ġtests": 7143,
      "fore": 7144,
      "Ġneu": 7145,
      "Ġconsumers": 7146,
      "ĠAccording": 7147,
      "Ġmatters": 7148,
      "unn": 7149,
      "Ġsettings": 7150,
      "amic": 7151,
      "Ġlaunched": 7152,
      "Ġatmo": 7153,
      "elevision": 7154,
      "ĠWhether": 7155,
      "ĠNetwork": 7156,
      "inar": 7157,
      "Ġseeking": 7158,
      "depend": 7159,
      "Ġvir": 7160,
      "turally": 7161,
      "ĠCentre": 7162,
      "erry": 7163,
      "diso": 7164,
      "Ġinstructions": 7165,
      "Ġble": 7166,
      "Ġuniver": 7167,
      "ĠOld": 7168,
      "Ġhonor": 7169,
      "Ġguest": 7170,
      "Ġsex": 7171,
      "ensu": 7172,
      "ibilities": 7173,
      "Ġprison": 7174,
      "Ġnoted": 7175,
      "Ġdistribution": 7176,
      "Ġcreation": 7177,
      "Ġrecommenda": 7178,
      "Ġparticipate": 7179,
      "Ġregularl": 7180,
      "Ġregularly": 7181,
      "appy": 7182,
      "Ġcrew": 7183,
      "ĠYes": 7184,
      "Ġportion": 7185,
      "onate": 7186,
      "ĠTom": 7187,
      "owder": 7188,
      "Ġsupplies": 7189,
      "ĠBrown": 7190,
      "Ġfemale": 7191,
      "ĠTwitter": 7192,
      "Ġteach": 7193,
      "mers": 7194,
      "Ġpurchased": 7195,
      "Ġvictim": 7196,
      "ĠThomas": 7197,
      "Ġhurt": 7198,
      "Ġparent": 7199,
      "OC": 7200,
      "taught": 7201,
      "Ġbirthday": 7202,
      "ront": 7203,
      "Ġvisiting": 7204,
      "lend": 7205,
      "ĠBack": 7206,
      "Ġwalked": 7207,
      "Ġconcerned": 7208,
      "Ġnod": 7209,
      "ohol": 7210,
      "Ġentirel": 7211,
      "bert": 7212,
      "Ġentirely": 7213,
      "ecades": 7214,
      "decades": 7215,
      "Ġdiso": 7216,
      "Ġinterac": 7217,
      "lying": 7218,
      "Ġjudge": 7219,
      "television": 7220,
      "Ġremind": 7221,
      "aser": 7222,
      "uncti": 7223,
      "ml": 7224,
      "Ġrail": 7225,
      "ogen": 7226,
      "ĠRan": 7227,
      "Ġsmile": 7228,
      "wn": 7229,
      "cre": 7230,
      "yan": 7231,
      "Ġjoint": 7232,
      "Ġlea": 7233,
      "Ġdecades": 7234,
      "Ġinteract": 7235,
      "inations": 7236,
      "Ġgat": 7237,
      "Ġpainting": 7238,
      "eou": 7239,
      "cohol": 7240,
      "Ġcoach": 7241,
      "Ġproposed": 7242,
      "ĠRichard": 7243,
      "Ġtwic": 7244,
      "erce": 7245,
      "Ġtwice": 7246,
      "Ġorganic": 7247,
      "ĠKorea": 7248,
      "Ġcorrespon": 7249,
      "Ġdollars": 7250,
      "Ġcommitment": 7251,
      "Ġneighborhood": 7252,
      "Ġperman": 7253,
      "Ġcloser": 7254,
      "ailing": 7255,
      "eiling": 7256,
      "Ġtreated": 7257,
      "that": 7258,
      "thlet": 7259,
      "Ġspeaking": 7260,
      "Ġconduct": 7261,
      "Ġmonthl": 7262,
      "Ġmonthly": 7263,
      "ĠProc": 7264,
      "Ġpassion": 7265,
      "athlet": 7266,
      "Ġbegins": 7267,
      "unting": 7268,
      "ala": 7269,
      "Ġtelevision": 7270,
      "ĠIl": 7271,
      "Ġimagine": 7272,
      "iu": 7273,
      "Ġgrown": 7274,
      "eous": 7275,
      "iPh": 7276,
      "Ġancient": 7277,
      "ĠManage": 7278,
      "Ġvalid": 7279,
      "tto": 7280,
      "Ġengineering": 7281,
      "tox": 7282,
      "odg": 7283,
      "reak": 7284,
      "Ġresource": 7285,
      "estyle": 7286,
      "type": 7287,
      "ĠAS": 7288,
      "Ġlighting": 7289,
      "aze": 7290,
      "Ġconvenient": 7291,
      "Ġplays": 7292,
      "Ġchie": 7293,
      "Ġhousehold": 7294,
      "Ġgrade": 7295,
      "nny": 7296,
      "sides": 7297,
      "negot": 7298,
      "Ġrecorded": 7299,
      "Ġcircumstances": 7300,
      "llia": 7301,
      "ĠHistory": 7302,
      "Ġdepend": 7303,
      "Ġjui": 7304,
      "ĠKat": 7305,
      "Ġvan": 7306,
      "pace": 7307,
      "Once": 7308,
      "Ġcontemporary": 7309,
      "hread": 7310,
      "Ġbelief": 7311,
      "ĠVil": 7312,
      "Ġsupporting": 7313,
      "Ġsurgery": 7314,
      "Ġrental": 7315,
      "Ġupdates": 7316,
      "rint": 7317,
      "acid": 7318,
      "esterday": 7319,
      "'.": 7320,
      "Ġencount": 7321,
      "Ġestimate": 7322,
      "Ġrecognize": 7323,
      "Ġmagn": 7324,
      "UT": 7325,
      "Ġreligio": 7326,
      "Ġidentified": 7327,
      "apping": 7328,
      "Ġscientific": 7329,
      "Ġclinical": 7330,
      "ĠAward": 7331,
      "roughl": 7332,
      "roughly": 7333,
      "nam": 7334,
      "Ġends": 7335,
      "ogue": 7336,
      "Ġsheet": 7337,
      "Ġscheme": 7338,
      "ĠRussian": 7339,
      "Ġcharges": 7340,
      "However": 7341,
      "lel": 7342,
      "Ġexcess": 7343,
      "thread": 7344,
      "Ġsignificantl": 7345,
      "Ġheight": 7346,
      "Ġsignificantly": 7347,
      "Ġreligiou": 7348,
      "Ġreligious": 7349,
      "ĠTechnology": 7350,
      "Ġentered": 7351,
      "choo": 7352,
      "ĠWomen": 7353,
      "embly": 7354,
      "Ġappointment": 7355,
      "Ġtaught": 7356,
      "Let": 7357,
      "Ġfrequently": 7358,
      "wid": 7359,
      "repren": 7360,
      "Ġequal": 7361,
      "ĠAustralian": 7362,
      "Ġusual": 7363,
      "Ġmanufacturing": 7364,
      "issi": 7365,
      "xy": 7366,
      "born": 7367,
      "Ġseque": 7368,
      "ĠAndroid": 7369,
      "Ġsymbol": 7370,
      "erma": 7371,
      "Ġdomain": 7372,
      "Ġefficiency": 7373,
      "Ġcontainer": 7374,
      "Ġcarp": 7375,
      "ĠItalian": 7376,
      "Ġtrained": 7377,
      "chnic": 7378,
      "Ap": 7379,
      "Ġgrab": 7380,
      "Ġmainl": 7381,
      "Ġexac": 7382,
      "Ġbigg": 7383,
      "Ġchanne": 7384,
      "Ġgrew": 7385,
      "Ġelection": 7386,
      "rri": 7387,
      "Â°": 7388,
      "ĠPlac": 7389,
      "Ġsymptoms": 7390,
      "uan": 7391,
      "ĠNY": 7392,
      "tough": 7393,
      "Ġboys": 7394,
      "Ġweak": 7395,
      "ĠAnn": 7396,
      "ĠCommission": 7397,
      "Ġconsidering": 7398,
      "LA": 7399,
      "Ġshoes": 7400,
      "Ġmassive": 7401,
      "Ġleather": 7402,
      "cke": 7403,
      "Ġregister": 7404,
      "apos": 7405,
      "ÃŃ": 7406,
      "Ġmoti": 7407,
      "Ġchoo": 7408,
      "inch": 7409,
      "Ġprotein": 7410,
      "Ġfilms": 7411,
      "lip": 7412,
      "ske": 7413,
      "Ġstated": 7414,
      "OV": 7415,
      "ucted": 7416,
      "ĠIndust": 7417,
      "itioner": 7418,
      "umn": 7419,
      "Ġensu": 7420,
      "ĠMember": 7421,
      "Ġgate": 7422,
      "Ġmonito": 7423,
      "Ġofficials": 7424,
      "Ġfreedo": 7425,
      "Ġfreedom": 7426,
      "Ġpatterns": 7427,
      "Ġmarriage": 7428,
      "Ġanswers": 7429,
      "Ġwest": 7430,
      "ĠHD": 7431,
      "frien": 7432,
      "scribe": 7433,
      "ĠLouis": 7434,
      "ĠCH": 7435,
      "ernal": 7436,
      "Ġvs": 7437,
      "Ġrecovery": 7438,
      "Ġpicked": 7439,
      "Ġcontrast": 7440,
      "Ġrelativel": 7441,
      "Ġrelatively": 7442,
      "Ġapps": 7443,
      "dust": 7444,
      "Ġobjects": 7445,
      "Ġdrivers": 7446,
      "Ġwheel": 7447,
      "ĠHote": 7448,
      "ĠTable": 7449,
      "ĠYOU": 7450,
      "Ġissued": 7451,
      "ĠDis": 7452,
      "Ġnegot": 7453,
      "lusi": 7454,
      "Ġbrowser": 7455,
      "Ġholds": 7456,
      "Ġembr": 7457,
      "Ġassets": 7458,
      "ĠAsia": 7459,
      "Ġviol": 7460,
      "ĠPan": 7461,
      "aded": 7462,
      "Ġstudi": 7463,
      "Ġturning": 7464,
      "illed": 7465,
      "rst": 7466,
      "alls": 7467,
      "ĠOR": 7468,
      "Ġbigge": 7469,
      "amin": 7470,
      "Ġmotion": 7471,
      "Ġaffected": 7472,
      "Ġgear": 7473,
      "cian": 7474,
      "Ġpresenta": 7475,
      "Ġbigger": 7476,
      "ĠReview": 7477,
      "Ġdefined": 7478,
      "ĠiPh": 7479,
      "ĠHotel": 7480,
      "Ġrid": 7481,
      "ĠControl": 7482,
      "?'": 7483,
      "Ġrecr": 7484,
      "Ġtasks": 7485,
      "Ġfourth": 7486,
      "Ġ>": 7487,
      "Ġsizes": 7488,
      "Ġpoly": 7489,
      "Ġconstantl": 7490,
      "Ġconstantly": 7491,
      "Ġtough": 7492,
      "Ġpresentat": 7493,
      "Ġturns": 7494,
      "amed": 7495,
      "Ġpresentati": 7496,
      "kay": 7497,
      "Ġsubse": 7498,
      "Ġpresentation": 7499,
      "nforc": 7500,
      "Ġenterprise": 7501,
      "Ġtim": 7502,
      "lst": 7503,
      "ispo": 7504,
      "Ġplanned": 7505,
      "Ġstudio": 7506,
      "ission": 7507,
      "olence": 7508,
      "Ġkno": 7509,
      "Ġstring": 7510,
      "grega": 7511,
      "Ġcott": 7512,
      "Ġincredible": 7513,
      "Ġslowl": 7514,
      "Ġaccompa": 7515,
      "Ġslowly": 7516,
      "Ġcake": 7517,
      "Ġathlet": 7518,
      "Ġtopics": 7519,
      "Ġresol": 7520,
      "pot": 7521,
      "Ġped": 7522,
      "ĠConn": 7523,
      "Ġrevenue": 7524,
      "Ġforced": 7525,
      "ĠMayb": 7526,
      "tters": 7527,
      "enforc": 7528,
      "Ġacid": 7529,
      "Te": 7530,
      "Ġkick": 7531,
      "spap": 7532,
      "Ġrecognized": 7533,
      "ĠWhere": 7534,
      "Ġauthority": 7535,
      "Ġnoticed": 7536,
      "Ġiron": 7537,
      "Ġreplacement": 7538,
      "ĠFamily": 7539,
      "rey": 7540,
      "oal": 7541,
      "lusion": 7542,
      "Ġclothes": 7543,
      "ĠEnt": 7544,
      "Ġreasonable": 7545,
      "Ġdating": 7546,
      "ĠTest": 7547,
      "spape": 7548,
      "erson": 7549,
      "spaper": 7550,
      "sessions": 7551,
      "gagement": 7552,
      "ĠFind": 7553,
      "Ġconfir": 7554,
      "Ġrear": 7555,
      "aked": 7556,
      "nated": 7557,
      "Ġni": 7558,
      "ĠMem": 7559,
      "unction": 7560,
      "iles": 7561,
      "Wo": 7562,
      "aves": 7563,
      "Ġstrike": 7564,
      "Ġthread": 7565,
      "Ġcontribute": 7566,
      "ĠMaybe": 7567,
      "Ġcommittee": 7568,
      "Ġextended": 7569,
      "Ġreceiving": 7570,
      "Look": 7571,
      "TER": 7572,
      "Jo": 7573,
      "cade": 7574,
      "lon": 7575,
      "Ġmachines": 7576,
      "lse": 7577,
      "MA": 7578,
      "dispo": 7579,
      "Ġearn": 7580,
      "Ġhire": 7581,
      "Ġsuccessfully": 7582,
      "Ġinfrastructure": 7583,
      "ĠOrga": 7584,
      "CE": 7585,
      "sors": 7586,
      "ords": 7587,
      "ĠInstead": 7588,
      "ĠNOT": 7589,
      "ĠLtd": 7590,
      "ĠLos": 7591,
      "Ġcruc": 7592,
      "Ġiso": 7593,
      "ĠMic": 7594,
      "gover": 7595,
      "ĠNote": 7596,
      "ycl": 7597,
      "ĠManager": 7598,
      "ĠExc": 7599,
      "].": 7600,
      "ĠAmericans": 7601,
      "Ġdegrees": 7602,
      "Ġimpleme": 7603,
      "?âĢĿ": 7604,
      "lower": 7605,
      "rela": 7606,
      "ĠId": 7607,
      "ancy": 7608,
      "Ġimpossible": 7609,
      "Ġinstitutions": 7610,
      "Ġhung": 7611,
      "ĠSqu": 7612,
      "mond": 7613,
      "Ġlos": 7614,
      "Then": 7615,
      "Ġoutput": 7616,
      "Ġfift": 7617,
      "Ġenhance": 7618,
      "UN": 7619,
      "Ġnative": 7620,
      "Ġtelling": 7621,
      "Ġletters": 7622,
      "Ġdrag": 7623,
      "Any": 7624,
      "mil": 7625,
      "ĠRoyal": 7626,
      "ĠArts": 7627,
      "ĠVict": 7628,
      "press": 7629,
      "rsey": 7630,
      "ĠMedical": 7631,
      "ĠGarden": 7632,
      "Ġshares": 7633,
      "Ġsessions": 7634,
      "ĠLat": 7635,
      "ĠCA": 7636,
      "tab": 7637,
      "ĠHead": 7638,
      "rism": 7639,
      "Ġvast": 7640,
      "nuc": 7641,
      "rando": 7642,
      "Ġchannel": 7643,
      "Ġspeec": 7644,
      "Ġdispo": 7645,
      "Ġexplained": 7646,
      "Ġspeech": 7647,
      "Ġsolar": 7648,
      "erty": 7649,
      "Ġstars": 7650,
      "ĠCanadian": 7651,
      "isis": 7652,
      "Ġregional": 7653,
      "tically": 7654,
      "Ġcelebrate": 7655,
      "Ġretail": 7656,
      "erie": 7657,
      "Ġoven": 7658,
      "Ġskil": 7659,
      "ĠDownload": 7660,
      "imated": 7661,
      "coc": 7662,
      "ĠHosp": 7663,
      "Ġforth": 7664,
      "Ġidentity": 7665,
      "Ġwearing": 7666,
      "lated": 7667,
      "Ġnearby": 7668,
      "TA": 7669,
      "ĠON": 7670,
      "itate": 7671,
      "amber": 7672,
      "lib": 7673,
      "Ġclosel": 7674,
      "Ġclosely": 7675,
      "Ġapartment": 7676,
      "usand": 7677,
      "ision": 7678,
      "Ġguard": 7679,
      "Ġsituations": 7680,
      "Ġmessages": 7681,
      "Ġpulled": 7682,
      "cism": 7683,
      "utine": 7684,
      "Ġgal": 7685,
      "Ġmoments": 7686,
      "tiss": 7687,
      "Ġdescription": 7688,
      "lton": 7689,
      "Ġfur": 7690,
      "logo": 7691,
      "ĠVicto": 7692,
      "Ġpositions": 7693,
      "opy": 7694,
      "ĠPlace": 7695,
      "Ġprocedures": 7696,
      "Ġregistration": 7697,
      "ĠRoom": 7698,
      "Ġhyp": 7699,
      "ĠRussia": 7700,
      "tone": 7701,
      "ĠCup": 7702,
      "Ġexplo": 7703,
      "Ġease": 7704,
      "Ġconducted": 7705,
      "Ġbelieved": 7706,
      "searching": 7707,
      "Ġtruck": 7708,
      "Ġsuggested": 7709,
      "Ġautomati": 7710,
      "ĠMinister": 7711,
      "acknow": 7712,
      "sist": 7713,
      "ĠShow": 7714,
      "',": 7715,
      "Ġimpressive": 7716,
      "ez": 7717,
      "ĠAuto": 7718,
      "igrati": 7719,
      "Ġflag": 7720,
      "ĠDig": 7721,
      "nter": 7722,
      "ĠRE": 7723,
      "igration": 7724,
      "ĠSpanish": 7725,
      "Ġdevo": 7726,
      "corn": 7727,
      "SE": 7728,
      "enda": 7729,
      "Ġtypical": 7730,
      "gi": 7731,
      "ications": 7732,
      "Ġcrowd": 7733,
      "ĠHuman": 7734,
      "Ġassessment": 7735,
      "reets": 7736,
      "Ġcontracto": 7737,
      "itioning": 7738,
      "Ġcontractor": 7739,
      "âĢĻ.": 7740,
      "input": 7741,
      "Ġchief": 7742,
      "Ð¾Ð": 7743,
      "xe": 7744,
      "stal": 7745,
      "Ġobvio": 7746,
      "ĠReal": 7747,
      "Ġobviou": 7748,
      "Ġobvious": 7749,
      "edia": 7750,
      "Ġawareness": 7751,
      "bb": 7752,
      "Ġtiny": 7753,
      "play": 7754,
      "trig": 7755,
      "Ġcycle": 7756,
      "Alt": 7757,
      "Since": 7758,
      "ĠMarket": 7759,
      "Ġluxury": 7760,
      "Ġarrest": 7761,
      "Ġrealized": 7762,
      "Ġstorm": 7763,
      "jected": 7764,
      "cals": 7765,
      "Ġmail": 7766,
      "Ġpoe": 7767,
      "illia": 7768,
      "tells": 7769,
      "Ġshel": 7770,
      "gor": 7771,
      "ĠThrough": 7772,
      "culty": 7773,
      "tary": 7774,
      "Ø§": 7775,
      "Ã³": 7776,
      "Gr": 7777,
      "ĠMrs": 7778,
      "lum": 7779,
      "Ġacknow": 7780,
      "Ġcapable": 7781,
      "Ġmixed": 7782,
      "Ġcriminal": 7783,
      "Ġauthenti": 7784,
      "Ġstands": 7785,
      "Ġimprovement": 7786,
      "Ġcraf": 7787,
      "ĠiPhone": 7788,
      "dle": 7789,
      "ĠBal": 7790,
      "ĠRoman": 7791,
      "Ch": 7792,
      "ĠMexico": 7793,
      "ĠNu": 7794,
      "Ġedition": 7795,
      "aints": 7796,
      "genu": 7797,
      "Ġtast": 7798,
      "Ġtells": 7799,
      "Ġpayments": 7800,
      "spoon": 7801,
      "Ġenforc": 7802,
      "Ġsight": 7803,
      "parati": 7804,
      "Ġworldwide": 7805,
      "Ġemployment": 7806,
      "paration": 7807,
      "Ġmeetings": 7808,
      "Ġcandidates": 7809,
      "Ġagencies": 7810,
      "ching": 7811,
      "Ġintr": 7812,
      "Ġinvestors": 7813,
      "cin": 7814,
      "Ġfeatured": 7815,
      "Many": 7816,
      "Ġprayer": 7817,
      "Ġagents": 7818,
      "llers": 7819,
      "ĠLim": 7820,
      "odge": 7821,
      "Ġment": 7822,
      "Ġexecutive": 7823,
      "Ġeast": 7824,
      "Ġmicro": 7825,
      "eler": 7826,
      "ĠJos": 7827,
      "nished": 7828,
      "Ġsupports": 7829,
      "Ġinspiration": 7830,
      "real": 7831,
      "adow": 7832,
      "Ġfly": 7833,
      "Ġ@": 7834,
      "Ġspaces": 7835,
      "ĠCert": 7836,
      "Ġpleasure": 7837,
      "Fi": 7838,
      "Ġprofit": 7839,
      "Ġreserve": 7840,
      "ĠAcademy": 7841,
      "cians": 7842,
      "Ġkne": 7843,
      "ĠMedia": 7844,
      "Ġfounda": 7845,
      "Ġ<": 7846,
      "Ġfoundat": 7847,
      "itting": 7848,
      "Ġfoundati": 7849,
      "elev": 7850,
      "outine": 7851,
      "Ġfoundation": 7852,
      "comed": 7853,
      "wan": 7854,
      "ĠStand": 7855,
      "Ġhardware": 7856,
      "Ġsearching": 7857,
      "Ġmuseum": 7858,
      "Ġsharp": 7859,
      "Ġserves": 7860,
      "yards": 7861,
      "ype": 7862,
      "Ġamen": 7863,
      "Per": 7864,
      "aga": 7865,
      "Ġdangero": 7866,
      "Ġdangerou": 7867,
      "Ġdangerous": 7868,
      "Ġshirt": 7869,
      "Ġlogo": 7870,
      "Ġexact": 7871,
      "ĠPlus": 7872,
      "elig": 7873,
      "bit": 7874,
      "ĠLy": 7875,
      "ĠThose": 7876,
      "stone": 7877,
      "ĠCode": 7878,
      "Ġatmosphere": 7879,
      "outs": 7880,
      "Ġsoi": 7881,
      "Ġkill": 7882,
      "Ġconcrete": 7883,
      "ĠConference": 7884,
      "ĠMiddle": 7885,
      "Ġcrusher": 7886,
      "Ġunlike": 7887,
      "ceiling": 7888,
      "half": 7889,
      "irly": 7890,
      "Ġexpectations": 7891,
      "atoes": 7892,
      "husia": 7893,
      "Ġrando": 7894,
      "Ġconcentr": 7895,
      "hal": 7896,
      "tall": 7897,
      "Ġenginee": 7898,
      "ĠBra": 7899,
      "Ġhorr": 7900,
      "Ġengineer": 7901,
      "Ġpregna": 7902,
      "Ġinput": 7903,
      "Ġdrugs": 7904,
      "aspect": 7905,
      "llet": 7906,
      "Ġphase": 7907,
      "Ġinches": 7908,
      "routine": 7909,
      "Ġinformed": 7910,
      "rency": 7911,
      "Ġrever": 7912,
      "Ġmixture": 7913,
      "resh": 7914,
      "First": 7915,
      "nition": 7916,
      "Ġofficers": 7917,
      "SP": 7918,
      "ogy": 7919,
      "Another": 7920,
      "Ġmissed": 7921,
      "ĠTherefore": 7922,
      "Ġbath": 7923,
      "view": 7924,
      "Ġunable": 7925,
      "Ġmale": 7926,
      "ĠAdv": 7927,
      "inic": 7928,
      "Ġkeeps": 7929,
      "nsed": 7930,
      "Ġhall": 7931,
      "Ġtrig": 7932,
      "Ġgenu": 7933,
      "Ġelega": 7934,
      "Ġaspect": 7935,
      "Ġmedicine": 7936,
      "acting": 7937,
      "Ġexperime": 7938,
      "relan": 7939,
      "Ġsufficient": 7940,
      "Ġflou": 7941,
      "ĠCam": 7942,
      "Ġboost": 7943,
      "ĠEcono": 7944,
      "ping": 7945,
      "Ġpac": 7946,
      "nied": 7947,
      "Ġlegs": 7948,
      "Ġordered": 7949,
      "Ġproducer": 7950,
      "foli": 7951,
      "diverse": 7952,
      "reland": 7953,
      "owered": 7954,
      "Che": 7955,
      "ĠDia": 7956,
      "Ġflash": 7957,
      "Ġvital": 7958,
      "ngage": 7959,
      "Ġtiss": 7960,
      "Ġsoil": 7961,
      "icit": 7962,
      "idance": 7963,
      "Ġliked": 7964,
      "Ġord": 7965,
      "ĠJim": 7966,
      "Ġbenefi": 7967,
      "Ġprivacy": 7968,
      "Ġenthusia": 7969,
      "Ġfacing": 7970,
      "ĠAnother": 7971,
      "ĠJul": 7972,
      "ĠKeep": 7973,
      "stern": 7974,
      "Ġresidential": 7975,
      "Ġdomestic": 7976,
      "stery": 7977,
      "itis": 7978,
      "quality": 7979,
      "ĠGene": 7980,
      "Ġreput": 7981,
      "acing": 7982,
      "Ġgover": 7983,
      "ĠSeries": 7984,
      "Most": 7985,
      "atal": 7986,
      "fecti": 7987,
      "ticket": 7988,
      "Ġdiverse": 7989,
      "Ġconseque": 7990,
      "Ġnurse": 7991,
      "istry": 7992,
      "ĠBed": 7993,
      "itage": 7994,
      "Ġupload": 7995,
      "Ġpapers": 7996,
      "sick": 7997,
      "Ġobtained": 7998,
      "sse": 7999,
      "related": 8000,
      "Ġtut": 8001,
      "ores": 8002,
      "ĠFire": 8003,
      "Ġpepper": 8004,
      "ĠNor": 8005,
      "ĠInvest": 8006,
      "Ġforest": 8007,
      "Ġmechanism": 8008,
      "ĠStart": 8009,
      "Ġaccessible": 8010,
      "Ġjuic": 8011,
      "Ġstyles": 8012,
      "Ġmemo": 8013,
      "iano": 8014,
      "Ġprotected": 8015,
      "ĠEp": 8016,
      "Ġcra": 8017,
      "Ġroutine": 8018,
      "Ġremained": 8019,
      "Ġelev": 8020,
      "Ġhappening": 8021,
      "avel": 8022,
      "Ġbodies": 8023,
      "Ġelig": 8024,
      "resent": 8025,
      "Ġseg": 8026,
      "Ã¶": 8027,
      "Ġflour": 8028,
      "iry": 8029,
      "Ġlie": 8030,
      "Ġcollected": 8031,
      "ĠGlobal": 8032,
      "Ġcircu": 8033,
      "ffer": 8034,
      "Ġspiritual": 8035,
      "Ġentertainment": 8036,
      "ĠEU": 8037,
      "Ġeveryday": 8038,
      "Ġdiscount": 8039,
      "oston": 8040,
      "wing": 8041,
      "Ġpleased": 8042,
      "ĠSecret": 8043,
      "ĠRef": 8044,
      "iates": 8045,
      "Ġattached": 8046,
      "iser": 8047,
      "Ġdiscussed": 8048,
      "iewer": 8049,
      "Ġalcohol": 8050,
      "Ġconcentra": 8051,
      "Ġscan": 8052,
      "bridge": 8053,
      "ĠCEO": 8054,
      "Ġdestination": 8055,
      "Ġbanks": 8056,
      "eploy": 8057,
      "Ġconcentrat": 8058,
      "Ġnuc": 8059,
      "Ġreturns": 8060,
      "lean": 8061,
      "atter": 8062,
      "uster": 8063,
      "ĠMax": 8064,
      "Ġnewspaper": 8065,
      "ngagement": 8066,
      "affi": 8067,
      "ĠItaly": 8068,
      "Ġintegrated": 8069,
      "sually": 8070,
      "Ġbare": 8071,
      "Ġsubstant": 8072,
      "Ġchallenging": 8073,
      "sired": 8074,
      "ocate": 8075,
      "mal": 8076,
      "asy": 8077,
      "Ġpossibility": 8078,
      "Ġjuice": 8079,
      "Ġqualified": 8080,
      "Ġdeba": 8081,
      "Ġcolumn": 8082,
      "Ġloans": 8083,
      "erem": 8084,
      "holic": 8085,
      "ĠAC": 8086,
      "itz": 8087,
      "Ġsuspe": 8088,
      "EE": 8089,
      "Ġorganized": 8090,
      "tur": 8091,
      "pap": 8092,
      "lk": 8093,
      "Ġast": 8094,
      "eah": 8095,
      "ĠTimes": 8096,
      "ias": 8097,
      "aside": 8098,
      "trail": 8099,
      "ĠMP": 8100,
      "Ġreward": 8101,
      "oney": 8102,
      "phy": 8103,
      "ĠJoe": 8104,
      "Ġmainly": 8105,
      "Ġgarage": 8106,
      "ented": 8107,
      "weight": 8108,
      "ĠFurther": 8109,
      "ionall": 8110,
      "ĠBefore": 8111,
      "oaching": 8112,
      "Ġprev": 8113,
      "disa": 8114,
      "Ġinnovation": 8115,
      "Ġcitizens": 8116,
      "Ġdealing": 8117,
      "Ġnarrow": 8118,
      "ingl": 8119,
      "Ġske": 8120,
      "iven": 8121,
      "ionally": 8122,
      "ĠSpir": 8123,
      "Ġrevealed": 8124,
      "Ġcharged": 8125,
      "ideo": 8126,
      "itionall": 8127,
      "itionally": 8128,
      "Ġdisorder": 8129,
      "ĠWhi": 8130,
      "thesis": 8131,
      "Ġcomparison": 8132,
      "rado": 8133,
      "Ġdust": 8134,
      "Pro": 8135,
      "Ġskill": 8136,
      "ĠAnal": 8137,
      "Ġundert": 8138,
      "coal": 8139,
      "Ġdefense": 8140,
      "Ġunf": 8141,
      "Ġsurprised": 8142,
      "Ġdistinct": 8143,
      "Ġoperato": 8144,
      "ĠCorpor": 8145,
      "Ġfrag": 8146,
      "Ġoperator": 8147,
      "Ġairport": 8148,
      "Ġceiling": 8149,
      "Ġmovies": 8150,
      "amer": 8151,
      "onald": 8152,
      "ĠSet": 8153,
      "Ġrelief": 8154,
      "ĠFestival": 8155,
      "ĠGar": 8156,
      "root": 8157,
      "host": 8158,
      "Ġmagi": 8159,
      "ĠWay": 8160,
      "ĠGi": 8161,
      "pag": 8162,
      "deploy": 8163,
      "vers": 8164,
      "hab": 8165,
      "tomo": 8166,
      "Ġdimen": 8167,
      "Ġ;": 8168,
      "Ġexposure": 8169,
      "Ġprove": 8170,
      "Ġoutstanding": 8171,
      "trop": 8172,
      "qui": 8173,
      "Ġempty": 8174,
      "ĠLibrary": 8175,
      "Ġvibr": 8176,
      "ĠCross": 8177,
      "Ġsucceed": 8178,
      "Ġscheduled": 8179,
      "Ġnutr": 8180,
      "Hi": 8181,
      "Ġdisap": 8182,
      "Ġalign": 8183,
      "ĠEmp": 8184,
      "repreneur": 8185,
      "Ġbottle": 8186,
      "Ġgrass": 8187,
      "Ġterro": 8188,
      "Ġrisks": 8189,
      "Ġreflect": 8190,
      "Ġflood": 8191,
      "Ġduty": 8192,
      "Ġproof": 8193,
      "ousand": 8194,
      "ulo": 8195,
      "inspect": 8196,
      "ples": 8197,
      "Ġpassen": 8198,
      "azz": 8199,
      "Ġora": 8200,
      "engage": 8201,
      "dele": 8202,
      "lift": 8203,
      "ĠDea": 8204,
      "ĠMA": 8205,
      "Ġpersonall": 8206,
      "gifts": 8207,
      "Ġpersonally": 8208,
      "Ġexceed": 8209,
      "van": 8210,
      "Ġpasseng": 8211,
      "Ġpassenge": 8212,
      "ĠSoft": 8213,
      "Ġpassenger": 8214,
      "ckers": 8215,
      "Ġagr": 8216,
      "Ġinterve": 8217,
      "stood": 8218,
      "upt": 8219,
      "Ġid": 8220,
      "nom": 8221,
      "ĠAD": 8222,
      "Ġfavourite": 8223,
      "Ġtur": 8224,
      "Ġtrail": 8225,
      "Ġflexible": 8226,
      "Ġticket": 8227,
      "engagement": 8228,
      "ouc": 8229,
      "La": 8230,
      "Ġmanual": 8231,
      "May": 8232,
      "Ġmirror": 8233,
      "bilities": 8234,
      "lessl": 8235,
      "Ġfigures": 8236,
      "housand": 8237,
      "lessly": 8238,
      "thousand": 8239,
      "Ġaside": 8240,
      "Ġpal": 8241,
      "Ġdisa": 8242,
      "facti": 8243,
      "ributed": 8244,
      "ĠMob": 8245,
      "made": 8246,
      "ivat": 8247,
      "Get": 8248,
      "faction": 8249,
      "Ġchoosing": 8250,
      "Ġshoot": 8251,
      "Ġspr": 8252,
      "Ġknee": 8253,
      "eak": 8254,
      "Ġsick": 8255,
      "Ġstunning": 8256,
      "ĠAuth": 8257,
      "ensed": 8258,
      "oned": 8259,
      "Ġincreases": 8260,
      "Ġliquid": 8261,
      "Ġlifestyle": 8262,
      "Ġexceptional": 8263,
      "Ġhosting": 8264,
      "Ġpp": 8265,
      "Ġoriginall": 8266,
      "Ġfold": 8267,
      "Ġoriginally": 8268,
      "Ġpassing": 8269,
      "ĠCharles": 8270,
      "Pl": 8271,
      "ingly": 8272,
      "Ġnetworks": 8273,
      "Ġmoist": 8274,
      "Ġarts": 8275,
      "govern": 8276,
      "Ġcreates": 8277,
      "rgeo": 8278,
      "Ġvit": 8279,
      "ĠAngeles": 8280,
      "ĠLee": 8281,
      "Ġtall": 8282,
      "oining": 8283,
      "ĠRose": 8284,
      "Ġdeploy": 8285,
      "Ġinstrument": 8286,
      "Ġgifts": 8287,
      "Ġlistening": 8288,
      "Ġblend": 8289,
      "echnic": 8290,
      "ĠKr": 8291,
      "airs": 8292,
      "Ġbasket": 8293,
      "Ġdrawing": 8294,
      "gat": 8295,
      "struction": 8296,
      "ened": 8297,
      "Ġinspect": 8298,
      "ĠTen": 8299,
      "Ġfairly": 8300,
      "Ġbreast": 8301,
      "Ġnormally": 8302,
      "rgeou": 8303,
      "Ġlabor": 8304,
      "pape": 8305,
      "esired": 8306,
      "Cont": 8307,
      "desired": 8308,
      "ĠAdmini": 8309,
      "Ġgrat": 8310,
      "ĠEm": 8311,
      "ĠMor": 8312,
      "rgeous": 8313,
      "ĠPric": 8314,
      "rger": 8315,
      "Ġimplementa": 8316,
      "Ġengage": 8317,
      "Qu": 8318,
      "Ġvirtual": 8319,
      "ĠVirginia": 8320,
      "Ġimplementat": 8321,
      "Ġengagement": 8322,
      "Ġdifferences": 8323,
      "abil": 8324,
      "Ġimplementati": 8325,
      "Ġimplementation": 8326,
      "Ġdropped": 8327,
      "Ġgy": 8328,
      "tip": 8329,
      "Ġregulations": 8330,
      "god": 8331,
      "Ġreplaced": 8332,
      "According": 8333,
      "ĠMedic": 8334,
      "Ġnort": 8335,
      "ĠVan": 8336,
      "Ġearned": 8337,
      "ĠThus": 8338,
      "Ġfeaturing": 8339,
      "tivity": 8340,
      "Ġdates": 8341,
      "Ġresearchers": 8342,
      "page": 8343,
      "class": 8344,
      "Ġstreets": 8345,
      "Ġwave": 8346,
      "Ġvete": 8347,
      "Ġresistance": 8348,
      "Ġdesired": 8349,
      "%.": 8350,
      "Ġfounded": 8351,
      "Ġarchitecture": 8352,
      "Ġfasc": 8353,
      "Ġ!": 8354,
      "ĠPrice": 8355,
      "ĠRead": 8356,
      "Ġveter": 8357,
      "paper": 8358,
      "tivel": 8359,
      "Ġtab": 8360,
      "Ġmoder": 8361,
      "arma": 8362,
      "tively": 8363,
      "ĠRest": 8364,
      "Ġsuperi": 8365,
      "ĠIreland": 8366,
      "Ġgovern": 8367,
      "Ġfishing": 8368,
      "Ġcomponent": 8369,
      "Ġvisited": 8370,
      "Ġbenc": 8371,
      "Ġvul": 8372,
      "Ġsuperio": 8373,
      "Ġachieved": 8374,
      "Ġvaca": 8375,
      "ĠWild": 8376,
      "Ġages": 8377,
      "ocked": 8378,
      "ĠCorpora": 8379,
      "ĠConne": 8380,
      "ecade": 8381,
      "decade": 8382,
      "ĠAutho": 8383,
      "Ġmusical": 8384,
      "Ġdisapp": 8385,
      "Ba": 8386,
      "ocati": 8387,
      "Ġol": 8388,
      "Ġsli": 8389,
      "owel": 8390,
      "Ġhidden": 8391,
      "ĠLabo": 8392,
      "Ġreputa": 8393,
      "Ġsomewhere": 8394,
      "Ġreputat": 8395,
      "Ġreputati": 8396,
      "ngle": 8397,
      "Ġtables": 8398,
      "Ġnoise": 8399,
      "Ġreputation": 8400,
      "division": 8401,
      "Ġtrigg": 8402,
      "Ġmis": 8403,
      "ĠEve": 8404,
      "ĠCorporat": 8405,
      "ocation": 8406,
      "ĠBob": 8407,
      "Ġconsistent": 8408,
      "tched": 8409,
      "Ġlessons": 8410,
      "amma": 8411,
      "ĠPass": 8412,
      "Ġpowder": 8413,
      "Ġja": 8414,
      "Ġindex": 8415,
      "Ġvacat": 8416,
      "osure": 8417,
      "Ġremoval": 8418,
      "Ġaffi": 8419,
      "ĠScr": 8420,
      "Ġretain": 8421,
      "Of": 8422,
      "omet": 8423,
      "illiant": 8424,
      "Ġreferred": 8425,
      "Ġinner": 8426,
      "plan": 8427,
      "ĠMen": 8428,
      "Ġrend": 8429,
      "sia": 8430,
      "ĠLast": 8431,
      "eem": 8432,
      "yesterday": 8433,
      "Ġresulting": 8434,
      "talent": 8435,
      "Ġthousand": 8436,
      "intage": 8437,
      "gaged": 8438,
      "dary": 8439,
      "ĠNE": 8440,
      "Ġshift": 8441,
      "Ġframework": 8442,
      "lecting": 8443,
      "Ġcoc": 8444,
      "och": 8445,
      "eph": 8446,
      "Mar": 8447,
      "Ġsolve": 8448,
      "Ġhum": 8449,
      "Ġdemonstrate": 8450,
      "rement": 8451,
      "tile": 8452,
      "ounting": 8453,
      "inclu": 8454,
      "onu": 8455,
      "Ġattitude": 8456,
      "Ġsavings": 8457,
      "ĠCO": 8458,
      "ĠBrit": 8459,
      "Ġassum": 8460,
      "Ġjusti": 8461,
      "Ġsuddenly": 8462,
      "Ġcrucial": 8463,
      "slands": 8464,
      "Ġfin": 8465,
      "lake": 8466,
      "hreate": 8467,
      "Ġjustic": 8468,
      "ocrati": 8469,
      "ĠArmy": 8470,
      "Ġstim": 8471,
      "Ġdemonstr": 8472,
      "Ġreb": 8473,
      "ocated": 8474,
      "Ġinvestigation": 8475,
      "Ġcrisis": 8476,
      "invent": 8477,
      "oupon": 8478,
      "threate": 8479,
      "Ġguidance": 8480,
      "Ġyesterday": 8481,
      "away": 8482,
      "Ġjustice": 8483,
      "Ġformal": 8484,
      "ifications": 8485,
      "alendar": 8486,
      "ĠGeorg": 8487,
      "Ġviolence": 8488,
      "ĠMid": 8489,
      "ĠOlymp": 8490,
      "olice": 8491,
      "ingu": 8492,
      "Ġwhenever": 8493,
      "Ġclassroom": 8494,
      "oral": 8495,
      "Ġtalent": 8496,
      "SC": 8497,
      "Ġtomo": 8498,
      "ius": 8499,
      "ocratic": 8500,
      "Ġopposite": 8501,
      "Ġdecade": 8502,
      "ĠMartin": 8503,
      "Ġattended": 8504,
      "Ġslo": 8505,
      "Ġkm": 8506,
      "cia": 8507,
      "Ġcolle": 8508,
      "Ġadventure": 8509,
      "dad": 8510,
      "tape": 8511,
      "Ġcos": 8512,
      "Ġattrac": 8513,
      "ĠSP": 8514,
      "catal": 8515,
      "Ġhealthcare": 8516,
      "Ġupcoming": 8517,
      "Wi": 8518,
      "ĠFair": 8519,
      "miss": 8520,
      "Ġattract": 8521,
      "Ġexecut": 8522,
      "Ġmonitor": 8523,
      "Tr": 8524,
      "Ġprinted": 8525,
      "Ġprinciples": 8526,
      "ĠEqu": 8527,
      "tla": 8528,
      "ĠAR": 8529,
      "ĠAtt": 8530,
      "ĠReferences": 8531,
      "ĠAT": 8532,
      "vention": 8533,
      "Ġchat": 8534,
      "izz": 8535,
      "iP": 8536,
      "Ġshops": 8537,
      "thema": 8538,
      "cerem": 8539,
      "Ġfeelings": 8540,
      "kes": 8541,
      "ĠIsl": 8542,
      "afr": 8543,
      "ĠDen": 8544,
      "ĠDan": 8545,
      "cont": 8546,
      "Ġelectrical": 8547,
      "agram": 8548,
      "Ġarrive": 8549,
      "Ġpm": 8550,
      "Ġpassword": 8551,
      "Ġpartnership": 8552,
      "ĠRet": 8553,
      "Ġcollaborati": 8554,
      "golf": 8555,
      "Ġrow": 8556,
      "Ġexpand": 8557,
      "saved": 8558,
      "Have": 8559,
      "âĢĭ": 8560,
      "Ġcollaboration": 8561,
      "Ġlinked": 8562,
      "Ġtested": 8563,
      "ĠProp": 8564,
      "Ġcapture": 8565,
      "Ġmonitoring": 8566,
      "Ġdele": 8567,
      "Ġcertificate": 8568,
      "Ġappeal": 8569,
      "Ġyounge": 8570,
      "Ġdur": 8571,
      "Ġboxe": 8572,
      "Ġyounger": 8573,
      "rves": 8574,
      "Ġassume": 8575,
      "Go": 8576,
      "Ġabse": 8577,
      "Ġstructures": 8578,
      "ĠShar": 8579,
      "Ġwriters": 8580,
      "Ġlit": 8581,
      "enar": 8582,
      "sque": 8583,
      "Ġjudg": 8584,
      "orde": 8585,
      "Ġfighting": 8586,
      "Ġstrategi": 8587,
      "gent": 8588,
      "Ġinvited": 8589,
      "Ġdebat": 8590,
      "ngaged": 8591,
      "Ġdefault": 8592,
      "odo": 8593,
      "ĠProte": 8594,
      "ĠCoast": 8595,
      "Ġvacati": 8596,
      "Last": 8597,
      "ĠChief": 8598,
      "Ġexpenses": 8599,
      "ĠBoston": 8600,
      "ĠFund": 8601,
      "ĠConta": 8602,
      "Ġequipped": 8603,
      "Ġdebate": 8604,
      "Ġann": 8605,
      "Ġsuffering": 8606,
      "Ġmagazine": 8607,
      "Ġstrategic": 8608,
      "ĠFar": 8609,
      "cock": 8610,
      "Ġversions": 8611,
      "ĠCost": 8612,
      "Ġdiscipl": 8613,
      "Ġphe": 8614,
      "ĠReport": 8615,
      "imi": 8616,
      "tup": 8617,
      "rthy": 8618,
      "ipal": 8619,
      "rsing": 8620,
      "vo": 8621,
      "Ġinstitut": 8622,
      "Ġbomb": 8623,
      "Ġcampu": 8624,
      "Ġcompen": 8625,
      "Ġrubb": 8626,
      "Ġhistori": 8627,
      "Ã¤": 8628,
      "ĠContac": 8629,
      "Ġsyn": 8630,
      "Ġloves": 8631,
      "Ġongoing": 8632,
      "Ġwidel": 8633,
      "Ġcampus": 8634,
      "Ġwidely": 8635,
      "Ġattractive": 8636,
      "Ġdozen": 8637,
      "Ġimpa": 8638,
      "Ġlosing": 8639,
      "nerated": 8640,
      "ĠContact": 8641,
      "ĠSafe": 8642,
      "yield": 8643,
      "ĠChildren": 8644,
      "aping": 8645,
      "technic": 8646,
      "ĠEnergy": 8647,
      "ĠLiving": 8648,
      "stituti": 8649,
      "Ġurban": 8650,
      "shes": 8651,
      "ulted": 8652,
      "sir": 8653,
      "Ġpromise": 8654,
      "Ġextent": 8655,
      "berry": 8656,
      "Ġcertified": 8657,
      "rical": 8658,
      "rine": 8659,
      "Ġrepresents": 8660,
      "mpti": 8661,
      "Ġreader": 8662,
      "Ġcerem": 8663,
      "ĠCarolina": 8664,
      "nights": 8665,
      "Ġwatched": 8666,
      "ares": 8667,
      "disp": 8668,
      "agues": 8669,
      "pha": 8670,
      "Ġimproving": 8671,
      "Da": 8672,
      "Ġfacts": 8673,
      "Ġchee": 8674,
      "meri": 8675,
      "ashe": 8676,
      "eder": 8677,
      "mption": 8678,
      "Ġadopt": 8679,
      "angle": 8680,
      "Ġcute": 8681,
      "laid": 8682,
      "Ġwoode": 8683,
      "stitution": 8684,
      "enerated": 8685,
      "Ġstir": 8686,
      "Ġtrend": 8687,
      "Ġwooden": 8688,
      "Ġsaved": 8689,
      "ĠUsing": 8690,
      "Ġanticipa": 8691,
      "unio": 8692,
      "Ġdental": 8693,
      "bar": 8694,
      "ski": 8695,
      "Ġfreque": 8696,
      "Mr": 8697,
      "izon": 8698,
      "Ġtrends": 8699,
      "Add": 8700,
      "ĠYet": 8701,
      "Ġ)": 8702,
      "nip": 8703,
      "htt": 8704,
      "PC": 8705,
      "ĠKey": 8706,
      "abet": 8707,
      "Ġdepth": 8708,
      "hia": 8709,
      "ĠZeal": 8710,
      "ĠCur": 8711,
      "Ġgallery": 8712,
      "ĠForce": 8713,
      "Ġguitar": 8714,
      "FL": 8715,
      "elt": 8716,
      "Ġzone": 8717,
      "Ġrig": 8718,
      "covering": 8719,
      "ĠLittle": 8720,
      "tlan": 8721,
      "REE": 8722,
      "Ġperforming": 8723,
      "Ġeggs": 8724,
      "Ġslot": 8725,
      "Ġintroduce": 8726,
      "sky": 8727,
      "Ġtransporta": 8728,
      "Ġtransportat": 8729,
      "Ġpure": 8730,
      "Ġtransportati": 8731,
      "Ġtransportation": 8732,
      "ĠSometimes": 8733,
      "GB": 8734,
      "Ġcounty": 8735,
      "Ġgolf": 8736,
      "Ġrecording": 8737,
      "Ġcommunicate": 8738,
      "UL": 8739,
      "izer": 8740,
      "ĠBible": 8741,
      "Ġsentence": 8742,
      "tie": 8743,
      "Ġshooting": 8744,
      "Ġdisp": 8745,
      "Ġvendor": 8746,
      "Ġportfoli": 8747,
      "Ġegg": 8748,
      "Ġoffices": 8749,
      "Ġpray": 8750,
      "Ġconfigu": 8751,
      "ĠRepublica": 8752,
      "Ġconsidera": 8753,
      "sary": 8754,
      "gypt": 8755,
      "nato": 8756,
      "GE": 8757,
      "ĠFederal": 8758,
      "imer": 8759,
      "Pre": 8760,
      "Ġmanaging": 8761,
      "Ġconsiderat": 8762,
      "Ġentrance": 8763,
      "Ġtradition": 8764,
      "Ġsomewhat": 8765,
      "ĠColumb": 8766,
      "Ġspecta": 8767,
      "Ġvert": 8768,
      "Ġcatal": 8769,
      "Ġwitness": 8770,
      "Ġbonu": 8771,
      "Ġclothing": 8772,
      "engaged": 8773,
      "ĠRepublican": 8774,
      "unior": 8775,
      "Ġwag": 8776,
      "Ġfrust": 8777,
      "Ġsupervi": 8778,
      "ĠAccess": 8779,
      "rab": 8780,
      "Today": 8781,
      "ĠLuc": 8782,
      "Ġtechnic": 8783,
      "Ġprimarily": 8784,
      "Ġmeals": 8785,
      "Ġbonus": 8786,
      "ĠJef": 8787,
      "Co": 8788,
      "ippe": 8789,
      "Ġinch": 8790,
      "Ġbags": 8791,
      "Ġseriously": 8792,
      "rved": 8793,
      "Ġclar": 8794,
      "tank": 8795,
      "Ġauthors": 8796,
      "ĠZeala": 8797,
      "ĠZealan": 8798,
      "ĠImp": 8799,
      "ĠJewish": 8800,
      "fill": 8801,
      "ĠZealand": 8802,
      "zing": 8803,
      "dra": 8804,
      "ĠGuide": 8805,
      "Ġtip": 8806,
      "afraid": 8807,
      "Ġblow": 8808,
      "meric": 8809,
      "eria": 8810,
      "Ġwet": 8811,
      "Ġdirected": 8812,
      "ĠSouthern": 8813,
      "Ġpreparation": 8814,
      "Ġmagic": 8815,
      "ĠPra": 8816,
      "Ġale": 8817,
      "grat": 8818,
      "pan": 8819,
      "Ġstored": 8820,
      "tland": 8821,
      "Even": 8822,
      "Ġremark": 8823,
      "bour": 8824,
      "Ġreporting": 8825,
      "itan": 8826,
      "ĠList": 8827,
      "Ġfiled": 8828,
      "Ġpersons": 8829,
      "ĠGame": 8830,
      "Ġattacks": 8831,
      "Ġconflic": 8832,
      "VD": 8833,
      "Ġconflict": 8834,
      "Ġfollows": 8835,
      "Ġvoter": 8836,
      "Ġmarg": 8837,
      "Ġdumpster": 8838,
      "ĠThea": 8839,
      "Ġyard": 8840,
      "Ġcraft": 8841,
      "nsition": 8842,
      "ansition": 8843,
      "Over": 8844,
      "ĠYa": 8845,
      "Ġultimately": 8846,
      "Ġpin": 8847,
      "Ġmembership": 8848,
      "ĠExecu": 8849,
      "Ġextens": 8850,
      "rma": 8851,
      "hrase": 8852,
      "Ġdynamic": 8853,
      "Ġbirds": 8854,
      "Ġgenuine": 8855,
      "Ġstreng": 8856,
      "Ġhistoric": 8857,
      "nsl": 8858,
      "Ġcommunications": 8859,
      "Ġwealth": 8860,
      "Ġstain": 8861,
      "Ġworst": 8862,
      "Ġhadn": 8863,
      "stream": 8864,
      "Ġmile": 8865,
      "Ġadds": 8866,
      "Ġengaged": 8867,
      "Ġinvestig": 8868,
      "Ġstruggle": 8869,
      "ston": 8870,
      "Ġmistake": 8871,
      "inqu": 8872,
      "ĠAsh": 8873,
      "Ġsevere": 8874,
      "Ġevol": 8875,
      "ĠTal": 8876,
      "generated": 8877,
      "Ġtaxe": 8878,
      "hew": 8879,
      "ĠTim": 8880,
      "Ġtomorrow": 8881,
      "ccu": 8882,
      "Ġtaxes": 8883,
      "thet": 8884,
      "Ġauthorities": 8885,
      "neither": 8886,
      "df": 8887,
      "More": 8888,
      "holders": 8889,
      "Ġgod": 8890,
      "Ġblind": 8891,
      "Ġattorney": 8892,
      "bat": 8893,
      "inity": 8894,
      "Ġreform": 8895,
      "ĠCul": 8896,
      "urna": 8897,
      "Ġforgo": 8898,
      "Ġobserved": 8899,
      "coupon": 8900,
      "Where": 8901,
      "Ġlib": 8902,
      "Ġprotest": 8903,
      "ĠObama": 8904,
      "Sta": 8905,
      "Ġrene": 8906,
      "Ġfitness": 8907,
      "See": 8908,
      "Ġcrack": 8909,
      "Ġmete": 8910,
      "Ġtube": 8911,
      "Ġfolks": 8912,
      "Ġpink": 8913,
      "Ġbird": 8914,
      "ãĢ": 8915,
      "ransition": 8916,
      "Ġcareful": 8917,
      "transition": 8918,
      "Ġextensi": 8919,
      "Ġafraid": 8920,
      "iament": 8921,
      "Ġshut": 8922,
      "Ġextension": 8923,
      "Ġsuperior": 8924,
      "ras": 8925,
      "Ġcarbon": 8926,
      "Ġcompare": 8927,
      "ssionate": 8928,
      "ĠEnv": 8929,
      "Ġinvent": 8930,
      "Ġvacation": 8931,
      "Ġroot": 8932,
      "erman": 8933,
      "ĠMike": 8934,
      "ĠHenry": 8935,
      "Although": 8936,
      "Ġconscious": 8937,
      "Ġyield": 8938,
      "aya": 8939,
      "mmission": 8940,
      "Ġpermanent": 8941,
      "irement": 8942,
      "icals": 8943,
      "Ġmanufacturers": 8944,
      "Ġicon": 8945,
      "Ġoccasi": 8946,
      "Ġincreasingl": 8947,
      "Ġincreasingly": 8948,
      "nut": 8949,
      "roof": 8950,
      "ĠCir": 8951,
      "nnis": 8952,
      "Ġraw": 8953,
      "arly": 8954,
      "Ġarmy": 8955,
      "Ġagricul": 8956,
      "Ġsending": 8957,
      "Ġpredic": 8958,
      "Ġphotography": 8959,
      "Ġfail": 8960,
      "ĠSanta": 8961,
      "Ġmeter": 8962,
      "ĠLive": 8963,
      "Ġescape": 8964,
      "ĠCommon": 8965,
      "Ġseats": 8966,
      "Ġcalcul": 8967,
      "Ġheads": 8968,
      "ald": 8969,
      "Ġpolitics": 8970,
      "Ġsustainable": 8971,
      "Ġwash": 8972,
      "ĠZe": 8973,
      "Ġmemories": 8974,
      "ĠCook": 8975,
      "ncial": 8976,
      "Ġintelligence": 8977,
      "Ġworkshop": 8978,
      "Ġoran": 8979,
      "Ġtransition": 8980,
      "Ġvisible": 8981,
      "Ġdepends": 8982,
      "Ġconsists": 8983,
      "Ġexistence": 8984,
      "censed": 8985,
      "Ġcoupon": 8986,
      "nz": 8987,
      "Ġunderstood": 8988,
      "ĠArab": 8989,
      "tack": 8990,
      "anks": 8991,
      "Ġneither": 8992,
      "Ġmuscle": 8993,
      "Ġchemical": 8994,
      "cob": 8995,
      "edg": 8996,
      "Ġtone": 8997,
      "Ġinjuries": 8998,
      "ayl": 8999,
      "Ġplatforms": 9000,
      "Ġorang": 9001,
      "Ġvictory": 9002,
      "azil": 9003,
      "TC": 9004,
      "Ġconfirmed": 9005,
      "Ġawarded": 9006,
      "Ġrug": 9007,
      "Ġaccord": 9008,
      "hreat": 9009,
      "oaches": 9010,
      "alty": 9011,
      "Ġhighlight": 9012,
      "threat": 9013,
      "erv": 9014,
      "ĠAlexa": 9015,
      "ĠiP": 9016,
      "pre": 9017,
      "Ġamounts": 9018,
      "ATION": 9019,
      "Ġparameter": 9020,
      "Ġregulat": 9021,
      "ĠDC": 9022,
      "Ġpoker": 9023,
      "build": 9024,
      "Click": 9025,
      "Ġprofesso": 9026,
      "haust": 9027,
      "spected": 9028,
      "Ġdrawn": 9029,
      "Ġprofessor": 9030,
      "Ġmining": 9031,
      "orce": 9032,
      "ĠMill": 9033,
      "Ġregions": 9034,
      "Ġattemp": 9035,
      "ĠHospital": 9036,
      "owne": 9037,
      "Ġscenar": 9038,
      "Ġrepeated": 9039,
      "ĠHam": 9040,
      "ĠEgypt": 9041,
      "Ġalive": 9042,
      "Ġlaptop": 9043,
      "profit": 9044,
      "stance": 9045,
      "ivo": 9046,
      "uba": 9047,
      "val": 9048,
      "loose": 9049,
      "ok": 9050,
      "niel": 9051,
      "Ġbac": 9052,
      "ĠYoung": 9053,
      "Ġcontest": 9054,
      "bury": 9055,
      "Ġestimated": 9056,
      "ucto": 9057,
      "ĠSen": 9058,
      "Ġanyway": 9059,
      "Ġalongside": 9060,
      "tum": 9061,
      "rend": 9062,
      "Ġhoping": 9063,
      "Ġhumans": 9064,
      "Ġmillions": 9065,
      "Ġpun": 9066,
      "ĠInf": 9067,
      "Ġuni": 9068,
      "ommission": 9069,
      "Ġhil": 9070,
      "semi": 9071,
      "ĠDie": 9072,
      "ĠSite": 9073,
      "ĠMich": 9074,
      "ĠFOR": 9075,
      "Ġsatisfaction": 9076,
      "Ġultimate": 9077,
      "coat": 9078,
      "Ġurg": 9079,
      "nnel": 9080,
      "gregat": 9081,
      "ĠSir": 9082,
      "ĠArea": 9083,
      "iamond": 9084,
      "vic": 9085,
      "ulou": 9086,
      "Ġoccasion": 9087,
      "Ġlucky": 9088,
      "lb": 9089,
      "plied": 9090,
      "MP": 9091,
      "plicati": 9092,
      "Ġthreat": 9093,
      "ĠLeg": 9094,
      "loving": 9095,
      "Ġforever": 9096,
      "uctor": 9097,
      "Ġillustr": 9098,
      "Also": 9099,
      "ĠOrder": 9100,
      "Ġsn": 9101,
      "Ġmaker": 9102,
      "plication": 9103,
      "Ġliterature": 9104,
      "cky": 9105,
      "Ġcarrying": 9106,
      "Ġwid": 9107,
      "Ġconsiderati": 9108,
      "Ġconsideration": 9109,
      "Americ": 9110,
      "ailable": 9111,
      "sen": 9112,
      "essing": 9113,
      "Ġcovering": 9114,
      "Ġ..": 9115,
      "Ġmarked": 9116,
      "Ġaccomplish": 9117,
      "Ġtack": 9118,
      "commission": 9119,
      "Ġgorgeous": 9120,
      "Ġrecipes": 9121,
      "Ġlaid": 9122,
      "Ġorange": 9123,
      "claim": 9124,
      "ĠLand": 9125,
      "Ġstatu": 9126,
      "Ġfirms": 9127,
      "ĠJohnson": 9128,
      "ourna": 9129,
      "ĠNext": 9130,
      "Ġcommonl": 9131,
      "Ġresc": 9132,
      "ĠFollow": 9133,
      "Ġcommonly": 9134,
      "Ġtape": 9135,
      "Ġsuggests": 9136,
      "ĠKu": 9137,
      "Ġstead": 9138,
      "nking": 9139,
      "sea": 9140,
      "Ġtank": 9141,
      "olt": 9142,
      "ĠPrem": 9143,
      "Ġreduction": 9144,
      "Ġweekl": 9145,
      "Ġweekly": 9146,
      "Ġthreate": 9147,
      "Ġboxes": 9148,
      "AB": 9149,
      "ocol": 9150,
      "Ġloose": 9151,
      "Ġtheat": 9152,
      "Ġvill": 9153,
      "lamp": 9154,
      "rden": 9155,
      "Ġclock": 9156,
      "tourna": 9157,
      "Ġproducing": 9158,
      "Ġdreams": 9159,
      "ridge": 9160,
      "Ġresume": 9161,
      "niza": 9162,
      "Ġargument": 9163,
      "ĠChris": 9164,
      "ĠMS": 9165,
      "uslim": 9166,
      "ĠSuch": 9167,
      "Ġshock": 9168,
      "Ġdriven": 9169,
      "Ġsacr": 9170,
      "rted": 9171,
      "owers": 9172,
      "Ġbone": 9173,
      "flow": 9174,
      "avil": 9175,
      "latter": 9176,
      "Ġhealing": 9177,
      "Ġinvolves": 9178,
      "Ġauthentic": 9179,
      "America": 9180,
      "Ġroles": 9181,
      "Ġnaturally": 9182,
      "Ġtreatments": 9183,
      "uling": 9184,
      "Ġconnections": 9185,
      "ĠBat": 9186,
      "LY": 9187,
      "Ġhate": 9188,
      "Ġenables": 9189,
      "lder": 9190,
      "Ġsme": 9191,
      "Ġentit": 9192,
      "Ġprinting": 9193,
      "ucts": 9194,
      "Ġcrazy": 9195,
      "Ġaccessories": 9196,
      "trim": 9197,
      "Ġwarning": 9198,
      "nsm": 9199,
      "Ġindustries": 9200,
      "entially": 9201,
      "ĠKen": 9202,
      "Ġmoves": 9203,
      "ĠDivision": 9204,
      "Bo": 9205,
      "Ġaddi": 9206,
      "ĠView": 9207,
      "Ġconcerning": 9208,
      "ographi": 9209,
      "Ġcalculat": 9210,
      "ulous": 9211,
      "Ġlatter": 9212,
      "eding": 9213,
      "Ġexpla": 9214,
      "verse": 9215,
      "ĠIran": 9216,
      "Ġfestival": 9217,
      "Ġfinance": 9218,
      "ĠHand": 9219,
      "Ġtourna": 9220,
      "zero": 9221,
      "ographic": 9222,
      "Ġplanet": 9223,
      "Ġintroduction": 9224,
      "agg": 9225,
      "Ġsplit": 9226,
      "During": 9227,
      "Ġdrinking": 9228,
      "nizat": 9229,
      "Ġapproval": 9230,
      "Ġfilling": 9231,
      "Ġpace": 9232,
      "Ġunu": 9233,
      "ĠAven": 9234,
      "Ġlake": 9235,
      "nizati": 9236,
      "rists": 9237,
      "Ġblocks": 9238,
      "ido": 9239,
      "Ġtracks": 9240,
      "Ġsemi": 9241,
      "Ġvegetables": 9242,
      "ĠCR": 9243,
      "nization": 9244,
      "itory": 9245,
      "Ġlies": 9246,
      "amental": 9247,
      "Ġdisplayed": 9248,
      "inum": 9249,
      "Ġinterpret": 9250,
      "Ġlabel": 9251,
      "ĠBritain": 9252,
      "ĠPacific": 9253,
      "Note": 9254,
      "Ġtalked": 9255,
      "ĠAbout": 9256,
      "ĠSky": 9257,
      "Mo": 9258,
      "ador": 9259,
      "Ġdebu": 9260,
      "lets": 9261,
      "ĠGreek": 9262,
      "Ġnewl": 9263,
      "Ġsoph": 9264,
      "Ġcontrolled": 9265,
      "Ġnewly": 9266,
      "Ġreducing": 9267,
      "Ġtransac": 9268,
      "stitu": 9269,
      "Ġille": 9270,
      "Ġstuck": 9271,
      "ansm": 9272,
      "Ġproven": 9273,
      "ulta": 9274,
      "ĠIntel": 9275,
      "owner": 9276,
      "ĠSystems": 9277,
      "Ġvuln": 9278,
      "Ġacts": 9279,
      "Ġspecialist": 9280,
      "istan": 9281,
      "Ġmagne": 9282,
      "unter": 9283,
      "Ġhotels": 9284,
      "Ġcategories": 9285,
      "expected": 9286,
      "Ġstatements": 9287,
      "hange": 9288,
      "Ġfaces": 9289,
      "Ġbrilliant": 9290,
      "Ġvulne": 9291,
      "Ġpresents": 9292,
      "ĠHim": 9293,
      "ĠHard": 9294,
      "Ġarray": 9295,
      "Ġaw": 9296,
      "ĠSti": 9297,
      "ĠPersonal": 9298,
      "Ġinsight": 9299,
      "âĢĺ": 9300,
      "ndy": 9301,
      "Ġindepend": 9302,
      "igured": 9303,
      "lance": 9304,
      "Ġavailability": 9305,
      "Ġpreferred": 9306,
      "Ġprom": 9307,
      "Ġpercentage": 9308,
      "asing": 9309,
      "Ġmanagers": 9310,
      "ĠPenn": 9311,
      "ĠFrancisco": 9312,
      "Ġgenerated": 9313,
      "cano": 9314,
      "turning": 9315,
      "lips": 9316,
      "Ġbars": 9317,
      "onde": 9318,
      "Po": 9319,
      "Ġadapt": 9320,
      "Ġimpe": 9321,
      "Ġscholar": 9322,
      "Ġhandling": 9323,
      "Ġreno": 9324,
      "ĠPur": 9325,
      "Ġhospit": 9326,
      "Ġdefinition": 9327,
      "Ġlikes": 9328,
      "ĠSect": 9329,
      "Ġcausing": 9330,
      "Ġchest": 9331,
      "unic": 9332,
      "ĠEss": 9333,
      "Ġcarpe": 9334,
      "ĠNorthern": 9335,
      "surance": 9336,
      "ĠTerm": 9337,
      "imp": 9338,
      "Ġoverwhe": 9339,
      "Ġoccurred": 9340,
      "Ġnarr": 9341,
      "Ġpocket": 9342,
      "Ġeditor": 9343,
      "ĠSar": 9344,
[...]
