{
  "version": "1.0",
  "truncation": null,
  "padding": null,
  "added_tokens": [
    {
      "id": 0,
      "content": "<unk>",
      "single_word": false,
      "lstrip": false,
      "rstrip": false,
      "normalized": false,
      "special": true
    },
    {
      "id": 1,
      "content": "<s>",
      "single_word": false,
      "lstrip": false,
      "rstrip": false,
      "normalized": false,
      "special": true
    },
    {
      "id": 2,
      "content": "</s>",
      "single_word": false,
      "lstrip": false,
      "rstrip": false,
      "normalized": false,
      "special": true
    }
  ],
  "normalizer": {
    "type": "Sequence",
    "normalizers": [
      {
        "type": "NFKC"
      }
    ]
  },
  "pre_tokenizer": {
    "type": "Sequence",
    "pretokenizers": [
      {
        "type": "Split",
        "pattern": {
          "Regex": " "
        },
        "behavior": "MergedWithNext",
        "invert": false
      },
      {
        "type": "Split",
        "pattern": {
          "Regex": "\\d|[\\u2E80-\\u2FDF\\u3040-\\u318F\\u31A0-\\u31BF\\u31F0-\\u31FF\\u3400-\\u4DB5\\u4E00-\\u9FFF\\uA960-\\uA97F\\uAC00-\\uD7FF]"
        },
        "behavior": "Isolated",
        "invert": false
      },
      {
        "type": "Split",
        "pattern": {
          "Regex": " *(\\w+|[^\\w\\s]+)"
        },
        "behavior": "Isolated",
        "invert": false
      },
      {
        "type": "ByteLevel",
        "add_prefix_space": false,
        "trim_offsets": true,
        "use_regex": false
      }
    ]
  },
  "post_processor": null,
  "decoder": {
    "type": "Sequence",
    "decoders": [
      {
        "type": "ByteLevel",
        "add_prefix_space": true,
        "trim_offsets": true,
        "use_regex": true
      }
    ]
  },
  "model": {
    "type": "BPE",
    "dropout": null,
    "unk_token": "<unk>",
    "continuing_subword_prefix": null,
    "end_of_word_suffix": null,
    "fuse_unk": true,
    "byte_fallback": false,
    "ignore_merges": false,
    "vocab": {
      "<unk>": 0,
      "<s>": 1,
      "</s>": 2,
      "<0x00>": 3,
      "<0x01>": 4,
      "<0x02>": 5,
      "<0x03>": 6,
      "<0x04>": 7,
      "<0x05>": 8,
      "<0x06>": 9,
      "<0x07>": 10,
      "<0x08>": 11,
      "<0x09>": 12,
      "<0x0A>": 13,
      "<0x0B>": 14,
      "<0x0C>": 15,
      "<0x0D>": 16,
      "<0x0E>": 17,
      "<0x0F>": 18,
      "<0x10>": 19,
      "<0x11>": 20,
      "<0x12>": 21,
      "<0x13>": 22,
      "<0x14>": 23,
      "<0x15>": 24,
      "<0x16>": 25,
      "<0x17>": 26,
      "<0x18>": 27,
      "<0x19>": 28,
      "<0x1A>": 29,
      "<0x1B>": 30,
      "<0x1C>": 31,
      "<0x1D>": 32,
      "<0x1E>": 33,
      "<0x1F>": 34,
      "<0x20>": 35,
      "<0x21>": 36,
      "<0x22>": 37,
      "<0x23>": 38,
      "<0x24>": 39,
      "<0x25>": 40,
      "<0x26>": 41,
      "<0x27>": 42,
      "<0x28>": 43,
      "<0x29>": 44,
      "<0x2A>": 45,
      "<0x2B>": 46,
      "<0x2C>": 47,
      "<0x2D>": 48,
      "<0x2E>": 49,
      "<0x2F>": 50,
      "<0x30>": 51,
      "<0x31>": 52,
      "<0x32>": 53,
      "<0x33>": 54,
      "<0x34>": 55,
      "<0x35>": 56,
      "<0x36>": 57,
      "<0x37>": 58,
      "<0x38>": 59,
      "<0x39>": 60,
      "<0x3A>": 61,
      "<0x3B>": 62,
      "<0x3C>": 63,
      "<0x3D>": 64,
      "<0x3E>": 65,
      "<0x3F>": 66,
      "<0x40>": 67,
      "<0x41>": 68,
      "<0x42>": 69,
      "<0x43>": 70,
      "<0x44>": 71,
      "<0x45>": 72,
      "<0x46>": 73,
      "<0x47>": 74,
      "<0x48>": 75,
      "<0x49>": 76,
      "<0x4A>": 77,
      "<0x4B>": 78,
      "<0x4C>": 79,
      "<0x4D>": 80,
      "<0x4E>": 81,
      "<0x4F>": 82,
      "<0x50>": 83,
      "<0x51>": 84,
      "<0x52>": 85,
      "<0x53>": 86,
      "<0x54>": 87,
      "<0x55>": 88,
      "<0x56>": 89,
      "<0x57>": 90,
      "<0x58>": 91,
      "<0x59>": 92,
      "<0x5A>": 93,
      "<0x5B>": 94,
      "<0x5C>": 95,
      "<0x5D>": 96,
      "<0x5E>": 97,
      "<0x5F>": 98,
      "<0x60>": 99,
      "<0x61>": 100,
      "<0x62>": 101,
      "<0x63>": 102,
      "<0x64>": 103,
      "<0x65>": 104,
      "<0x66>": 105,
      "<0x67>": 106,
      "<0x68>": 107,
      "<0x69>": 108,
      "<0x6A>": 109,
      "<0x6B>": 110,
      "<0x6C>": 111,
      "<0x6D>": 112,
      "<0x6E>": 113,
      "<0x6F>": 114,
      "<0x70>": 115,
      "<0x71>": 116,
      "<0x72>": 117,
      "<0x73>": 118,
      "<0x74>": 119,
      "<0x75>": 120,
      "<0x76>": 121,
      "<0x77>": 122,
      "<0x78>": 123,
      "<0x79>": 124,
      "<0x7A>": 125,
      "<0x7B>": 126,
      "<0x7C>": 127,
      "<0x7D>": 128,
      "<0x7E>": 129,
      "<0x7F>": 130,
      "<0x80>": 131,
      "<0x81>": 132,
      "<0x82>": 133,
      "<0x83>": 134,
      "<0x84>": 135,
      "<0x85>": 136,
      "<0x86>": 137,
      "<0x87>": 138,
      "<0x88>": 139,
      "<0x89>": 140,
      "<0x8A>": 141,
      "<0x8B>": 142,
      "<0x8C>": 143,
      "<0x8D>": 144,
      "<0x8E>": 145,
      "<0x8F>": 146,
      "<0x90>": 147,
      "<0x91>": 148,
      "<0x92>": 149,
      "<0x93>": 150,
      "<0x94>": 151,
      "<0x95>": 152,
      "<0x96>": 153,
      "<0x97>": 154,
      "<0x98>": 155,
      "<0x99>": 156,
      "<0x9A>": 157,
      "<0x9B>": 158,
      "<0x9C>": 159,
      "<0x9D>": 160,
      "<0x9E>": 161,
      "<0x9F>": 162,
      "<0xA0>": 163,
      "<0xA1>": 164,
      "<0xA2>": 165,
      "<0xA3>": 166,
      "<0xA4>": 167,
      "<0xA5>": 168,
      "<0xA6>": 169,
      "<0xA7>": 170,
      "<0xA8>": 171,
      "<0xA9>": 172,
      "<0xAA>": 173,
      "<0xAB>": 174,
      "<0xAC>": 175,
      "<0xAD>": 176,
      "<0xAE>": 177,
      "<0xAF>": 178,
      "<0xB0>": 179,
      "<0xB1>": 180,
      "<0xB2>": 181,
      "<0xB3>": 182,
      "<0xB4>": 183,
      "<0xB5>": 184,
      "<0xB6>": 185,
      "<0xB7>": 186,
      "<0xB8>": 187,
      "<0xB9>": 188,
      "<0xBA>": 189,
      "<0xBB>": 190,
      "<0xBC>": 191,
      "<0xBD>": 192,
      "<0xBE>": 193,
      "<0xBF>": 194,
      "<0xC0>": 195,
      "<0xC1>": 196,
      "<0xC2>": 197,
      "<0xC3>": 198,
      "<0xC4>": 199,
      "<0xC5>": 200,
      "<0xC6>": 201,
      "<0xC7>": 202,
      "<0xC8>": 203,
      "<0xC9>": 204,
      "<0xCA>": 205,
      "<0xCB>": 206,
      "<0xCC>": 207,
      "<0xCD>": 208,
      "<0xCE>": 209,
      "<0xCF>": 210,
      "<0xD0>": 211,
      "<0xD1>": 212,
      "<0xD2>": 213,
      "<0xD3>": 214,
      "<0xD4>": 215,
      "<0xD5>": 216,
      "<0xD6>": 217,
      "<0xD7>": 218,
      "<0xD8>": 219,
      "<0xD9>": 220,
      "<0xDA>": 221,
      "<0xDB>": 222,
      "<0xDC>": 223,
      "<0xDD>": 224,
      "<0xDE>": 225,
      "<0xDF>": 226,
      "<0xE0>": 227,
      "<0xE1>": 228,
      "<0xE2>": 229,
      "<0xE3>": 230,
      "<0xE4>": 231,
      "<0xE5>": 232,
      "<0xE6>": 233,
      "<0xE7>": 234,
      "<0xE8>": 235,
      "<0xE9>": 236,
      "<0xEA>": 237,
      "<0xEB>": 238,
      "<0xEC>": 239,
      "<0xED>": 240,
      "<0xEE>": 241,
      "<0xEF>": 242,
      "<0xF0>": 243,
      "<0xF1>": 244,
      "<0xF2>": 245,
      "<0xF3>": 246,
      "<0xF4>": 247,
      "<0xF5>": 248,
      "<0xF6>": 249,
      "<0xF7>": 250,
      "<0xF8>": 251,
      "<0xF9>": 252,
      "<0xFA>": 253,
      "<0xFB>": 254,
      "<0xFC>": 255,
      "<0xFD>": 256,
      "<0xFE>": 257,
      "<0xFF>": 258,
      "!": 259,
      "\"": 260,
      "#": 261,
      "$": 262,
      "%": 263,
      "&": 264,
      "'": 265,
      "(": 266,
      ")": 267,
      "*": 268,
      "+": 269,
      ",": 270,
      "-": 271,
      ".": 272,
      "/": 273,
      "0": 274,
      "1": 275,
      "2": 276,
      "3": 277,
      "4": 278,
      "5": 279,
      "6": 280,
      "7": 281,
      "8": 282,
      "9": 283,
      ":": 284,
      ";": 285,
      "<": 286,
      "=": 287,
      ">": 288,
      "?": 289,
      "@": 290,
      "A": 291,
      "B": 292,
      "C": 293,
      "D": 294,
      "E": 295,
      "F": 296,
      "G": 297,
      "H": 298,
      "I": 299,
      "J": 300,
      "K": 301,
      "L": 302,
      "M": 303,
      "N": 304,
      "O": 305,
      "P": 306,
      "Q": 307,
      "R": 308,
      "S": 309,
      "T": 310,
      "U": 311,
      "V": 312,
      "W": 313,
      "X": 314,
      "Y": 315,
      "Z": 316,
      "[": 317,
      "\\": 318,
      "]": 319,
      "^": 320,
      "_": 321,
      "`": 322,
      "a": 323,
      "b": 324,
      "c": 325,
      "d": 326,
      "e": 327,
      "f": 328,
      "g": 329,
      "h": 330,
      "i": 331,
      "j": 332,
      "k": 333,
      "l": 334,
      "m": 335,
      "n": 336,
      "o": 337,
      "p": 338,
      "q": 339,
      "r": 340,
      "s": 341,
      "t": 342,
      "u": 343,
      "v": 344,
      "w": 345,
      "x": 346,
      "y": 347,
      "z": 348,
      "{": 349,
      "|": 350,
      "}": 351,
      "~": 352,
      "¡": 353,
      "¢": 354,
      "£": 355,
      "¤": 356,
      "¥": 357,
      "¦": 358,
      "§": 359,
      "¨": 360,
      "©": 361,
      "ª": 362,
      "«": 363,
      "¬": 364,
      "®": 365,
      "¯": 366,
      "°": 367,
      "±": 368,
      "²": 369,
      "³": 370,
      "´": 371,
      "µ": 372,
      "¶": 373,
      "·": 374,
      "¸": 375,
      "¹": 376,
      "º": 377,
      "»": 378,
      "¼": 379,
      "½": 380,
      "¾": 381,
      "¿": 382,
      "À": 383,
      "Á": 384,
      "Â": 385,
      "Ã": 386,
      "Ä": 387,
      "Å": 388,
      "Æ": 389,
      "Ç": 390,
      "È": 391,
      "É": 392,
      "Ê": 393,
      "Ë": 394,
      "Ì": 395,
      "Í": 396,
      "Î": 397,
      "Ï": 398,
      "Ð": 399,
      "Ñ": 400,
      "Ò": 401,
      "Ó": 402,
      "Ô": 403,
      "Õ": 404,
      "Ö": 405,
      "×": 406,
      "Ø": 407,
      "Ù": 408,
      "Ú": 409,
      "Û": 410,
      "Ü": 411,
      "Ý": 412,
      "Þ": 413,
      "ß": 414,
      "à": 415,
      "á": 416,
      "â": 417,
      "ã": 418,
      "ä": 419,
      "å": 420,
      "æ": 421,
      "ç": 422,
      "è": 423,
      "é": 424,
      "ê": 425,
      "ë": 426,
      "ì": 427,
      "í": 428,
      "î": 429,
      "ï": 430,
      "ð": 431,
      "ñ": 432,
      "ò": 433,
      "ó": 434,
      "ô": 435,
      "õ": 436,
      "ö": 437,
      "÷": 438,
      "ø": 439,
      "ù": 440,
      "ú": 441,
      "û": 442,
      "ü": 443,
      "ý": 444,
      "þ": 445,
      "ÿ": 446,
      "Ā": 447,
      "ā": 448,
      "Ă": 449,
      "ă": 450,
      "Ą": 451,
      "ą": 452,
      "Ć": 453,
      "ć": 454,
      "Ĉ": 455,
      "ĉ": 456,
      "Ċ": 457,
      "ċ": 458,
      "Č": 459,
      "č": 460,
      "Ď": 461,
      "ď": 462,
      "Đ": 463,
      "đ": 464,
      "Ē": 465,
      "ē": 466,
      "Ĕ": 467,
      "ĕ": 468,
      "Ė": 469,
      "ė": 470,
      "Ę": 471,
      "ę": 472,
      "Ě": 473,
      "ě": 474,
      "Ĝ": 475,
      "ĝ": 476,
      "Ğ": 477,
      "ğ": 478,
      "Ġ": 479,
      "ġ": 480,
      "Ģ": 481,
      "ģ": 482,
      "Ĥ": 483,
      "ĥ": 484,
      "Ħ": 485,
      "ħ": 486,
      "Ĩ": 487,
      "ĩ": 488,
      "Ī": 489,
      "ī": 490,
      "Ĭ": 491,
      "ĭ": 492,
      "Į": 493,
      "į": 494,
      "İ": 495,
      "ı": 496,
      "Ĳ": 497,
      "ĳ": 498,
      "Ĵ": 499,
      "ĵ": 500,
      "Ķ": 501,
      "ķ": 502,
      "ĸ": 503,
      "Ĺ": 504,
      "ĺ": 505,
      "Ļ": 506,
      "ļ": 507,
      "Ľ": 508,
      "ľ": 509,
      "Ŀ": 510,
      "ŀ": 511,
      "Ł": 512,
      "ł": 513,
      "Ń": 514,
      "ss": 515,
      "rt": 516,
      "un": 517,
      "ĠI": 518,
      "ie": 519,
      "ow": 520,
      "ad": 521,
      "so": 522,
      "wa": 523,
      "âĢ": 524,
      "ĠT": 525,
      "em": 526,
      "nc": 527,
      "it": 528,
      "id": 529,
      "ol": 530,
      "ul": 531,
      "na": 532,
      "ĠS": 533,
      "pa": 534,
      "ke": 535,
      "st": 536,
      "pl": 537,
      "sh": 538,
      "ir": 539,
      "im": 540,
      "wh": 541,
      "we": 542,
      "ig": 543,
      "am": 544,
      "ĠA": 545,
      "ith": 546,
      "ĠC": 547,
      "iv": 548,
      "oo": 549,
      "Ġwh": 550,
      "no": 551,
      "Ġwa": 552,
      "po": 553,
      "Ġst": 554,
      "mo": 555,
      "ia": 556,
      "with": 557,
      "ry": 558,
      "Ġwith": 559,
      "Ġf": 560,
      "Ġfo": 561,
      "Ġfor": 562,
      "av": 563,
      "ts": 564,
      "Ġb": 565,
      "ev": 566,
      "ab": 567,
      "Ġit": 568,
      "Ġwe": 569,
      "ĠTh": 570,
      "ay": 571,
      "su": 572,
      "wo": 573,
      "ai": 574,
      "ĠM": 575,
      "ess": 576,
      "ed": 577,
      "čĊ": 578,
      "Ġmo": 579,
      "ni": 580,
      "Ġp": 581,
      "Ġpr": 582,
      "Ġso": 583,
      "Ġpro": 584,
      "he": 585,
      "her": 586,
      "Ġu": 587,
      "ive": 588,
      "ex": 589,
      "nce": 590,
      "in": 591,
      "ĠP": 592,
      "ĠB": 593,
      "rd": 594,
      "âĢĻ": 595,
      "est": 596,
      "Ġfr": 597,
      "Ġv": 598,
      "ag": 599,
      "eve": 600,
      "if": 601,
      "op": 602,
      "Ġno": 603,
      "ck": 604,
      "ther": 605,
      "ave": 606,
      "Ġpa": 607,
      "Ġwo": 608,
      "ĠW": 609,
      "ar": 610,
      "are": 611,
      "Ġare": 612,
      "ap": 613,
      "gr": 614,
      "Ġhe": 615,
      "re": 616,
      "Ġre": 617,
      "ĠThe": 618,
      "ĠH": 619,
      "ov": 620,
      "Ġsu": 621,
      "tu": 622,
      "Ġsh": 623,
      "do": 624,
      "ide": 625,
      "ted": 626,
      "ear": 627,
      "Ġwas": 628,
      "igh": 629,
      "ĠD": 630,
      "Ġex": 631,
      "Ġbu": 632,
      "tt": 633,
      "int": 634,
      "ĠF": 635,
      "the": 636,
      "qu": 637,
      "ist": 638,
      "ha": 639,
      "tha": 640,
      "Ġtha": 641,
      "Ġthat": 642,
      "ĠR": 643,
      "fe": 644,
      "ing": 645,
      "Ġfro": 646,
      "uc": 647,
      "sc": 648,
      "Ġha": 649,
      "ity": 650,
      "Ġdo": 651,
      "Ġ(": 652,
      "have": 653,
      "Ġpe": 654,
      "und": 655,
      "Ġhave": 656,
      "ove": 657,
      "cl": 658,
      "ĠL": 659,
      "Ġfrom": 660,
      "ug": 661,
      "ny": 662,
      "ies": 663,
      "nal": 664,
      "ain": 665,
      "sp": 666,
      "ust": 667,
      "ve": 668,
      "ĠG": 669,
      "Ġby": 670,
      "um": 671,
      "Ġnot": 672,
      "ĠE": 673,
      "ine": 674,
      "sa": 675,
      "ĠN": 676,
      "Ġus": 677,
      "le": 678,
      "ind": 679,
      "ake": 680,
      "ple": 681,
      "rm": 682,
      "uld": 683,
      "Ġint": 684,
      "ls": 685,
      "ight": 686,
      "Ġpo": 687,
      "nts": 688,
      "lu": 689,
      "ld": 690,
      "ĠO": 691,
      "Ġgr": 692,
      "Ġab": 693,
      "ime": 694,
      "Ġh": 695,
      "ugh": 696,
      "red": 697,
      "rn": 698,
      "Ġpl": 699,
      "nin": 700,
      "age": 701,
      "ite": 702,
      "ial": 703,
      "ew": 704,
      "od": 705,
      "ast": 706,
      "Ġba": 707,
      "own": 708,
      "any": 709,
      "Ġk": 710,
      "ĠâĢ": 711,
      "ep": 712,
      "Ġcl": 713,
      "ning": 714,
      "au": 715,
      "ting": 716,
      "Ġj": 717,
      "rk": 718,
      "mi": 719,
      "ef": 720,
      "art": 721,
      "ip": 722,
      "ib": 723,
      "go": 724,
      "rea": 725,
      "Ġle": 726,
      "oc": 727,
      "Ġwhe": 728,
      "Ġwhi": 729,
      "Ġho": 730,
      "ring": 731,
      "Ġeve": 732,
      "ĠJ": 733,
      "os": 734,
      "cu": 735,
      "ook": 736,
      "Ġad": 737,
      "se": 738,
      "Ġse": 739,
      "Ġm": 740,
      "Ġme": 741,
      "Ġma": 742,
      "Ġo": 743,
      "Ġon": 744,
      "Ġor": 745,
      "Ġou": 746,
      "spe": 747,
      "iti": 748,
      "ft": 749,
      "time": 750,
      "Ġhas": 751,
      "low": 752,
      "hing": 753,
      "on": 754,
      "con": 755,
      "Ġcon": 756,
      "ons": 757,
      "ions": 758,
      "tions": 759,
      "eme": 760,
      "ough": 761,
      "Ġbut": 762,
      "ame": 763,
      "port": 764,
      "inc": 765,
      "Ġsa": 766,
      "Ġper": 767,
      "The": 768,
      "Ġher": 769,
      "ĠIn": 770,
      "Ġone": 771,
      "their": 772,
      "Ġtheir": 773,
      "they": 774,
      "ard": 775,
      "Ġthey": 776,
      "Ġout": 777,
      "Ġup": 778,
      "ood": 779,
      "ff": 780,
      "Ġhi": 781,
      "able": 782,
      "og": 783,
      "Ġmore": 784,
      "Ġmy": 785,
      "Ġour": 786,
      "Ġsom": 787,
      "ike": 788,
      "Ġsome": 789,
      "Ġim": 790,
      "Ġhis": 791,
      "ĠU": 792,
      "cha": 793,
      "now": 794,
      "ture": 795,
      "over": 796,
      "oun": 797,
      "cc": 798,
      "dr": 799,
      "Ġcont": 800,
      "onal": 801,
      "hr": 802,
      "tive": 803,
      "Ġun": 804,
      "ren": 805,
      "Ġtime": 806,
      "Ġfa": 807,
      "lt": 808,
      "Ġgo": 809,
      "ue": 810,
      "mm": 811,
      "ong": 812,
      "cr": 813,
      "Ġwhic": 814,
      "Ġwhich": 815,
      "eed": 816,
      "da": 817,
      "Ġabo": 818,
      "ass": 819,
      "led": 820,
      "one": 821,
      "rv": 822,
      "Ġabou": 823,
      "Ġabout": 824,
      "Ġap": 825,
      "Ġsc": 826,
      "tte": 827,
      "ould": 828,
      "ade": 829,
      "ore": 830,
      "lso": 831,
      "Ġinc": 832,
      "Ġ\"": 833,
      "like": 834,
      "Ġve": 835,
      "Ġqu": 836,
      "ire": 837,
      "ty": 838,
      "ga": 839,
      "orm": 840,
      "Ġop": 841,
      "Ġpla": 842,
      "ĠY": 843,
      "ance": 844,
      "Ġhad": 845,
      "Ġinte": 846,
      "Ġfi": 847,
      "hem": 848,
      "sed": 849,
      "ĠK": 850,
      "Ġrec": 851,
      "thing": 852,
      "Ġother": 853,
      "Ġany": 854,
      "also": 855,
      "ud": 856,
      "..": 857,
      "Ġalso": 858,
      "Ġbo": 859,
      "Ġwork": 860,
      "Ġpu": 861,
      "Ġlike": 862,
      "Ġrea": 863,
      "year": 864,
      "nt": 865,
      "ent": 866,
      "ant": 867,
      "ment": 868,
      "ling": 869,
      "old": 870,
      "omm": 871,
      "ree": 872,
      "new": 873,
      "ional": 874,
      "Ġther": 875,
      "Ġfe": 876,
      "Ġwho": 877,
      "them": 878,
      "side": 879,
      "ated": 880,
      "ĠIt": 881,
      "iz": 882,
      "sy": 883,
      "Ġpart": 884,
      "spec": 885,
      "al": 886,
      "all": 887,
      "Ġall": 888,
      "Ġal": 889,
      "cal": 890,
      "ral": 891,
      "ally": 892,
      "form": 893,
      "ĠSt": 894,
      "ĠHe": 895,
      "Ġyear": 896,
      "day": 897,
      "Ġthem": 898,
      "ĠV": 899,
      "Ġwere": 900,
      "fte": 901,
      "sk": 902,
      "Ġpre": 903,
      "rc": 904,
      "ase": 905,
      "son": 906,
      "Ġwhen": 907,
      "Ġar": 908,
      "Ġexp": 909,
      "ose": 910,
      "Ġwha": 911,
      "ys": 912,
      "Ġsta": 913,
      "Ġwould": 914,
      "Ġwhat": 915,
      "ert": 916,
      "ail": 917,
      "Ġif": 918,
      "Ġbr": 919,
      "Ġmi": 920,
      "ish": 921,
      "Ġnew": 922,
      "Ġonl": 923,
      "Ġdr": 924,
      "king": 925,
      "Ġover": 926,
      "ound": 927,
      "ding": 928,
      "Ġthere": 929,
      "ign": 930,
      "need": 931,
      "acc": 932,
      "bl": 933,
      "Ġneed": 934,
      "Ġmake": 935,
      "ĠWe": 936,
      "thr": 937,
      "âĢĿ": 938,
      "rie": 939,
      "Ġna": 940,
      "Ġuse": 941,
      "ort": 942,
      "ild": 943,
      "Ġcha": 944,
      "che": 945,
      "Ġthan": 946,
      "ack": 947,
      "ement": 948,
      "as": 949,
      "Ġas": 950,
      "Ġres": 951,
      "Ġacc": 952,
      "Ġinto": 953,
      "ary": 954,
      "up": 955,
      "lec": 956,
      "ob": 957,
      "sm": 958,
      "ick": 959,
      "ian": 960,
      "ina": 961,
      "rg": 962,
      "ds": 963,
      "ations": 964,
      "Ġjust": 965,
      "ffe": 966,
      "Ġstr": 967,
      "ey": 968,
      "ever": 969,
      "Ġthr": 970,
      "Ġfir": 971,
      "Ġhow": 972,
      "ĠYo": 973,
      "duc": 974,
      "emb": 975,
      "mpa": 976,
      "ord": 977,
      "lp": 978,
      "lf": 979,
      "Ġsee": 980,
      "Ġag": 981,
      "Ġam": 982,
      "sl": 983,
      "ompa": 984,
      "ical": 985,
      "Ġshe": 986,
      "ents": 987,
      "ĠâĢľ": 988,
      "Ġcr": 989,
      "col": 990,
      "ople": 991,
      "two": 992,
      "Ġits": 993,
      "ount": 994,
      "ci": 995,
      "mp": 996,
      "ĠRe": 997,
      "ked": 998,
      "sing": 999,
      "oy": 1000,
      "comm": 1001,
      "rent": 1002,
      "ink": 1003,
      "Ġsup": 1004,
      "les": 1005,
      "rvi": 1006,
      "ĠPr": 1007,
      "ĠThi": 1008,
      "Ġwel": 1009,
      "Ġmay": 1010,
      "ĠThis": 1011,
      "Ġprov": 1012,
      "cau": 1013,
      "rr": 1014,
      "sit": 1015,
      "fter": 1016,
      "Ġexpe": 1017,
      "tional": 1018,
      "Ġda": 1019,
      "ool": 1020,
      ").": 1021,
      "Ġcomm": 1022,
      "tter": 1023,
      "Ġknow": 1024,
      "Ġhelp": 1025,
      "ise": 1026,
      "cul": 1027,
      "rse": 1028,
      "Ġday": 1029,
      "Ġapp": 1030,
      "unde": 1031,
      "rvic": 1032,
      "Ġpeople": 1033,
      "Ġonly": 1034,
      "ory": 1035,
      "evel": 1036,
      "rvice": 1037,
      "Ġind": 1038,
      "alt": 1039,
      "gu": 1040,
      "Ġmost": 1041,
      "rest": 1042,
      "Ġcol": 1043,
      "arg": 1044,
      "Ġthrough": 1045,
      "Ġcu": 1046,
      "Ġfirst": 1047,
      "take": 1048,
      "Ġreal": 1049,
      "ĠAn": 1050,
      "Ġoff": 1051,
      "ĠSe": 1052,
      "uch": 1053,
      "ĠYou": 1054,
      "Ġvi": 1055,
      "ition": 1056,
      "Ġtake": 1057,
      "look": 1058,
      "lle": 1059,
      "reat": 1060,
      "Ġgre": 1061,
      "use": 1062,
      "je": 1063,
      "Ġwell": 1064,
      "Ġinclu": 1065,
      "Ġ-": 1066,
      "pon": 1067,
      "ost": 1068,
      "under": 1069,
      "Ġproduc": 1070,
      "itt": 1071,
      "ded": 1072,
      "Ġevery": 1073,
      "Ġback": 1074,
      "ĠâĢĵ": 1075,
      "Ġwor": 1076,
      "embe": 1077,
      "dif": 1078,
      "tc": 1079,
      "Ġfl": 1080,
      "Ġrel": 1081,
      "cause": 1082,
      "sign": 1083,
      "compa": 1084,
      "these": 1085,
      "Ġlook": 1086,
      "nds": 1087,
      "Ġcompa": 1088,
      "ĠDe": 1089,
      "rem": 1090,
      "jec": 1091,
      "Ġthese": 1092,
      "ull": 1093,
      "iver": 1094,
      "Ġbl": 1095,
      "could": 1096,
      "aw": 1097,
      "nu": 1098,
      "ember": 1099,
      "Ġcould": 1100,
      "ife": 1101,
      "ries": 1102,
      "Ġvery": 1103,
      "then": 1104,
      "isc": 1105,
      "site": 1106,
      "down": 1107,
      "Ġunder": 1108,
      "Ġsaid": 1109,
      "ste": 1110,
      "Ġtwo": 1111,
      "less": 1112,
      "Ġdif": 1113,
      "rol": 1114,
      "ĠBu": 1115,
      "ĠCh": 1116,
      "Ġdon": 1117,
      "Ġmar": 1118,
      "ile": 1119,
      "ĠCo": 1120,
      "ult": 1121,
      "ities": 1122,
      "Ġsy": 1123,
      "ĠSo": 1124,
      "wr": 1125,
      "erm": 1126,
      "Ġke": 1127,
      "sin": 1128,
      "ub": 1129,
      "did": 1130,
      "Ġhim": 1131,
      "good": 1132,
      "Ġthen": 1133,
      "Ġmany": 1134,
      "ible": 1135,
      "Ġway": 1136,
      "oom": 1137,
      "lect": 1138,
      "Ġgood": 1139,
      "Ġph": 1140,
      "gl": 1141,
      "Ġhom": 1142,
      "Ġope": 1143,
      "long": 1144,
      "Ġrem": 1145,
      "Ġass": 1146,
      "Ġservice": 1147,
      "oad": 1148,
      "Ġgrea": 1149,
      "car": 1150,
      "efore": 1151,
      "Ġdown": 1152,
      "Ġreg": 1153,
      "fec": 1154,
      "iss": 1155,
      "ĠBe": 1156,
      "Ġgreat": 1157,
      "ĠMa": 1158,
      "Ġspec": 1159,
      "Ġshould": 1160,
      "Ġhome": 1161,
      "ied": 1162,
      "Ġstud": 1163,
      "str": 1164,
      "ks": 1165,
      ".\"": 1166,
      "Ġeven": 1167,
      "Ġyears": 1168,
      "after": 1169,
      "cess": 1170,
      "Ġwr": 1171,
      "lity": 1172,
      "hough": 1173,
      "Ġem": 1174,
      "owe": 1175,
      "Ġwhere": 1176,
      "ami": 1177,
      "Ġfre": 1178,
      "loc": 1179,
      "Ġmea": 1180,
      "Ġown": 1181,
      "Ġnow": 1182,
      "arge": 1183,
      "ock": 1184,
      "umb": 1185,
      "Ġent": 1186,
      "ea": 1187,
      "Ġea": 1188,
      "Ġafter": 1189,
      "unc": 1190,
      "),": 1191,
      "inv": 1192,
      "line": 1193,
      "Ġsuc": 1194,
      "Ġoffe": 1195,
      "Ġfac": 1196,
      "Ġcar": 1197,
      "siness": 1198,
      "att": 1199,
      "iat": 1200,
      "right": 1201,
      "Ġplay": 1202,
      "aut": 1203,
      "Ġsuch": 1204,
      "oss": 1205,
      "Ġinv": 1206,
      "Ġdid": 1207,
      "iew": 1208,
      "cs": 1209,
      "awa": 1210,
      "eg": 1211,
      "Ġloc": 1212,
      "Ġgu": 1213,
      "Ġbest": 1214,
      "Ġfind": 1215,
      "Ġplac": 1216,
      "Ġmuch": 1217,
      "Ġfee": 1218,
      "forma": 1219,
      "fi": 1220,
      "give": 1221,
      "stem": 1222,
      "Ġstart": 1223,
      "Ġhigh": 1224,
      "omp": 1225,
      "hose": 1226,
      "app": 1227,
      "eing": 1228,
      "Ġlong": 1229,
      "olog": 1230,
      "wee": 1231,
      "rde": 1232,
      "Ġsm": 1233,
      "ecause": 1234,
      "Ġthing": 1235,
      "ility": 1236,
      "hy": 1237,
      "life": 1238,
      "du": 1239,
      "Ġgive": 1240,
      "Ġef": 1241,
      "ful": 1242,
      "ifi": 1243,
      "Ġform": 1244,
      "format": 1245,
      "Ġdiffe": 1246,
      "formati": 1247,
      "evelop": 1248,
      "ure": 1249,
      "ĠAl": 1250,
      "formation": 1251,
      "tal": 1252,
      "oa": 1253,
      "Ġchan": 1254,
      "hat": 1255,
      "que": 1256,
      "ific": 1257,
      "Ġide": 1258,
      "disc": 1259,
      "Ġmade": 1260,
      "ĠBr": 1261,
      "Ġrequ": 1262,
      "comp": 1263,
      "Ġbecause": 1264,
      "ĠIf": 1265,
      "Ġsub": 1266,
      "Ġprovide": 1267,
      "cle": 1268,
      "hen": 1269,
      "Ġwant": 1270,
      "Ġdat": 1271,
      "Ġbefore": 1272,
      "Ġdisc": 1273,
      "say": 1274,
      "ient": 1275,
      "ext": 1276,
      "nag": 1277,
      "ship": 1278,
      "Ġcomp": 1279,
      "Ġbusiness": 1280,
      "cent": 1281,
      "oor": 1282,
      "ĠUn": 1283,
      "Ġagain": 1284,
      "Ġspe": 1285,
      "sim": 1286,
      "amil": 1287,
      "Ġhere": 1288,
      "Ġlife": 1289,
      "nic": 1290,
      "esign": 1291,
      "ower": 1292,
      "Ġext": 1293,
      "Ġsay": 1294,
      "nding": 1295,
      "earc": 1296,
      "Ġbeing": 1297,
      "Ġav": 1298,
      "bo": 1299,
      "Ġright": 1300,
      "Ġsim": 1301,
      "Ġsch": 1302,
      "Ġused": 1303,
      "ru": 1304,
      "Ġdu": 1305,
      "urt": 1306,
      "ket": 1307,
      "lue": 1308,
      "ĠFo": 1309,
      "ize": 1310,
      "design": 1311,
      "urc": 1312,
      "ited": 1313,
      "top": 1314,
      "ating": 1315,
      "rib": 1316,
      "those": 1317,
      "Ġtu": 1318,
      "Ġart": 1319,
      "Ġthose": 1320,
      "sta": 1321,
      "its": 1322,
      "ince": 1323,
      "tting": 1324,
      "spa": 1325,
      "ye": 1326,
      "care": 1327,
      "Ġstat": 1328,
      "Ġdesign": 1329,
      "We": 1330,
      "Ġpol": 1331,
      "rve": 1332,
      "develop": 1333,
      "gram": 1334,
      "information": 1335,
      "Ġplace": 1336,
      "Ġsp": 1337,
      "Ġinformation": 1338,
      "Ġsystem": 1339,
      "irec": 1340,
      "als": 1341,
      "Ġdoe": 1342,
      "az": 1343,
      "Ġdevelop": 1344,
      "cy": 1345,
      "eam": 1346,
      "ier": 1347,
      "Ġdoes": 1348,
      "Ġexperie": 1349,
      "hn": 1350,
      "Ġchang": 1351,
      "ned": 1352,
      "tch": 1353,
      "urse": 1354,
      "Ġplan": 1355,
      "Ġworld": 1356,
      "Th": 1357,
      "Ġawa": 1358,
      "In": 1359,
      "Ġshow": 1360,
      "Ġ&": 1361,
      "ĠAnd": 1362,
      "Ġhan": 1363,
      "ness": 1364,
      "ĠAm": 1365,
      "Ġeac": 1366,
      "Ġeach": 1367,
      "evi": 1368,
      "room": 1369,
      "fa": 1370,
      "Ġread": 1371,
      "Ġatt": 1372,
      "last": 1373,
      "ĠCon": 1374,
      "lls": 1375,
      "ano": 1376,
      "though": 1377,
      "live": 1378,
      "ject": 1379,
      "Ġadd": 1380,
      "list": 1381,
      "rder": 1382,
      "Ġpri": 1383,
      "usto": 1384,
      "ash": 1385,
      "âĢĶ": 1386,
      "Ġche": 1387,
      "umbe": 1388,
      "Ġ.": 1389,
      "love": 1390,
      "ress": 1391,
      "too": 1392,
      "iving": 1393,
      "Ġthough": 1394,
      "ole": 1395,
      "ourse": 1396,
      "rad": 1397,
      "Ġfamil": 1398,
      "eb": 1399,
      "hild": 1400,
      "twee": 1401,
      "Ġaround": 1402,
      "Ġappl": 1403,
      "inu": 1404,
      "Ġmed": 1405,
      "Ġwhile": 1406,
      "umber": 1407,
      "term": 1408,
      "Ġwee": 1409,
      "ale": 1410,
      "Ġmod": 1411,
      "nk": 1412,
      "ze": 1413,
      "ollow": 1414,
      "Ġlove": 1415,
      "anc": 1416,
      "hink": 1417,
      "child": 1418,
      "ming": 1419,
      "think": 1420,
      "Ġinter": 1421,
      "Ġcal": 1422,
      "Ġ$": 1423,
      "Ġdifferent": 1424,
      "tures": 1425,
      "tween": 1426,
      "Ġtoo": 1427,
      "ĠTr": 1428,
      "Ġob": 1429,
      "Ġthink": 1430,
      "Ġsupport": 1431,
      "Ġsk": 1432,
      "test": 1433,
      "ope": 1434,
      "earch": 1435,
      "Ġva": 1436,
      "Ġsti": 1437,
      "Thi": 1438,
      "Ġcare": 1439,
      "ĠMar": 1440,
      "Ġlast": 1441,
      "Ġed": 1442,
      "ĠPe": 1443,
      "ĠSc": 1444,
      "This": 1445,
      "count": 1446,
      "ĠTo": 1447,
      "same": 1448,
      "ler": 1449,
      "Ġchild": 1450,
      "ker": 1451,
      "els": 1452,
      "etween": 1453,
      "read": 1454,
      "ative": 1455,
      "...": 1456,
      "Ġweb": 1457,
      "run": 1458,
      "lear": 1459,
      "tl": 1460,
      "Ġbot": 1461,
      "Ġsame": 1462,
      "aving": 1463,
      "nted": 1464,
      "Ġstil": 1465,
      "ways": 1466,
      "Ġstill": 1467,
      "ics": 1468,
      "Ġbetween": 1469,
      "sure": 1470,
      "Ġgl": 1471,
      "oup": 1472,
      "ins": 1473,
      "ustom": 1474,
      "Ġcount": 1475,
      "Ġprocess": 1476,
      "ĠNo": 1477,
      "Ġbook": 1478,
      "nse": 1479,
      "Ġ'": 1480,
      "Ġboth": 1481,
      "ittle": 1482,
      "Ġreall": 1483,
      "Ġreally": 1484,
      "Ġoffer": 1485,
      "cial": 1486,
      "air": 1487,
      "ĠHo": 1488,
      "ĠMi": 1489,
      "light": 1490,
      "ĠBut": 1491,
      "ĠThey": 1492,
      "Ġhand": 1493,
      "Ġmu": 1494,
      "enc": 1495,
      "cur": 1496,
      "Ġfree": 1497,
      "Ġtop": 1498,
      "Ġcommun": 1499,
      "number": 1500,
      "came": 1501,
      "pt": 1502,
      "ari": 1503,
      "oi": 1504,
      "Ġwat": 1505,
      "Ġpubl": 1506,
      "game": 1507,
      "Ġnumber": 1508,
      "ean": 1509,
      "ĠOn": 1510,
      "earl": 1511,
      "Ġexperience": 1512,
      "mb": 1513,
      "ept": 1514,
      "Ġgoing": 1515,
      "Ġfound": 1516,
      "Ġlist": 1517,
      "nth": 1518,
      "ĠFr": 1519,
      "Ġimport": 1520,
      "ak": 1521,
      "alth": 1522,
      "Ġimp": 1523,
      "ems": 1524,
      "team": 1525,
      "ĠNew": 1526,
      "inst": 1527,
      "typ": 1528,
      "Ġfollow": 1529,
      "Ġprese": 1530,
      "ĠFor": 1531,
      "Ġwate": 1532,
      "amp": 1533,
      "Ġpur": 1534,
      "abl": 1535,
      "Ġteam": 1536,
      "Ġ_": 1537,
      "Ġavail": 1538,
      "Ġgame": 1539,
      "oot": 1540,
      "aste": 1541,
      "cted": 1542,
      "ages": 1543,
      "ality": 1544,
      "ward": 1545,
      "**": 1546,
      "mple": 1547,
      "Ġfull": 1548,
      "nti": 1549,
      "tiv": 1550,
      "Ġprogram": 1551,
      "ble": 1552,
      "rai": 1553,
      "Ġpost": 1554,
      "direc": 1555,
      "case": 1556,
      "Ġadv": 1557,
      "Ġprof": 1558,
      "rence": 1559,
      "ĠSta": 1560,
      "Ġusing": 1561,
      "lie": 1562,
      "har": 1563,
      "Ġmet": 1564,
      "ney": 1565,
      "Ġwater": 1566,
      "Ġrun": 1567,
      "self": 1568,
      "little": 1569,
      "ivers": 1570,
      ",\"": 1571,
      "ax": 1572,
      "Ġaut": 1573,
      "Ġexc": 1574,
      "Ġlittle": 1575,
      "Ġhapp": 1576,
      "ĠCa": 1577,
      "Ġnam": 1578,
      "Ġdirec": 1579,
      "Ġinst": 1580,
      "pla": 1581,
      "Ġspa": 1582,
      "ĠEn": 1583,
      "omple": 1584,
      "fort": 1585,
      "Ġcur": 1586,
      "ba": 1587,
      "Ġposs": 1588,
      "Ġfew": 1589,
      "lling": 1590,
      "Ġchange": 1591,
      "iting": 1592,
      "Ġkeep": 1593,
      "Ġmanag": 1594,
      "ĠShe": 1595,
      "ver": 1596,
      "Ġlear": 1597,
      "hree": 1598,
      "ired": 1599,
      "try": 1600,
      "mpl": 1601,
      "three": 1602,
      "Ġpat": 1603,
      "custom": 1604,
      "Ġbi": 1605,
      "ark": 1606,
      "ĠThere": 1607,
      "Ġsea": 1608,
      "Ġappr": 1609,
      "Ġcustom": 1610,
      "ĠGr": 1611,
      "ying": 1612,
      "Ġmain": 1613,
      "Ġset": 1614,
      "rth": 1615,
      "rial": 1616,
      "Ġmust": 1617,
      "Ġthree": 1618,
      "dist": 1619,
      "ĠTha": 1620,
      "Ġavailable": 1621,
      "ments": 1622,
      "comple": 1623,
      "ĠLe": 1624,
      "fac": 1625,
      "Ġsl": 1626,
      "Ġcompany": 1627,
      "ria": 1628,
      "Ġbuild": 1629,
      "ody": 1630,
      "Ġparti": 1631,
      "Ġprop": 1632,
      "fer": 1633,
      "ular": 1634,
      "Ġcomple": 1635,
      "crea": 1636,
      "once": 1637,
      "Ġoffi": 1638,
      "ssi": 1639,
      "Ġalways": 1640,
      "ards": 1641,
      "ues": 1642,
      "ements": 1643,
      "iate": 1644,
      "Ġdist": 1645,
      "uct": 1646,
      "Ġrest": 1647,
      "Ġthings": 1648,
      "apa": 1649,
      "Ġwitho": 1650,
      "Ġwithou": 1651,
      "Ġwithout": 1652,
      "Ġano": 1653,
      "Ġorga": 1654,
      "Ġtyp": 1655,
      "inal": 1656,
      "ĠGe": 1657,
      "Ġrep": 1658,
      "Ġallow": 1659,
      "oge": 1660,
      "ape": 1661,
      "ital": 1662,
      "large": 1663,
      "lar": 1664,
      "ology": 1665,
      "Ġpi": 1666,
      "Ġcase": 1667,
      "mon": 1668,
      "Ġmean": 1669,
      "Ġduring": 1670,
      "Ġwon": 1671,
      "Ġmonth": 1672,
      "Yo": 1673,
      "Ġred": 1674,
      "It": 1675,
      "Ġinclud": 1676,
      "Ġinclude": 1677,
      "Ġsure": 1678,
      "Ġdata": 1679,
      "conce": 1680,
      "ĠMe": 1681,
      "Ġinterest": 1682,
      "etter": 1683,
      "ĠAme": 1684,
      "ĠSa": 1685,
      "Ġlarge": 1686,
      "rne": 1687,
      "rip": 1688,
      "Ġmov": 1689,
      "Ġfamily": 1690,
      "eral": 1691,
      "fect": 1692,
      "seve": 1693,
      "You": 1694,
      "ield": 1695,
      "nded": 1696,
      "Ġfrie": 1697,
      "ĠAs": 1698,
      "Ġmil": 1699,
      "Ġsite": 1700,
      "Ġmight": 1701,
      "ode": 1702,
      "nn": 1703,
      "Ġconce": 1704,
      "Ġexam": 1705,
      "ings": 1706,
      "sive": 1707,
      "ader": 1708,
      "ima": 1709,
      "Ġschool": 1710,
      "Ġple": 1711,
      "Ġincluding": 1712,
      "Ġsomething": 1713,
      "Ġfu": 1714,
      "ather": 1715,
      "Ġbetter": 1716,
      "Ġhead": 1717,
      "inf": 1718,
      "Ġconf": 1719,
      "ven": 1720,
      "Ġwal": 1721,
      "cert": 1722,
      "cost": 1723,
      "Ġanother": 1724,
      "Ġjo": 1725,
      "urce": 1726,
      "oday": 1727,
      "city": 1728,
      "equ": 1729,
      "sonal": 1730,
      "Ġseve": 1731,
      "creat": 1732,
      "Ġsmall": 1733,
      "tly": 1734,
      "Ġmode": 1735,
      "tain": 1736,
      "ves": 1737,
      "Ġquest": 1738,
      "ompl": 1739,
      "ĠAmer": 1740,
      "here": 1741,
      "ula": 1742,
      "itte": 1743,
      "ster": 1744,
      "eno": 1745,
      "Ġimportant": 1746,
      "Ġpric": 1747,
      "ĠJo": 1748,
      "ĠAmeri": 1749,
      "ply": 1750,
      "inat": 1751,
      "Ġhou": 1752,
      "Ġfea": 1753,
      "ĠEx": 1754,
      "Ġmember": 1755,
      "Ġtry": 1756,
      "Ġrece": 1757,
      "ask": 1758,
      "ĠAmeric": 1759,
      "Ġold": 1760,
      "next": 1761,
      "Ġclass": 1762,
      "ĠCl": 1763,
      "Ġorder": 1764,
      "Ġpower": 1765,
      "Ġlive": 1766,
      "Ġservices": 1767,
      "ists": 1768,
      "Ġnext": 1769,
      "Ġiss": 1770,
      "ided": 1771,
      "Ġlow": 1772,
      "cally": 1773,
      "Ġvisit": 1774,
      "Ġrespon": 1775,
      "erg": 1776,
      "never": 1777,
      "Ġgroup": 1778,
      "ĠAmerica": 1779,
      "Ġcost": 1780,
      "Ġcreat": 1781,
      "icle": 1782,
      "ights": 1783,
      "Ġperform": 1784,
      "table": 1785,
      "early": 1786,
      "ĠHow": 1787,
      "Ġname": 1788,
      "Ġnever": 1789,
      "Ġga": 1790,
      "ĠPro": 1791,
      "eac": 1792,
      "Ġcrea": 1793,
      "Ġfact": 1794,
      "oic": 1795,
      "ined": 1796,
      "Ġroom": 1797,
      "itu": 1798,
      "ele": 1799,
      "ĠInt": 1800,
      "Ġsecon": 1801,
      "niz": 1802,
      "sig": 1803,
      "Ġstate": 1804,
      "Ġable": 1805,
      "ĠAd": 1806,
      "Ġprobl": 1807,
      "Ġproduct": 1808,
      "ule": 1809,
      "since": 1810,
      "Ġcolo": 1811,
      "course": 1812,
      "Ġreport": 1813,
      "rp": 1814,
      "avo": 1815,
      "epe": 1816,
      "Ġmat": 1817,
      "Ġsince": 1818,
      "Ġcert": 1819,
      "Ġarea": 1820,
      "med": 1821,
      "Ġhouse": 1822,
      "ĠAp": 1823,
      "If": 1824,
      "ĠSh": 1825,
      "itional": 1826,
      "rna": 1827,
      "nish": 1828,
      "Ġcourse": 1829,
      "Ġ,": 1830,
      "Ġprot": 1831,
      "ump": 1832,
      "Ġage": 1833,
      "Ġwithin": 1834,
      "ctu": 1835,
      "Ġline": 1836,
      "load": 1837,
      "iall": 1838,
      "Ġbig": 1839,
      "ially": 1840,
      "lim": 1841,
      "ream": 1842,
      "ients": 1843,
      "asi": 1844,
      "Ġfar": 1845,
      "Ġunt": 1846,
      "Ġincrea": 1847,
      "oice": 1848,
      "Ġest": 1849,
      "Ġlight": 1850,
      "Ġside": 1851,
      "rge": 1852,
      "aking": 1853,
      "Ġmee": 1854,
      "Ġcame": 1855,
      "ized": 1856,
      "law": 1857,
      "Ġless": 1858,
      "Ġcustome": 1859,
      "Ġonline": 1860,
      "Ġconside": 1861,
      "Ġcustomer": 1862,
      "ĠStat": 1863,
      "Ġpass": 1864,
      "oe": 1865,
      "âĢĵ": 1866,
      "uma": 1867,
      "nj": 1868,
      "ccess": 1869,
      "fic": 1870,
      "tai": 1871,
      "def": 1872,
      "ced": 1873,
      "ived": 1874,
      "ntion": 1875,
      "Ġdays": 1876,
      "ational": 1877,
      "err": 1878,
      "Ġstra": 1879,
      "ix": 1880,
      "ĠPa": 1881,
      "Ġye": 1882,
      "Ġoper": 1883,
      "imat": 1884,
      "ses": 1885,
      "Ġpay": 1886,
      "ĠQ": 1887,
      "Ġpho": 1888,
      "lut": 1889,
      "Ġgrow": 1890,
      "Ġaccess": 1891,
      "Ġhard": 1892,
      "nno": 1893,
      "Ġinf": 1894,
      "ically": 1895,
      "ono": 1896,
      "Ġcent": 1897,
      "eat": 1898,
      "hed": 1899,
      "ssion": 1900,
      "ĠInte": 1901,
      "Ġequ": 1902,
      "Ġman": 1903,
      "ĠChr": 1904,
      "ience": 1905,
      "Ġwebsite": 1906,
      "chn": 1907,
      "ctiv": 1908,
      "lay": 1909,
      "Ġprice": 1910,
      "elie": 1911,
      "ploy": 1912,
      "iversity": 1913,
      "ĠInd": 1914,
      "rev": 1915,
      "Ġspecial": 1916,
      "ena": 1917,
      "Ġfil": 1918,
      "Ġpop": 1919,
      "Ġoffic": 1920,
      "ĠCol": 1921,
      "esc": 1922,
      "Ġaway": 1923,
      "Ġgot": 1924,
      "dem": 1925,
      "rning": 1926,
      "bu": 1927,
      "tural": 1928,
      "ĠWh": 1929,
      "ered": 1930,
      "rage": 1931,
      "Ġinvest": 1932,
      "spo": 1933,
      "compl": 1934,
      "Ġdef": 1935,
      "echn": 1936,
      "Ġexpl": 1937,
      "aim": 1938,
      "Ġcomplet": 1939,
      "Ġtest": 1940,
      "eh": 1941,
      "Ġhour": 1942,
      "ER": 1943,
      "ogether": 1944,
      "ften": 1945,
      "ffi": 1946,
      "Ġquality": 1947,
      "ĠSp": 1948,
      "ere": 1949,
      "Ġcurrent": 1950,
      "Ġref": 1951,
      "overn": 1952,
      "cular": 1953,
      "Ġphot": 1954,
      "atte": 1955,
      "Ġopen": 1956,
      "Ġturn": 1957,
      "Ġprofess": 1958,
      "Ġpra": 1959,
      "Ġpersonal": 1960,
      "Ġextr": 1961,
      "Ġpubli": 1962,
      "Ġlead": 1963,
      "Ġpag": 1964,
      "ton": 1965,
      "Ġair": 1966,
      ".,": 1967,
      "ĠWo": 1968,
      "ua": 1969,
      "Ġcompl": 1970,
      "Ġweek": 1971,
      "Ġfood": 1972,
      "Ġunti": 1973,
      "Ġuntil": 1974,
      "ribu": 1975,
      "Ġcontrol": 1976,
      "Ġstan": 1977,
      "ĠZ": 1978,
      "uss": 1979,
      "anno": 1980,
      "Ġprac": 1981,
      "Ġpract": 1982,
      "Ġworking": 1983,
      "Ġperson": 1984,
      "Ġpage": 1985,
      "br": 1986,
      "Ġoc": 1987,
      "ms": 1988,
      "Ġlooking": 1989,
      "Ġhealth": 1990,
      "oming": 1991,
      "Ġlaw": 1992,
      "ains": 1993,
      "Ġput": 1994,
      "Ġundersta": 1995,
      "Ġfeel": 1996,
      "inut": 1997,
      "Ġmaking": 1998,
      "Ġbelie": 1999,
      "ĠOu": 2000,
      "opp": 2001,
      "Ġsec": 2002,
      "inute": 2003,
      "Ġrev": 2004,
      "vi": 2005,
      "entl": 2006,
      "ved": 2007,
      "usl": 2008,
      "door": 2009,
      "erc": 2010,
      "today": 2011,
      "char": 2012,
      "por": 2013,
      "Ġtype": 2014,
      "ken": 2015,
      "Ġchildren": 2016,
      "Ġwom": 2017,
      "lease": 2018,
      "ished": 2019,
      "Ġstand": 2020,
      "ering": 2021,
      "Ġtoday": 2022,
      "Ġreso": 2023,
      "ucti": 2024,
      "ito": 2025,
      "Ġsit": 2026,
      "Ġprote": 2027,
      "Ġagainst": 2028,
      "Ġlocal": 2029,
      "Ġappli": 2030,
      "imate": 2031,
      "Ġimpr": 2032,
      "ega": 2033,
      "jo": 2034,
      "Ġapplic": 2035,
      "ĠAll": 2036,
      "nat": 2037,
      "uction": 2038,
      "part": 2039,
      "Ġcomplete": 2040,
      "ulat": 2041,
      "actu": 2042,
      "Ġsig": 2043,
      "ches": 2044,
      "Ġalong": 2045,
      "Ġjob": 2046,
      "lecti": 2047,
      "swe": 2048,
      "ivid": 2049,
      "ipp": 2050,
      "lection": 2051,
      "Ġchar": 2052,
      "enj": 2053,
      "omb": 2054,
      "Ġpoint": 2055,
      "iron": 2056,
      "nown": 2057,
      "Ġpublic": 2058,
      "win": 2059,
      "Ġmarket": 2060,
      "Ġmoney": 2061,
      "night": 2062,
      "ĠState": 2063,
      "together": 2064,
      "Ġsing": 2065,
      "Ġoften": 2066,
      "Ġenj": 2067,
      "ference": 2068,
      "ĠBa": 2069,
      "Ġproducts": 2070,
      "way": 2071,
      "activ": 2072,
      "Ġver": 2073,
      "Ġstudents": 2074,
      "grap": 2075,
      "iety": 2076,
      "Ġdem": 2077,
      "oung": 2078,
      "sition": 2079,
      "ĠWhen": 2080,
      "ita": 2081,
      "Ġsuccess": 2082,
      "ently": 2083,
      "Ġtogether": 2084,
      "ines": 2085,
      "Ġcreate": 2086,
      "ets": 2087,
      "Ġindust": 2088,
      "Ġword": 2089,
      "Ġhist": 2090,
      "coming": 2091,
      "Ġrol": 2092,
      "ĠâĢĺ": 2093,
      "tem": 2094,
      "Ġsecond": 2095,
      "lab": 2096,
      "ctive": 2097,
      "Ġbeg": 2098,
      "wide": 2099,
      "Ġeno": 2100,
      "Ġleft": 2101,
      "Ġneeds": 2102,
      "ĠLa": 2103,
      "ĠMo": 2104,
      "Ġterm": 2105,
      "itions": 2106,
      "Ġclose": 2107,
      "ual": 2108,
      "Ġactu": 2109,
      "Ġactiv": 2110,
      "Ġoffice": 2111,
      "Ġarr": 2112,
      "ncy": 2113,
      "ĠBo": 2114,
      "ume": 2115,
      "ware": 2116,
      "ught": 2117,
      "uman": 2118,
      "Ġmate": 2119,
      "eal": 2120,
      "rre": 2121,
      "Ġminute": 2122,
      "Ġbas": 2123,
      "Ġconn": 2124,
      "ried": 2125,
      "Ġshort": 2126,
      "han": 2127,
      "Ġvalue": 2128,
      "Ġkind": 2129,
      "Ġconne": 2130,
      "rance": 2131,
      "ĠWith": 2132,
      "Ġeasy": 2133,
      "ably": 2134,
      "ified": 2135,
      "Ġev": 2136,
      "Ġpossible": 2137,
      "ium": 2138,
      "Ġdoc": 2139,
      "Ġproject": 2140,
      "!!": 2141,
      "Ġenjoy": 2142,
      "ults": 2143,
      "Ġview": 2144,
      "Ġwhy": 2145,
      "llen": 2146,
      "tent": 2147,
      "Ġ|": 2148,
      "oved": 2149,
      "usly": 2150,
      "ĠDr": 2151,
      "Ġtal": 2152,
      "Ġspac": 2153,
      "Ġeffec": 2154,
      "Ġnon": 2155,
      "Ġexample": 2156,
      "Ġmus": 2157,
      "ĠThat": 2158,
      "level": 2159,
      "ĠChrist": 2160,
      "Ġbring": 2161,
      "ence": 2162,
      "ĠHi": 2163,
      "gest": 2164,
      "Ġhaving": 2165,
      "Ġcompe": 2166,
      "lectr": 2167,
      "ley": 2168,
      "Ġvar": 2169,
      "turn": 2170,
      "oon": 2171,
      "So": 2172,
      "ift": 2173,
      "ah": 2174,
      "Ġspace": 2175,
      "iva": 2176,
      "cap": 2177,
      "Ġuser": 2178,
      "Ġemploy": 2179,
      "Ġtimes": 2180,
      "ĠUS": 2181,
      "eye": 2182,
      "sla": 2183,
      "ont": 2184,
      "Ġatte": 2185,
      "rl": 2186,
      "ĠWhat": 2187,
      "ids": 2188,
      "rese": 2189,
      "ĠGod": 2190,
      "call": 2191,
      "nda": 2192,
      "Ġbrea": 2193,
      "Ġgra": 2194,
      "ww": 2195,
      "ird": 2196,
      "aster": 2197,
      "Ġprofessional": 2198,
      "Ġindivid": 2199,
      "etting": 2200,
      "nef": 2201,
      "techn": 2202,
      "cross": 2203,
      "Ġenough": 2204,
      "cts": 2205,
      "Ġpic": 2206,
      "Ġdone": 2207,
      "Ġpoli": 2208,
      "iter": 2209,
      "Ġhappe": 2210,
      "Ġbeh": 2211,
      "wind": 2212,
      "wood": 2213,
      "Ġdirect": 2214,
      "overnment": 2215,
      "fr": 2216,
      "uce": 2217,
      "Ġbased": 2218,
      "Ġbody": 2219,
      "ously": 2220,
      "An": 2221,
      "Ġreac": 2222,
      "hie": 2223,
      "Ġrecord": 2224,
      "Ġdidn": 2225,
      "Ġcall": 2226,
      "ready": 2227,
      "Ġsafe": 2228,
      "Ġcheck": 2229,
      "ograp": 2230,
      "Ġsen": 2231,
      "nv": 2232,
      "sident": 2233,
      "ĠPh": 2234,
      "une": 2235,
      "Ġappear": 2236,
      "ithe": 2237,
      "ained": 2238,
      "Ġcertain": 2239,
      "rod": 2240,
      "Ġcond": 2241,
      "Ġtem": 2242,
      "Ġau": 2243,
      "ĠAmerican": 2244,
      "ffic": 2245,
      "sel": 2246,
      "Ġtechn": 2247,
      "rave": 2248,
      "Ġsto": 2249,
      "Ġever": 2250,
      "Ġfun": 2251,
      "reen": 2252,
      "Ġexte": 2253,
      "eu": 2254,
      "Ġmind": 2255,
      "ging": 2256,
      "IN": 2257,
      ",âĢĿ": 2258,
      "jor": 2259,
      "Ġpast": 2260,
      "inati": 2261,
      "ret": 2262,
      "Ġshare": 2263,
      "enef": 2264,
      "trad": 2265,
      "ination": 2266,
      "Ġothers": 2267,
      "ĠâĢĶ": 2268,
      "Ġcommunity": 2269,
      "Ġnight": 2270,
      "What": 2271,
      "Ġcap": 2272,
      "across": 2273,
      "rb": 2274,
      "Ġalt": 2275,
      "Ġthought": 2276,
      "Ġconta": 2277,
      "size": 2278,
      "treat": 2279,
      "Ġmill": 2280,
      "Ġski": 2281,
      "Ġmeans": 2282,
      "ini": 2283,
      "Ġseveral": 2284,
      "cipa": 2285,
      "Ġstep": 2286,
      "iding": 2287,
      "Ġfocu": 2288,
      "ph": 2289,
      "cover": 2290,
      "ilt": 2291,
      "Ġacross": 2292,
      "Ġcalled": 2293,
      "Ġeye": 2294,
      "Ġvide": 2295,
      "Ġbenef": 2296,
      "Ġpropert": 2297,
      "ĠBl": 2298,
      "Ġalready": 2299,
      "ĠPl": 2300,
      "ĠUniversity": 2301,
      "ither": 2302,
      "Ġlet": 2303,
      "He": 2304,
      "yle": 2305,
      "Ġopt": 2306,
      "Ġspo": 2307,
      "ged": 2308,
      "sport": 2309,
      "cono": 2310,
      "Ġresearch": 2311,
      "portun": 2312,
      "gle": 2313,
      "Ġtrad": 2314,
      "Ġmakes": 2315,
      "Ġcons": 2316,
      "isk": 2317,
      "ĠCar": 2318,
      "ĠWi": 2319,
      "Ġlim": 2320,
      "Ġsocial": 2321,
      "orn": 2322,
      "Ġlevel": 2323,
      "iec": 2324,
      "oac": 2325,
      "gar": 2326,
      "Ġson": 2327,
      "Ġtable": 2328,
      "ndo": 2329,
      "Ġfinal": 2330,
      "mmon": 2331,
      "anal": 2332,
      "ĠDo": 2333,
      "Ġcountry": 2334,
      "Ġonce": 2335,
      "Ġsoft": 2336,
      "search": 2337,
      "Ġwind": 2338,
      "Ġhold": 2339,
      "Ġpresent": 2340,
      "cil": 2341,
      "Ġmult": 2342,
      "On": 2343,
      "avor": 2344,
      "Ġenc": 2345,
      "iga": 2346,
      "iati": 2347,
      "iece": 2348,
      "Ġbra": 2349,
      "ĠCent": 2350,
      "Ġopportun": 2351,
      "Ġdevelopment": 2352,
      "Ġmusi": 2353,
      "trai": 2354,
      "ĠJe": 2355,
      "Ġreturn": 2356,
      "inte": 2357,
      "Ġorganiz": 2358,
      "oose": 2359,
      "gs": 2360,
      "ism": 2361,
      "Ġmusic": 2362,
      "spl": 2363,
      "Ġreason": 2364,
      "âĢľ": 2365,
      "Ġfou": 2366,
      "getting": 2367,
      "Ġfour": 2368,
      "ĠJa": 2369,
      "teac": 2370,
      "Ġspecific": 2371,
      "serv": 2372,
      "Ġcover": 2373,
      "ario": 2374,
      "Ġeduc": 2375,
      "took": 2376,
      "neral": 2377,
      "iation": 2378,
      "Ġcity": 2379,
      "etwo": 2380,
      "Ġhot": 2381,
      "ond": 2382,
      "Ġface": 2383,
      "Ġtook": 2384,
      "Ġquick": 2385,
      "ĠThese": 2386,
      "ully": 2387,
      "ĠSch": 2388,
      "Ġcontr": 2389,
      "ows": 2390,
      "aps": 2391,
      "Ġparticular": 2392,
      "sions": 2393,
      "Ġtrai": 2394,
      "trave": 2395,
      "ctions": 2396,
      "nies": 2397,
      "As": 2398,
      "ique": 2399,
      "desc": 2400,
      "etwork": 2401,
      "iet": 2402,
      "gine": 2403,
      "either": 2404,
      "Ġtreat": 2405,
      "autif": 2406,
      "elow": 2407,
      "Ġorig": 2408,
      "comb": 2409,
      "by": 2410,
      "urther": 2411,
      "Ġleast": 2412,
      "Ġteac": 2413,
      "Ġant": 2414,
      "ĠCr": 2415,
      "Ġbar": 2416,
      "Ġgetting": 2417,
      "dat": 2418,
      "Fo": 2419,
      "va": 2420,
      "young": 2421,
      "Ġmajor": 2422,
      "ĠFl": 2423,
      "ĠVi": 2424,
      "ĠOur": 2425,
      "Ġevent": 2426,
      "ergy": 2427,
      "dy": 2428,
      "Ġpracti": 2429,
      "Ġtrave": 2430,
      "env": 2431,
      "rnal": 2432,
      "hod": 2433,
      "Ġyoung": 2434,
      "most": 2435,
      "ĠMy": 2436,
      "Ġdoing": 2437,
      "rel": 2438,
      "inn": 2439,
      "rise": 2440,
      "Ġhig": 2441,
      "ON": 2442,
      "Ġdesc": 2443,
      "ording": 2444,
      "Ġbed": 2445,
      "ians": 2446,
      "Ġauth": 2447,
      "dress": 2448,
      "Ġkey": 2449,
      "Ġbal": 2450,
      "Ġhuman": 2451,
      "Ġfina": 2452,
      "Ġautho": 2453,
      "Ġenv": 2454,
      "ĠCan": 2455,
      "ots": 2456,
      "Ġfund": 2457,
      "ironment": 2458,
      "mic": 2459,
      "chie": 2460,
      "Ġport": 2461,
      "?\"": 2462,
      "Ġwent": 2463,
      "Ġanal": 2464,
      "Ġstory": 2465,
      "ES": 2466,
      "itc": 2467,
      "Ġcolor": 2468,
      "Ġcontac": 2469,
      "unt": 2470,
      "ese": 2471,
      "tool": 2472,
      "Ġwhole": 2473,
      "Ġcul": 2474,
      "Ġminutes": 2475,
      "Ġsize": 2476,
      "nor": 2477,
      "Ġbro": 2478,
      "Ġcomb": 2479,
      "Ġstay": 2480,
      "ints": 2481,
      "ox": 2482,
      "Ġhours": 2483,
      "oli": 2484,
      "par": 2485,
      "gre": 2486,
      "ĠMay": 2487,
      "dent": 2488,
      "ama": 2489,
      "Ġheart": 2490,
      "Ġask": 2491,
      "ips": 2492,
      "Ġauthor": 2493,
      "iple": 2494,
      "ledg": 2495,
      "jects": 2496,
      "Ġstarted": 2497,
      "Ġinvol": 2498,
      "Ġfunc": 2499,
      "Ġknown": 2500,
      "Ġseason": 2501,
      "town": 2502,
      "Ġlearn": 2503,
      "ĠAt": 2504,
      "my": 2505,
      "Ġwin": 2506,
      "rack": 2507,
      "plac": 2508,
      "Ġbelow": 2509,
      "ĠCoun": 2510,
      "Ġserve": 2511,
      "sw": 2512,
      "Ġtool": 2513,
      "Ġmanu": 2514,
      "eautif": 2515,
      "Ġpurcha": 2516,
      "ĠSou": 2517,
      "Ġpractic": 2518,
      "Ġfuture": 2519,
      "sle": 2520,
      "evic": 2521,
      "stra": 2522,
      "Ġident": 2523,
      "etai": 2524,
      "near": 2525,
      "Ġperfect": 2526,
      "electr": 2527,
      "road": 2528,
      "Ġchara": 2529,
      "AT": 2530,
      "Ġcharac": 2531,
      "Ġcharact": 2532,
      "Ġcharacte": 2533,
      "Ġstrong": 2534,
      "vert": 2535,
      "Ġcharacter": 2536,
      "leg": 2537,
      "Bu": 2538,
      "Ġyet": 2539,
      "Ġwide": 2540,
      "Ġsound": 2541,
      "Ġnear": 2542,
      "idd": 2543,
      "sat": 2544,
      "she": 2545,
      "Ġgiven": 2546,
      "Ġearly": 2547,
      "gress": 2548,
      "St": 2549,
      "Ġleave": 2550,
      "tit": 2551,
      "Ġcontact": 2552,
      "Ġdoor": 2553,
      "Ġabove": 2554,
      "rop": 2555,
      "Ġproblem": 2556,
      "Ġactually": 2557,
      "evice": 2558,
      "detai": 2559,
      "Ġrela": 2560,
      "Ġfrien": 2561,
      "Ġfriend": 2562,
      "ribut": 2563,
      "omme": 2564,
      "There": 2565,
      "Ġdetai": 2566,
      "Ġvol": 2567,
      "Ġfield": 2568,
      "Ġelectr": 2569,
      "Ġmembers": 2570,
      "ipe": 2571,
      "spect": 2572,
      "AR": 2573,
      "lled": 2574,
      "ledge": 2575,
      "onship": 2576,
      "curity": 2577,
      "orre": 2578,
      "Ġindustry": 2579,
      "AN": 2580,
      "ona": 2581,
      "oid": 2582,
      "ĠKe": 2583,
      "ĠComm": 2584,
      "Ã©": 2585,
      "government": 2586,
      "iday": 2587,
      "uly": 2588,
      "cred": 2589,
      "Ġeverything": 2590,
      "ĠEu": 2591,
      "Ġbeautif": 2592,
      "ecess": 2593,
      "ommon": 2594,
      "ionship": 2595,
      "aring": 2596,
      "Ġoffers": 2597,
      "mfort": 2598,
      "ariou": 2599,
      "ubl": 2600,
      "arious": 2601,
      "ĠFa": 2602,
      "ĠTe": 2603,
      "itical": 2604,
      "Ġrelat": 2605,
      "tow": 2606,
      "Ġess": 2607,
      "Ġpap": 2608,
      "ntu": 2609,
      "Ġcompanies": 2610,
      "iso": 2611,
      "Ġreview": 2612,
      "iod": 2613,
      "Ġbit": 2614,
      "Ġmatter": 2615,
      "ones": 2616,
      "ĠHowever": 2617,
      "nne": 2618,
      "For": 2619,
      "Ġwond": 2620,
      "Ġplaye": 2621,
      "Ġplayer": 2622,
      "Ġbuilding": 2623,
      "ĠX": 2624,
      "rain": 2625,
      "Ġaddress": 2626,
      "common": 2627,
      "ifica": 2628,
      "Ġpractice": 2629,
      "Ġtow": 2630,
      "Ġsays": 2631,
      "ĠOne": 2632,
      "ĠSom": 2633,
      "hs": 2634,
      "link": 2635,
      "Ġgovernment": 2636,
      "ĠNort": 2637,
      "Ġseem": 2638,
      "Ġdoesn": 2639,
      "Ġunderstan": 2640,
      "Ġunderstand": 2641,
      "rew": 2642,
      "card": 2643,
      "hu": 2644,
      "ificat": 2645,
      "ĠOr": 2646,
      "ank": 2647,
      "hni": 2648,
      "No": 2649,
      "Ġreprese": 2650,
      "nswe": 2651,
      "Ġpress": 2652,
      "Ġseen": 2653,
      "Ġconsider": 2654,
      "gal": 2655,
      "Ġmonths": 2656,
      "Ġsimple": 2657,
      "Ġmethod": 2658,
      "gt": 2659,
      "chni": 2660,
      "taking": 2661,
      "Ġfollowing": 2662,
      "Ġ[": 2663,
      "Ġrecomme": 2664,
      "Ġsw": 2665,
      "answe": 2666,
      "Ġwome": 2667,
      "Ġpape": 2668,
      "teg": 2669,
      "econo": 2670,
      "Ġwomen": 2671,
      "device": 2672,
      "uat": 2673,
      "ĠSy": 2674,
      "ĠAss": 2675,
      "Ġwhite": 2676,
      "Ġsingle": 2677,
      "omfort": 2678,
      "ead": 2679,
      "cked": 2680,
      "Ġclear": 2681,
      "Ġresults": 2682,
      "llow": 2683,
      "kers": 2684,
      "tax": 2685,
      "necess": 2686,
      "Ġfeatures": 2687,
      "idg": 2688,
      "Ġdevice": 2689,
      "Ġamong": 2690,
      "Ġban": 2691,
      "sn": 2692,
      "Ġsol": 2693,
      "Ġsign": 2694,
      "of": 2695,
      "res": 2696,
      "When": 2697,
      "Ġpiece": 2698,
      "ivi": 2699,
      "urces": 2700,
      "Ġbegin": 2701,
      "ĠEngl": 2702,
      "kets": 2703,
      "Ġcontin": 2704,
      "due": 2705,
      "Ġpaper": 2706,
      "ĠGu": 2707,
      "ysi": 2708,
      "Ġanswe": 2709,
      "specially": 2710,
      "ĠDa": 2711,
      "lege": 2712,
      "Ġperformance": 2713,
      "Ġchallen": 2714,
      "active": 2715,
      "Ġfriends": 2716,
      "ĠAc": 2717,
      "ising": 2718,
      "ĠJohn": 2719,
      "Ġusu": 2720,
      "Ġsupe": 2721,
      "ument": 2722,
      "Ġfront": 2723,
      "Ġmen": 2724,
      "Ġfinish": 2725,
      "luti": 2726,
      "Ġextra": 2727,
      "Ġstore": 2728,
      "rry": 2729,
      "Ġcontent": 2730,
      "ibr": 2731,
      "living": 2732,
      "hin": 2733,
      "Ġecono": 2734,
      "lution": 2735,
      "avi": 2736,
      "ĠVe": 2737,
      "Ġsect": 2738,
      "risk": 2739,
      "tty": 2740,
      "Ġcustomers": 2741,
      "don": 2742,
      "Ġidea": 2743,
      "Ġhope": 2744,
      "Ġcommon": 2745,
      "Ġprob": 2746,
      "Ġquestions": 2747,
      "ify": 2748,
      "nsive": 2749,
      "Ġdue": 2750,
      "Ġenvironment": 2751,
      "Ġplat": 2752,
      "ooked": 2753,
      "Ġpriva": 2754,
      "ability": 2755,
      "ought": 2756,
      "sum": 2757,
      "nergy": 2758,
      "Ġplease": 2759,
      "Ġdrive": 2760,
      "Ġtax": 2761,
      "Ġmilli": 2762,
      "Ġwhether": 2763,
      "Ġvideo": 2764,
      "ĠSome": 2765,
      "dig": 2766,
      "epen": 2767,
      "uge": 2768,
      "Ġtechnology": 2769,
      "elle": 2770,
      "Ġaccount": 2771,
      "ĠUnited": 2772,
      "ĠMed": 2773,
      "Ġleader": 2774,
      "nsure": 2775,
      "idge": 2776,
      "hoice": 2777,
      "ibility": 2778,
      "Ġperiod": 2779,
      "OR": 2780,
      "aining": 2781,
      "Ġhalf": 2782,
      "Ġlink": 2783,
      "Ġvarious": 2784,
      "Ġliving": 2785,
      "Ġauto": 2786,
      "ĠRo": 2787,
      "itor": 2788,
      "corre": 2789,
      "obe": 2790,
      "To": 2791,
      "oach": 2792,
      "face": 2793,
      "pose": 2794,
      "How": 2795,
      "choice": 2796,
      "Ġtraining": 2797,
      "roo": 2798,
      "Ġeither": 2799,
      "eci": 2800,
      "ban": 2801,
      "ntal": 2802,
      "Ġmillion": 2803,
      "Ġfive": 2804,
      "Ġemploye": 2805,
      "sun": 2806,
      "dam": 2807,
      "Ġstudy": 2808,
      "inne": 2809,
      "selves": 2810,
      "Ġclo": 2811,
      "Ġtaking": 2812,
      "Ġproperty": 2813,
      "Ġprovides": 2814,
      "cast": 2815,
      "comfort": 2816,
      "ilar": 2817,
      "ensure": 2818,
      "ngu": 2819,
      "rld": 2820,
      "aff": 2821,
      "Ġalmost": 2822,
      "Ġbeautiful": 2823,
      "posed": 2824,
      "Ġcred": 2825,
      "Ġrisk": 2826,
      "Ġworks": 2827,
      "Ġfit": 2828,
      "Ġanything": 2829,
      "Ġchoice": 2830,
      "network": 2831,
      "Ġeffective": 2832,
      "iste": 2833,
      "Ġfurther": 2834,
      "rpor": 2835,
      "Ġcorre": 2836,
      "energy": 2837,
      "Ġfinanc": 2838,
      "Ġsomeone": 2839,
      "Ġoriginal": 2840,
      "Ġblack": 2841,
      "ĠWa": 2842,
      "cir": 2843,
      "Ġmess": 2844,
      "Ġquite": 2845,
      "ulati": 2846,
      "ĠPre": 2847,
      "ulation": 2848,
      "Ġcompu": 2849,
      "deci": 2850,
      "ĠNot": 2851,
      "nific": 2852,
      "track": 2853,
      "Ġensure": 2854,
      "onc": 2855,
      "especially": 2856,
      "Ġquesti": 2857,
      "Ġareas": 2858,
      "apt": 2859,
      "Ġdeci": 2860,
      "ĠÂ": 2861,
      "Ġblog": 2862,
      "Ġhistory": 2863,
      "Ġcard": 2864,
      "Ġbelieve": 2865,
      "ĠWest": 2866,
      "Ġnetwork": 2867,
      "Ġexpert": 2868,
      "Ġrequire": 2869,
      "Ġmag": 2870,
      "told": 2871,
      "Ġbasi": 2872,
      "Ġissues": 2873,
      "Ġprotec": 2874,
      "Ġpack": 2875,
      "Ġmanagement": 2876,
      "Ġnecess": 2877,
      "lea": 2878,
      "Ġrequired": 2879,
      "Ġentire": 2880,
      "oll": 2881,
      "echni": 2882,
      "date": 2883,
      "stead": 2884,
      "igat": 2885,
      "Ġsumm": 2886,
      "oes": 2887,
      "ego": 2888,
      "Ġenergy": 2889,
      "pac": 2890,
      "cated": 2891,
      "Ġtold": 2892,
      "Ġmac": 2893,
      "Ġoi": 2894,
      "Ġbuy": 2895,
      "Ġclaim": 2896,
      "ggest": 2897,
      "tail": 2898,
      "Ġflow": 2899,
      "Ġnu": 2900,
      "itut": 2901,
      "Ġcir": 2902,
      "labo": 2903,
      "code": 2904,
      "techni": 2905,
      "ants": 2906,
      "Ġneeded": 2907,
      "init": 2908,
      "efe": 2909,
      "Ġsuggest": 2910,
      "deb": 2911,
      "Ġear": 2912,
      "Ġmix": 2913,
      "ngine": 2914,
      "rnet": 2915,
      "arde": 2916,
      "Ġki": 2917,
      "Ġresult": 2918,
      "Ġdate": 2919,
      "Ġouts": 2920,
      "arm": 2921,
      "Ġcontinu": 2922,
      "Ġpercent": 2923,
      "Ġunique": 2924,
      "Ġpartn": 2925,
      "Ġarticle": 2926,
      "Ġsat": 2927,
      "ĠService": 2928,
      "icated": 2929,
      "ĠYork": 2930,
      "Ġpotent": 2931,
      "Ġdig": 2932,
      "itat": 2933,
      "aker": 2934,
      "Ġcause": 2935,
      "dia": 2936,
      "Ġaud": 2937,
      "Ġrole": 2938,
      "ĠAfter": 2939,
      "Ġhowever": 2940,
      "Ġself": 2941,
      "hoose": 2942,
      "arte": 2943,
      "Ġstrateg": 2944,
      "ola": 2945,
      "Ġdownload": 2946,
      "Ġconstr": 2947,
      "Ġtaken": 2948,
      "Ġmedia": 2949,
      "Ġsur": 2950,
      "chen": 2951,
      "Ġmanage": 2952,
      "insu": 2953,
      "ficul": 2954,
      "yourse": 2955,
      "Ġtechni": 2956,
      "ĠIs": 2957,
      "eterm": 2958,
      "Ġespecially": 2959,
      "mas": 2960,
      "Ġsimply": 2961,
      "Ġfoot": 2962,
      "Ġseries": 2963,
      "Ġassist": 2964,
      "Ġdeb": 2965,
      "urch": 2966,
      "Ġupon": 2967,
      "Ġexist": 2968,
      "ident": 2969,
      "ĠRa": 2970,
      "Ġdoub": 2971,
      "sume": 2972,
      "Ġaddition": 2973,
      "engine": 2974,
      "unch": 2975,
      "Ġdam": 2976,
      "Ġcut": 2977,
      "rated": 2978,
      "round": 2979,
      "harge": 2980,
      "Ġimpl": 2981,
      "ĠHis": 2982,
      "Ġyourse": 2983,
      "Al": 2984,
      "times": 2985,
      "ĠSu": 2986,
      "ira": 2987,
      "Ġwriting": 2988,
      "Ġeduca": 2989,
      "Ġmove": 2990,
      "sal": 2991,
      "instr": 2992,
      "Ġcomfort": 2993,
      "Ġparticipa": 2994,
      "Ġeducat": 2995,
      "rather": 2996,
      "hine": 2997,
      "Ġquestion": 2998,
      "ining": 2999,
      "Ġbreak": 3000,
      "eath": 3001,
      "Ġdifficul": 3002,
      "sati": 3003,
      "rials": 3004,
      "Ġasked": 3005,
      "mit": 3006,
      "Ġeffort": 3007,
      "six": 3008,
      "EN": 3009,
      "defe": 3010,
      "ĠEl": 3011,
      "Ġwanted": 3012,
      "Ġlikel": 3013,
      "reet": 3014,
      "Ġstaff": 3015,
      "Ġrai": 3016,
      "af": 3017,
      ".âĢĿ": 3018,
      "rust": 3019,
      "Ġsignific": 3020,
      "work": 3021,
      "Ġrather": 3022,
      "Ġinstr": 3023,
      "orc": 3024,
      "nty": 3025,
      "thin": 3026,
      "irt": 3027,
      "rue": 3028,
      "Ġlu": 3029,
      "ĠSout": 3030,
      "Ġserv": 3031,
      "capa": 3032,
      "ars": 3033,
      "yer": 3034,
      "else": 3035,
      "Ġprovided": 3036,
      "cop": 3037,
      "Ġamount": 3038,
      "Ġengine": 3039,
      "ĠSouth": 3040,
      "ĠCity": 3041,
      "ĠAust": 3042,
      "Ġlay": 3043,
      "Ġyourself": 3044,
      "Ġdesigned": 3045,
      "gree": 3046,
      "choose": 3047,
      "achie": 3048,
      "Ġnatural": 3049,
      "eneral": 3050,
      "And": 3051,
      "Ġconnec": 3052,
      "determ": 3053,
      "Ġinsu": 3054,
      "Ġfavor": 3055,
      "sation": 3056,
      "Ġtrack": 3057,
      "Ġchoose": 3058,
      "Ġcomput": 3059,
      "lected": 3060,
      "Ġmiss": 3061,
      "ays": 3062,
      "entu": 3063,
      "hird": 3064,
      "Ġroad": 3065,
      "Ġelse": 3066,
      "third": 3067,
      "Ġeveryone": 3068,
      "lia": 3069,
      "ĠMr": 3070,
      "aur": 3071,
      "reve": 3072,
      "idence": 3073,
      "Ġknowledge": 3074,
      "ĠDu": 3075,
      "Ġcapa": 3076,
      "Ġachie": 3077,
      "Ġsuppl": 3078,
      "Ġsearch": 3079,
      "Ġz": 3080,
      "inted": 3081,
      "Ġperm": 3082,
      "Ġdefe": 3083,
      "amb": 3084,
      "Ġhost": 3085,
      "eful": 3086,
      "ĠYour": 3087,
      "Ġpartne": 3088,
      "ada": 3089,
      "Ġpartner": 3090,
      "ED": 3091,
      "AS": 3092,
      "sible": 3093,
      "Ġkit": 3094,
      "Ġmeeting": 3095,
      "ĠArt": 3096,
      "para": 3097,
      "Ġsoon": 3098,
      "Ġreceive": 3099,
      "Ġinit": 3100,
      "ude": 3101,
      "ik": 3102,
      "ĠQu": 3103,
      "Ġdeterm": 3104,
      "ript": 3105,
      "Ġprotect": 3106,
      "Ġhy": 3107,
      "igure": 3108,
      "Ġopera": 3109,
      "ispl": 3110,
      "Ġestabl": 3111,
      "Ġvo": 3112,
      "ps": 3113,
      "ĠBar": 3114,
      "where": 3115,
      "Ġsix": 3116,
      "mini": 3117,
      "ĠNational": 3118,
      "Ġago": 3119,
      "ĠCal": 3120,
      "Ġwonde": 3121,
      "Ġnothing": 3122,
      "Ġbehind": 3123,
      "nced": 3124,
      "Ġbad": 3125,
      "Ġways": 3126,
      "Ġforward": 3127,
      "Ġhea": 3128,
      "Ġpar": 3129,
      "inside": 3130,
      "elive": 3131,
      "Ġground": 3132,
      "keting": 3133,
      "Ġpopular": 3134,
      "ĠPer": 3135,
      "ball": 3136,
      "rally": 3137,
      "Ġevents": 3138,
      "ival": 3139,
      "strat": 3140,
      "Ġadded": 3141,
      "ĠSup": 3142,
      "ĠWil": 3143,
      "Ġwonder": 3144,
      "Ġpromo": 3145,
      "let": 3146,
      "IS": 3147,
      "Ġsle": 3148,
      "Ġincludes": 3149,
      "Ġoutside": 3150,
      "Ġmeet": 3151,
      "Ġ/": 3152,
      "etc": 3153,
      "nice": 3154,
      "ecu": 3155,
      "Ġstyle": 3156,
      "Ġlikely": 3157,
      "Ġstop": 3158,
      "tory": 3159,
      "Ġthin": 3160,
      "Ġmon": 3161,
      "Ġthird": 3162,
      "terr": 3163,
      "Ġinside": 3164,
      "Ġsystems": 3165,
      "ĠPla": 3166,
      "Ġprepa": 3167,
      "overed": 3168,
      "Ġphone": 3169,
      "Ġvia": 3170,
      "Ġreve": 3171,
      "ĠOc": 3172,
      "Ġproblems": 3173,
      "Ġheld": 3174,
      "Ġregard": 3175,
      "cket": 3176,
      "ised": 3177,
      "Ġcode": 3178,
      "ĠSchool": 3179,
      "Ġwords": 3180,
      "inter": 3181,
      "delive": 3182,
      "Ġanswer": 3183,
      "irst": 3184,
      "rig": 3185,
      "ino": 3186,
      "ourt": 3187,
      "Ġste": 3188,
      "ĠCha": 3189,
      "ĠNorth": 3190,
      "Ġoptions": 3191,
      "Ġcoming": 3192,
      "Ġexpec": 3193,
      "Ġideas": 3194,
      "Ġanno": 3195,
      "Ġcompute": 3196,
      "Ġoil": 3197,
      "Ou": 3198,
      "Ġclean": 3199,
      "Ġposition": 3200,
      "Ġemail": 3201,
      "Ġrequest": 3202,
      "Ġtrying": 3203,
      "Ġsimilar": 3204,
      "very": 3205,
      "Ġmem": 3206,
      "Ġsoftware": 3207,
      "conc": 3208,
      "true": 3209,
      "gth": 3210,
      "Ġowne": 3211,
      "pu": 3212,
      "Ġdelive": 3213,
      "Ġprobably": 3214,
      "Ġsun": 3215,
      "Ġowner": 3216,
      "ouch": 3217,
      "Ġgames": 3218,
      "Ġbox": 3219,
      "Ġwood": 3220,
      "AL": 3221,
      "Ġtown": 3222,
      "Ġready": 3223,
      "Ġrelationship": 3224,
      "IT": 3225,
      "angu": 3226,
      "Ġcommuni": 3227,
      "Ġgree": 3228,
      "general": 3229,
      "But": 3230,
      "canno": 3231,
      "ĠStu": 3232,
      "Ġetc": 3233,
      "obal": 3234,
      "asil": 3235,
      "Ġprivat": 3236,
      "irl": 3237,
      "inner": 3238,
      "uple": 3239,
      "deal": 3240,
      "Ġapplica": 3241,
      "Ġhighl": 3242,
      "Ġapplicat": 3243,
      "Ġassoc": 3244,
      "Ġindividual": 3245,
      "ĠEd": 3246,
      "Ġstruc": 3247,
      "iza": 3248,
      "ara": 3249,
      "Ġcanno": 3250,
      "itten": 3251,
      "azing": 3252,
      "aft": 3253,
      "ĠDec": 3254,
      "partment": 3255,
      "pp": 3256,
      "Se": 3257,
      "aged": 3258,
      "Ġprevi": 3259,
      "Ġcomputer": 3260,
      "ĠHa": 3261,
      "ories": 3262,
      "Ġcreated": 3263,
      "ificati": 3264,
      "nces": 3265,
      "ification": 3266,
      "Ġfire": 3267,
      "Ġnote": 3268,
      "Ġsaw": 3269,
      "Ġnoti": 3270,
      "ĠBi": 3271,
      "Ġapplicati": 3272,
      "Ġapplication": 3273,
      "Ġtrue": 3274,
      "Ġsent": 3275,
      "lig": 3276,
      "Ġaff": 3277,
      "Ġoperat": 3278,
      "ames": 3279,
      "ller": 3280,
      "ĠWorld": 3281,
      "urn": 3282,
      "ctly": 3283,
      "olde": 3284,
      "eas": 3285,
      "save": 3286,
      "labor": 3287,
      "arden": 3288,
      "Ġhu": 3289,
      "ung": 3290,
      "##": 3291,
      "log": 3292,
      "Ġgeneral": 3293,
      "Ġcommunic": 3294,
      "Ġparty": 3295,
      "hers": 3296,
      "Ġthrougho": 3297,
      "Ġthroughou": 3298,
      "Ġthroughout": 3299,
      "Ġadditional": 3300,
      "Ġconc": 3301,
      "Ġdraw": 3302,
      "Ġsignificant": 3303,
      "Pr": 3304,
      "Ġrecog": 3305,
      "Ġhappen": 3306,
      "sitive": 3307,
      "ott": 3308,
      "Ġprivate": 3309,
      "head": 3310,
      "ouple": 3311,
      "Ġissue": 3312,
      "rough": 3313,
      "Ġveh": 3314,
      "sus": 3315,
      "ĠMu": 3316,
      "ĠStates": 3317,
      "Ġterr": 3318,
      "ister": 3319,
      "displ": 3320,
      "Ġdia": 3321,
      "nim": 3322,
      "cook": 3323,
      "ida": 3324,
      "Ġusually": 3325,
      "Ġimage": 3326,
      "insp": 3327,
      "iated": 3328,
      "nting": 3329,
      "Ġfinancial": 3330,
      "ared": 3331,
      "ĠĊ": 3332,
      "Ġchanges": 3333,
      "couple": 3334,
      "Ġlonge": 3335,
      "ĠNe": 3336,
      "Ġlonger": 3337,
      "Ġbott": 3338,
      "Ġsecurity": 3339,
      "lin": 3340,
      "squ": 3341,
      "court": 3342,
      "chan": 3343,
      "Ġdetails": 3344,
      "Ġdiscuss": 3345,
      "hes": 3346,
      "Ġsense": 3347,
      "ĠInc": 3348,
      "parat": 3349,
      "cio": 3350,
      "national": 3351,
      "onic": 3352,
      "tree": 3353,
      "mission": 3354,
      "tru": 3355,
      "Ġcannot": 3356,
      "dest": 3357,
      "orpor": 3358,
      "Re": 3359,
      "som": 3360,
      "Ġdispl": 3361,
      "Ġrequir": 3362,
      "Ġexa": 3363,
      "Ġcouple": 3364,
      "affe": 3365,
      "Ġtakes": 3366,
      "Ġvehicle": 3367,
      "Ġclients": 3368,
      "ĠHar": 3369,
      "Ġcontra": 3370,
      "lities": 3371,
      "iam": 3372,
      "Ġloca": 3373,
      "Ġpick": 3374,
      "Ġsave": 3375,
      "rap": 3376,
      "ances": 3377,
      "Ġcop": 3378,
      "Ġmanufac": 3379,
      "Ġchalleng": 3380,
      "Ġchallenge": 3381,
      "Ġskin": 3382,
      "IC": 3383,
      "ĠFre": 3384,
      "Ġdifficult": 3385,
      "Ġlearning": 3386,
      "fully": 3387,
      "Ġopportunity": 3388,
      "langu": 3389,
      "Ġcook": 3390,
      "Ġincrease": 3391,
      "erna": 3392,
      "Ġreceived": 3393,
      "loss": 3394,
      "ature": 3395,
      "ĠMarc": 3396,
      "charge": 3397,
      "Ġfloor": 3398,
      "Ġconnect": 3399,
      "isn": 3400,
      "Ġbuilt": 3401,
      "ĠTH": 3402,
      "Ġlocat": 3403,
      "Ġlocated": 3404,
      "asily": 3405,
      "Ġhappy": 3406,
      "zen": 3407,
      "ency": 3408,
      "Wh": 3409,
      "sor": 3410,
      "rule": 3411,
      "cele": 3412,
      "Ġeyes": 3413,
      "Ġregular": 3414,
      "otal": 3415,
      "Ġdeal": 3416,
      "Ġguide": 3417,
      "ju": 3418,
      "Ġnice": 3419,
      "ipment": 3420,
      "Ġhigher": 3421,
      "oni": 3422,
      "ĠPart": 3423,
      "Ġproduce": 3424,
      "Ġlen": 3425,
      "Ġtreatment": 3426,
      "aid": 3427,
      "Ġcourt": 3428,
      "Ġforc": 3429,
      "Ġclick": 3430,
      "ats": 3431,
      "Ġave": 3432,
      "izat": 3433,
      "egan": 3434,
      "Ġeducati": 3435,
      "izati": 3436,
      "ization": 3437,
      "Ġeducation": 3438,
      "ouse": 3439,
      "ampa": 3440,
      "Ġrunning": 3441,
      "Ġisn": 3442,
      "ades": 3443,
      "ĠApr": 3444,
      "Ġmodel": 3445,
      "Ġpoints": 3446,
      "Ġexpress": 3447,
      "ĠSan": 3448,
      "Ġpretty": 3449,
      "Ġfast": 3450,
      "Ġleg": 3451,
      "ief": 3452,
      "Ġcente": 3453,
      "Ġwatch": 3454,
      "Ġfocus": 3455,
      "ae": 3456,
      "Ġpan": 3457,
      "ĠBy": 3458,
      "ĠChe": 3459,
      "coun": 3460,
      "Ġrule": 3461,
      "Ġcontinue": 3462,
      "Ġcharge": 3463,
      "Ġtru": 3464,
      "Ġpolic": 3465,
      "easily": 3466,
      "AC": 3467,
      "Ġrad": 3468,
      "Ġtree": 3469,
      "Ġmoment": 3470,
      "nch": 3471,
      "asti": 3472,
      "Ġmob": 3473,
      "ĠCont": 3474,
      "Ġhair": 3475,
      "Ġexpect": 3476,
      "Ġinsurance": 3477,
      "Ġvers": 3478,
      "Ġemployee": 3479,
      "Ġinternational": 3480,
      "Ġconcern": 3481,
      "place": 3482,
      "Ġpark": 3483,
      "Ġdest": 3484,
      "ubli": 3485,
      "hib": 3486,
      "Ġeasily": 3487,
      "Ġstu": 3488,
      "stitut": 3489,
      "Ġversi": 3490,
      "Ġmin": 3491,
      "cool": 3492,
      "Ġaccording": 3493,
      "Ġdescrib": 3494,
      "Ġquickl": 3495,
      "Ġinsp": 3496,
      "Ġquickly": 3497,
      "pair": 3498,
      "wise": 3499,
      "aily": 3500,
      "total": 3501,
      "Ġmaterial": 3502,
      "Ġlangu": 3503,
      "oan": 3504,
      "Ġmorning": 3505,
      "Ġversion": 3506,
      "eep": 3507,
      "giving": 3508,
      "anim": 3509,
      "emi": 3510,
      "Ġfilm": 3511,
      "ilities": 3512,
      "ĠOp": 3513,
      "Ġfile": 3514,
      "leve": 3515,
      "shing": 3516,
      "uni": 3517,
      "nate": 3518,
      "aging": 3519,
      "Ġkids": 3520,
      "Ġnational": 3521,
      "Ġcoun": 3522,
      "Ġactivities": 3523,
      "ublic": 3524,
      "ops": 3525,
      "Ġskills": 3526,
      "dea": 3527,
      "looked": 3528,
      "trip": 3529,
      "stant": 3530,
      "Our": 3531,
      "Ġdefin": 3532,
      "ĠAr": 3533,
      "Ġcenter": 3534,
      "Ġpreve": 3535,
      "egree": 3536,
      "ground": 3537,
      "Ġtotal": 3538,
      "Ġcompet": 3539,
      "Ġpotential": 3540,
      "RE": 3541,
      "ĠAu": 3542,
      "Ġusers": 3543,
      "Ġcy": 3544,
      "Ġmot": 3545,
      "Ġbil": 3546,
      "....": 3547,
      "Ġphys": 3548,
      "Ġloss": 3549,
      "degree": 3550,
      "Ġitself": 3551,
      "Ġwrite": 3552,
      "ĠJust": 3553,
      "Ġbegan": 3554,
      "wish": 3555,
      "ĠWill": 3556,
      "Ġshows": 3557,
      "Ġaffe": 3558,
      "ciou": 3559,
      "Ġwall": 3560,
      "cious": 3561,
      "Ġintrod": 3562,
      "arth": 3563,
      "Ġshall": 3564,
      "Ġweeks": 3565,
      "Ġworked": 3566,
      "spon": 3567,
      "camp": 3568,
      "Ġsuper": 3569,
      "ĠWar": 3570,
      "Ġcool": 3571,
      "Ġfeeling": 3572,
      "spective": 3573,
      "imum": 3574,
      "itch": 3575,
      "Ġround": 3576,
      "ecame": 3577,
      "Ġtalk": 3578,
      "Ġgrowt": 3579,
      "ser": 3580,
      "Ġcaree": 3581,
      "Ġemp": 3582,
      "Ġnorm": 3583,
      "Ġnews": 3584,
      "Ġexcelle": 3585,
      "iddle": 3586,
      "Ġbecame": 3587,
      "Ġemb": 3588,
      "Ġseems": 3589,
      "Ġcareer": 3590,
      "Ġmother": 3591,
      "Ġarc": 3592,
      "Ġgrowth": 3593,
      "Ġfix": 3594,
      "Ġstandard": 3595,
      "Ġser": 3596,
      "Ġitems": 3597,
      "Ġwish": 3598,
      "astic": 3599,
      "www": 3600,
      "ĠPo": 3601,
      "Ġx": 3602,
      "Ġincluded": 3603,
      "Ġret": 3604,
      "Ġanyone": 3605,
      "Ġtrip": 3606,
      "Ġcurrentl": 3607,
      "Ġcurrently": 3608,
      "Ġproducti": 3609,
      "Ġproduction": 3610,
      "Ġnecessary": 3611,
      "Ġhands": 3612,
      "Ġreading": 3613,
      "ĠCompa": 3614,
      "ells": 3615,
      "Ġthemselves": 3616,
      "Ġdifference": 3617,
      "Ġprojects": 3618,
      "ysis": 3619,
      "Ġvariety": 3620,
      "back": 3621,
      "nks": 3622,
      "Ġannounc": 3623,
      "haps": 3624,
      "Ġbran": 3625,
      "Ġprio": 3626,
      "Ġfresh": 3627,
      "Ġsetting": 3628,
      "Ġprior": 3629,
      "ĠCente": 3630,
      "Ġsales": 3631,
      "ibl": 3632,
      "istr": 3633,
      "ery": 3634,
      "ĠNow": 3635,
      "ĠReg": 3636,
      "Ġgreen": 3637,
      "Ġfelt": 3638,
      "Ġeffic": 3639,
      "ĠMc": 3640,
      "dise": 3641,
      "ui": 3642,
      "Ġcele": 3643,
      "ondon": 3644,
      "Ġopti": 3645,
      "point": 3646,
      "Ġfai": 3647,
      "Ġbase": 3648,
      "Ġprope": 3649,
      "uced": 3650,
      "ĠNov": 3651,
      "len": 3652,
      "Ġanim": 3653,
      "rating": 3654,
      "Ġterms": 3655,
      "Ġinstall": 3656,
      "tching": 3657,
      "Ġintegr": 3658,
      "Ġlives": 3659,
      "Ġbooks": 3660,
      "inary": 3661,
      "ving": 3662,
      "centu": 3663,
      "Ġmodern": 3664,
      "ĠThen": 3665,
      "ĠGerm": 3666,
      "slan": 3667,
      "ĠApri": 3668,
      "Ġena": 3669,
      "Ġapproach": 3670,
      "Ġdegree": 3671,
      "wed": 3672,
      "essi": 3673,
      "Ġforce": 3674,
      "Ġlooked": 3675,
      "Ġsumme": 3676,
      "rents": 3677,
      "Ġdea": 3678,
      "Ġsummer": 3679,
      "lost": 3680,
      "oop": 3681,
      "lute": 3682,
      "ĠIndia": 3683,
      "Ġimprove": 3684,
      "Ġrecent": 3685,
      "Ġlowe": 3686,
      "rec": 3687,
      "cro": 3688,
      "ĠCounty": 3689,
      "ebook": 3690,
      "ĠSoc": 3691,
      "just": 3692,
      "Ġlooks": 3693,
      "Ġallows": 3694,
      "ĠCenter": 3695,
      "Ġmass": 3696,
      "ĠApril": 3697,
      "Ġbrand": 3698,
      "With": 3699,
      "Ġbill": 3700,
      "Ġfavorite": 3701,
      "sland": 3702,
      "rday": 3703,
      "anced": 3704,
      "acy": 3705,
      "slow": 3706,
      "Ġparts": 3707,
      "sual": 3708,
      "rly": 3709,
      "Ġhol": 3710,
      "Ġrelated": 3711,
      "este": 3712,
      "death": 3713,
      "Ġfore": 3714,
      "Ġboard": 3715,
      "some": 3716,
      "Ġcamp": 3717,
      "Ġimmed": 3718,
      "Ġhimself": 3719,
      "Ġconditions": 3720,
      "wel": 3721,
      "Ġins": 3722,
      "ĠHigh": 3723,
      "ĠAustral": 3724,
      "ya": 3725,
      "Ġcredit": 3726,
      "Ġknew": 3727,
      "Ġsou": 3728,
      "Ġoption": 3729,
      "targe": 3730,
      "Ġlocati": 3731,
      "Ġamazing": 3732,
      "Ġlocation": 3733,
      "olu": 3734,
      "una": 3735,
      "Ġsched": 3736,
      "Ġmedical": 3737,
      "fri": 3738,
      "Ġimmediate": 3739,
      "Ġkitchen": 3740,
      "ĠEnglish": 3741,
      "touch": 3742,
      "Ġmyself": 3743,
      "trust": 3744,
      "Ġlost": 3745,
      "Ġsport": 3746,
      "ĠPark": 3747,
      "Ġlower": 3748,
      "Ġpatients": 3749,
      "inno": 3750,
      "Ġfeed": 3751,
      "instead": 3752,
      "tin": 3753,
      "Ġdisplay": 3754,
      "lad": 3755,
      "ison": 3756,
      "Ġslow": 3757,
      "ĠMon": 3758,
      "ham": 3759,
      "hood": 3760,
      "opping": 3761,
      "Ġpain": 3762,
      "Ġcelebr": 3763,
      "Ġpolicy": 3764,
      "Ġability": 3765,
      "isti": 3766,
      "Ġmarketing": 3767,
      "Ġmaterials": 3768,
      "Ġdeath": 3769,
      "Ġexpa": 3770,
      "eck": 3771,
      "atest": 3772,
      "udg": 3773,
      "fric": 3774,
      "Ġente": 3775,
      "Ġut": 3776,
      "ĠCom": 3777,
      "Ġcross": 3778,
      "ĠSm": 3779,
      "ĠRi": 3780,
      "Ġlog": 3781,
      "ibe": 3782,
      "urnal": 3783,
      "oogle": 3784,
      "ĠHer": 3785,
      "Ġcommit": 3786,
      "ema": 3787,
      "Ġleve": 3788,
      "ĠOct": 3789,
      "Ġimpac": 3790,
      "frica": 3791,
      "Ġsqu": 3792,
      "Ġinstead": 3793,
      "based": 3794,
      "Ġtrust": 3795,
      "text": 3796,
      "//": 3797,
      "Ġproviding": 3798,
      "Ġwarm": 3799,
      "aby": 3800,
      "My": 3801,
      "Ġgrad": 3802,
      "eo": 3803,
      "ential": 3804,
      "Ġtarge": 3805,
      "ĠMarch": 3806,
      "Ġcosts": 3807,
      "icul": 3808,
      "Ġworth": 3809,
      "Ġscreen": 3810,
      "latest": 3811,
      "arter": 3812,
      "Ġheat": 3813,
      "arl": 3814,
      "ĠLo": 3815,
      "Ġwritten": 3816,
      "ĠHom": 3817,
      "Ġtouch": 3818,
      "ĠAir": 3819,
      "tured": 3820,
      "althy": 3821,
      "Ġletter": 3822,
      "rable": 3823,
      "Ġstock": 3824,
      "Ġlatest": 3825,
      "Ġchance": 3826,
      "ĠHouse": 3827,
      "__": 3828,
      "akes": 3829,
      "Ġinno": 3830,
      "Ġoccur": 3831,
      "Ġlegal": 3832,
      "Ġtravel": 3833,
      "Ġcau": 3834,
      "hus": 3835,
      "Ġagre": 3836,
      "Ġdema": 3837,
      "Ġprim": 3838,
      "san": 3839,
      "Ġfan": 3840,
      "ĠÐ": 3841,
      "Ġhit": 3842,
      "Ġprograms": 3843,
      "Ġweight": 3844,
      "Ġequipment": 3845,
      "lutions": 3846,
      "Ġplatform": 3847,
      "Ġpaint": 3848,
      "Ġattention": 3849,
      "Ġplayers": 3850,
      "Ġanti": 3851,
      "??": 3852,
      "Ġremember": 3853,
      "Ġrecently": 3854,
      "Ġleading": 3855,
      "Ġwar": 3856,
      "trea": 3857,
      "Ġphotograp": 3858,
      "Ġpea": 3859,
      "Ġpurchase": 3860,
      "rrow": 3861,
      "Ġsurp": 3862,
      "Ġones": 3863,
      "sday": 3864,
      "Ġtemp": 3865,
      "Ġrelease": 3866,
      "cance": 3867,
      "Ġspir": 3868,
      "Ġru": 3869,
      "nte": 3870,
      "Ġimpact": 3871,
      "Ġtypes": 3872,
      "Ġhear": 3873,
      "Ġinvolved": 3874,
      "gave": 3875,
      "Ġorgani": 3876,
      "Ġwalk": 3877,
      "Ġtit": 3878,
      "Ġmachine": 3879,
      "tics": 3880,
      "Ġ#": 3881,
      "Ġstudent": 3882,
      "aught": 3883,
      "istic": 3884,
      "Ġgoal": 3885,
      "Ġrepresent": 3886,
      "Ġsale": 3887,
      "Ġblood": 3888,
      "Ġturned": 3889,
      "Ġfacto": 3890,
      "ĠLondon": 3891,
      "ague": 3892,
      "Ġspeed": 3893,
      "Ġsubject": 3894,
      "ĠAg": 3895,
      "Ġhighly": 3896,
      "uati": 3897,
      "lers": 3898,
      "rner": 3899,
      "Ġaward": 3900,
      "uation": 3901,
      "Ġwasn": 3902,
      "\".": 3903,
      "Ġsolution": 3904,
      "Ġcases": 3905,
      "Ġlevels": 3906,
      "ĠWhile": 3907,
      "ĠManag": 3908,
      "Ġsold": 3909,
      "Ġblock": 3910,
      "--": 3911,
      "sfer": 3912,
      "Ġdecis": 3913,
      "Ġdecisi": 3914,
      "nsfer": 3915,
      "avy": 3916,
      "ercial": 3917,
      "ansfer": 3918,
      "cided": 3919,
      "Ġcollection": 3920,
      "Ġtraditional": 3921,
      "Ġdecision": 3922,
      "nual": 3923,
      "Ġfine": 3924,
      "Ġgave": 3925,
      "OU": 3926,
      "Ġindi": 3927,
      "eur": 3928,
      "ĠFac": 3929,
      "amo": 3930,
      "ĠAug": 3931,
      "ĠGo": 3932,
      "Ġroo": 3933,
      "Ġvoice": 3934,
      "ĠFro": 3935,
      "bor": 3936,
      "Ġenco": 3937,
      "Ġencou": 3938,
      "Ġeme": 3939,
      "ecided": 3940,
      "tus": 3941,
      "Ġautom": 3942,
      "ĠUK": 3943,
      "decided": 3944,
      "Ġhar": 3945,
      "Ġcance": 3946,
      "Ġexcellent": 3947,
      "shi": 3948,
      "Ġgiving": 3949,
      "Ġcontrac": 3950,
      "Ġdecided": 3951,
      "turing": 3952,
      "wer": 3953,
      "ĠGl": 3954,
      "ession": 3955,
      "Ġindividu": 3956,
      "Ġimm": 3957,
      "Ġdise": 3958,
      "Ġstren": 3959,
      "ĠSept": 3960,
      "ĠKa": 3961,
      "itter": 3962,
      "ĠIr": 3963,
      "Ġvic": 3964,
      "OT": 3965,
      "daily": 3966,
      "dg": 3967,
      "ĠAfrica": 3968,
      "Ġdirectly": 3969,
      "ffice": 3970,
      "rope": 3971,
      "tw": 3972,
      "dry": 3973,
      "tego": 3974,
      "ride": 3975,
      "Ġglass": 3976,
      "hol": 3977,
      "Ġheard": 3978,
      "Ġfather": 3979,
      "ripti": 3980,
      "cide": 3981,
      "Ġabso": 3982,
      "ological": 3983,
      "ests": 3984,
      "ĠNa": 3985,
      "Ġgives": 3986,
      "Ġparents": 3987,
      "ĠDi": 3988,
      "ĠJune": 3989,
      "://": 3990,
      "task": 3991,
      "ription": 3992,
      "Ġhuge": 3993,
      "Ġcountries": 3994,
      "Ġtools": 3995,
      "Ġarch": 3996,
      "inju": 3997,
      "Ġsend": 3998,
      "At": 3999,
      "Ġnature": 4000,
      "loved": 4001,
      "Ġplans": 4002,
      "Ġsort": 4003,
      "avio": 4004,
      "nsport": 4005,
      "ĠRob": 4006,
      "ansport": 4007,
      "tives": 4008,
      "oving": 4009,
      "Ġsurface": 4010,
      "Ġsource": 4011,
      "Ġdaily": 4012,
      "Ġfactor": 4013,
      "apte": 4014,
      "itati": 4015,
      "opr": 4016,
      "bility": 4017,
      "OS": 4018,
      "apter": 4019,
      "Ġthinking": 4020,
      "Ġresources": 4021,
      "Ġattr": 4022,
      "opped": 4023,
      "Ġtext": 4024,
      "ony": 4025,
      "itation": 4026,
      "bou": 4027,
      "uments": 4028,
      "dd": 4029,
      "Ġfight": 4030,
      "Ġeffect": 4031,
      "ern": 4032,
      "Ġqual": 4033,
      "Ġbenefits": 4034,
      "lm": 4035,
      "ĠHome": 4036,
      "za": 4037,
      "aint": 4038,
      "Ġgar": 4039,
      "dark": 4040,
      "Ġtrea": 4041,
      "Ġattem": 4042,
      "Ġextreme": 4043,
      "ured": 4044,
      "Ġgran": 4045,
      "ĠFrom": 4046,
      "Ġliste": 4047,
      "Ġinju": 4048,
      "Ġforme": 4049,
      "Ġtask": 4050,
      "Ġseri": 4051,
      "inge": 4052,
      "eyond": 4053,
      "Ġaverage": 4054,
      "Ġmobile": 4055,
      "ober": 4056,
      "ka": 4057,
      "Ġcompletel": 4058,
      "ĠPlease": 4059,
      "Ġcompletely": 4060,
      "itel": 4061,
      "Ġsecti": 4062,
      "Ġsection": 4063,
      "Ġsafety": 4064,
      "deep": 4065,
      "ense": 4066,
      "Ġplea": 4067,
      "Ġprint": 4068,
      "Ġgoe": 4069,
      "Ġfal": 4070,
      "Ġsometimes": 4071,
      "Ġgroups": 4072,
      "rnational": 4073,
      "Ġfunct": 4074,
      "ample": 4075,
      "ĠGeo": 4076,
      "ounts": 4077,
      "Ġfuncti": 4078,
      "Ġwoma": 4079,
      "Ġ*": 4080,
      "Ġfeet": 4081,
      "Ġrestaur": 4082,
      "iture": 4083,
      "house": 4084,
      "AM": 4085,
      "Ġmultiple": 4086,
      "Ġcomplex": 4087,
      "Ġsuit": 4088,
      "Ġfully": 4089,
      "Ġwoman": 4090,
      "ttern": 4091,
      "Ġlanguage": 4092,
      "iring": 4093,
      "nha": 4094,
      "Ġmention": 4095,
      "nuary": 4096,
      "ĠWind": 4097,
      "Ġsolutions": 4098,
      "Ġindic": 4099,
      "Ġclos": 4100,
      "Ġtowards": 4101,
      "Ġexecu": 4102,
      "Ġactive": 4103,
      "Ġmoun": 4104,
      "Ġreach": 4105,
      "Ġdark": 4106,
      "Ġgoes": 4107,
      "ampaign": 4108,
      "apan": 4109,
      "Ġmaintain": 4110,
      "Ġdisease": 4111,
      "Ġdigital": 4112,
      "ibly": 4113,
      "ĠKing": 4114,
      "nsa": 4115,
      "Ġfigure": 4116,
      "ĠInternational": 4117,
      "Ġinterv": 4118,
      "Ġplaying": 4119,
      "Ġinteresting": 4120,
      "board": 4121,
      "ĠYe": 4122,
      "ĠDay": 4123,
      "lus": 4124,
      "century": 4125,
      "ĠSpa": 4126,
      "Ġimages": 4127,
      "Ġcontract": 4128,
      "weet": 4129,
      "Ġded": 4130,
      "Ġhelps": 4131,
      "Ġwrong": 4132,
      "smi": 4133,
      "ãģ": 4134,
      "rights": 4135,
      "Ġrefer": 4136,
      "itely": 4137,
      "Ġupdate": 4138,
      "Ġconse": 4139,
      "Ġpositive": 4140,
      "Ġconduc": 4141,
      "Ġreside": 4142,
      "iff": 4143,
      "nner": 4144,
      "Ġcommunica": 4145,
      "Ġcommunicat": 4146,
      "cting": 4147,
      "Ġfeature": 4148,
      "liver": 4149,
      "dream": 4150,
      "Ġglobal": 4151,
      "Ġpicture": 4152,
      "Ġ:": 4153,
      "ek": 4154,
      "Ġfall": 4155,
      "uel": 4156,
      "Ġpolitical": 4157,
      "Ġdeep": 4158,
      "rade": 4159,
      "Ġeas": 4160,
      "All": 4161,
      "nable": 4162,
      "Ġcru": 4163,
      "ipped": 4164,
      "vent": 4165,
      "That": 4166,
      "cqu": 4167,
      "Ġorganiza": 4168,
      "Ġbrought": 4169,
      "ĠAcc": 4170,
      "Ġconsidered": 4171,
      "Ġorganizat": 4172,
      "Ġorganizati": 4173,
      "Ġorganization": 4174,
      "Ġdry": 4175,
      "Ġadmini": 4176,
      "word": 4177,
      "Ġdeveloped": 4178,
      "Ġcarry": 4179,
      "AP": 4180,
      "Ġpred": 4181,
      "sumer": 4182,
      "ray": 4183,
      "Ġmid": 4184,
      "dead": 4185,
      "Ġoffering": 4186,
      "Ġmatch": 4187,
      "Ġplanning": 4188,
      "loan": 4189,
      "olic": 4190,
      "Ġbirth": 4191,
      "mpo": 4192,
      "lage": 4193,
      "ransfer": 4194,
      "Ġplaces": 4195,
      "gets": 4196,
      "imatel": 4197,
      "imately": 4198,
      "ishe": 4199,
      "ĠOf": 4200,
      "Ġprices": 4201,
      "ĠMac": 4202,
      "Ġconsist": 4203,
      "lack": 4204,
      "ĠRuss": 4205,
      "Ġfirm": 4206,
      "igi": 4207,
      "ĠAssoc": 4208,
      "izing": 4209,
      "ĠSpe": 4210,
      "anch": 4211,
      "nio": 4212,
      "Ġdoct": 4213,
      "irs": 4214,
      "Ġbag": 4215,
      "garden": 4216,
      "Ðµ": 4217,
      "Ġsce": 4218,
      "Ġapa": 4219,
      "Ġval": 4220,
      "pat": 4221,
      "Ġblue": 4222,
      "ckets": 4223,
      "ĠMore": 4224,
      "Ġfacil": 4225,
      "ĠFeb": 4226,
      "aine": 4227,
      "nna": 4228,
      "syc": 4229,
      "One": 4230,
      "Ġsleep": 4231,
      "iers": 4232,
      "Ġsecu": 4233,
      "unte": 4234,
      "Ġrepair": 4235,
      "Ġtw": 4236,
      "tried": 4237,
      "Ġdream": 4238,
      "itary": 4239,
      "Ġrights": 4240,
      "Ġ...": 4241,
      "atego": 4242,
      "Ġdress": 4243,
      "ffee": 4244,
      "atch": 4245,
      "Ġanaly": 4246,
      "oning": 4247,
      "eigh": 4248,
      "Ġvot": 4249,
      "Ġrequirements": 4250,
      "Ġseparat": 4251,
      "Ġreduce": 4252,
      "igati": 4253,
      "ecl": 4254,
      "Ġeat": 4255,
      "stitute": 4256,
      "igation": 4257,
      "Ġtried": 4258,
      "ials": 4259,
      "Ġexpected": 4260,
      "irect": 4261,
      "ĠWeb": 4262,
      "ĠJuly": 4263,
      "ĠEa": 4264,
      "ored": 4265,
      "rock": 4266,
      "mpt": 4267,
      "ĠJanuary": 4268,
      "orpora": 4269,
      "Ġdead": 4270,
      "ana": 4271,
      "Ġtechnique": 4272,
      "Ġgarden": 4273,
      "ĠPhi": 4274,
      "amm": 4275,
      "orporat": 4276,
      "dge": 4277,
      "actions": 4278,
      "Ġattack": 4279,
      "Ġled": 4280,
      "Ġsuccessful": 4281,
      "ĠChina": 4282,
      "chang": 4283,
      "ĠBlack": 4284,
      "Ġep": 4285,
      "Ġvote": 4286,
      "Ġhisto": 4287,
      "acqu": 4288,
      ".'": 4289,
      "nati": 4290,
      "Ġapply": 4291,
      "ashing": 4292,
      "Ġ**": 4293,
      "div": 4294,
      "lots": 4295,
      "transfer": 4296,
      "Ġsho": 4297,
      "ĠOpe": 4298,
      "Ġpublished": 4299,
      "ĠSeptember": 4300,
      "Ġlimited": 4301,
      "neigh": 4302,
      "Ġmoving": 4303,
      "Ġdom": 4304,
      "Ġphysical": 4305,
      "ING": 4306,
      "ĠHere": 4307,
      "âĢĿ.": 4308,
      "ĠFe": 4309,
      "tena": 4310,
      "iable": 4311,
      "illing": 4312,
      "Ġloan": 4313,
      "ĠTu": 4314,
      "ipping": 4315,
      "gy": 4316,
      "Ġsituation": 4317,
      "ĠAlt": 4318,
      "pli": 4319,
      "casi": 4320,
      "Ġsites": 4321,
      "ford": 4322,
      "change": 4323,
      "Ġinterested": 4324,
      "Ġexactly": 4325,
      "Ġprem": 4326,
      "Ġimpress": 4327,
      "Ġneigh": 4328,
      "Ġformer": 4329,
      "sher": 4330,
      "ky": 4331,
      "Ġconver": 4332,
      "ĠGra": 4333,
      "ĠOctober": 4334,
      "Ġunderstanding": 4335,
      "Ġmeasure": 4336,
      "Ġadvant": 4337,
      "set": 4338,
      "Ġprogress": 4339,
      "Ġapart": 4340,
      "Ġcreating": 4341,
      "Ġpath": 4342,
      "undred": 4343,
      "cks": 4344,
      "Ġclient": 4345,
      "ĠPresident": 4346,
      "bs": 4347,
      "Ġdrug": 4348,
      "ĠRed": 4349,
      "cry": 4350,
      "ĠRep": 4351,
      "ependent": 4352,
      "Ġhistor": 4353,
      "Ġpattern": 4354,
      "ttle": 4355,
      "sych": 4356,
      "Ġanalysis": 4357,
      "lock": 4358,
      "OM": 4359,
      "Ġtransfer": 4360,
      "Ġeva": 4361,
      "ĠGoogle": 4362,
      "ĠOffice": 4363,
      "Ġpressure": 4364,
      "ĠAugust": 4365,
      "Ġacqu": 4366,
      "leased": 4367,
      "dding": 4368,
      "ĠPet": 4369,
      "ĠTV": 4370,
      "EC": 4371,
      "band": 4372,
      "ittee": 4373,
      "ĠJapan": 4374,
      "Ġphotos": 4375,
      "iforn": 4376,
      "ĠPhil": 4377,
      "Do": 4378,
      "Ġcollege": 4379,
      "campaign": 4380,
      "rround": 4381,
      "ĠThu": 4382,
      "She": 4383,
      "Ġtempe": 4384,
      "put": 4385,
      "liter": 4386,
      "Ġbeginning": 4387,
      "Ġplant": 4388,
      "Ġgrowing": 4389,
      "Ġindividuals": 4390,
      "Ġspen": 4391,
      "rch": 4392,
      "ĠSim": 4393,
      "Ġspend": 4394,
      "tton": 4395,
      "ĠStr": 4396,
      "Ð¾": 4397,
      "aph": 4398,
      "Ġcampaign": 4399,
      "ante": 4400,
      "wards": 4401,
      "Ġtemper": 4402,
      "ET": 4403,
      "Ġmax": 4404,
      "Ġmedi": 4405,
      "Ġpul": 4406,
      "ando": 4407,
      "Ġprinc": 4408,
      "ropean": 4409,
      "Ġstarting": 4410,
      "shed": 4411,
      "Ġaim": 4412,
      "key": 4413,
      "tim": 4414,
      "Ġconstruction": 4415,
      "ST": 4416,
      "oner": 4417,
      "oast": 4418,
      "Ġapplications": 4419,
      "oat": 4420,
      "ĠAut": 4421,
      "cash": 4422,
      "Ġdiv": 4423,
      "Ġprevio": 4424,
      "After": 4425,
      "Ġpreviou": 4426,
      "Ġprevious": 4427,
      "ĠHealth": 4428,
      "ribute": 4429,
      "Ġclub": 4430,
      "Ġwonderful": 4431,
      "cations": 4432,
      "ifornia": 4433,
      "Ġplayed": 4434,
      "irm": 4435,
      "ĠEven": 4436,
      "olut": 4437,
      "iance": 4438,
      "Ġ--": 4439,
      "owd": 4440,
      "Ġregi": 4441,
      "Ġcamer": 4442,
      "spite": 4443,
      "rations": 4444,
      "rick": 4445,
      "Ġexerc": 4446,
      "Ġinflue": 4447,
      "ĠAN": 4448,
      "Ġactivity": 4449,
      "apo": 4450,
      "Ġofficial": 4451,
      "avid": 4452,
      "Ġfunction": 4453,
      "Ġdog": 4454,
      "itish": 4455,
      "Ġalterna": 4456,
      "Ġcommercial": 4457,
      "Ġprovider": 4458,
      "Ġmeaning": 4459,
      "vat": 4460,
      "Ġregion": 4461,
      "Ġmessage": 4462,
      "inate": 4463,
      "oluti": 4464,
      "hest": 4465,
      "Ġsati": 4466,
      "Ġbeyond": 4467,
      "Ġbusinesse": 4468,
      "Ġbusinesses": 4469,
      "Ġsatis": 4470,
      "Ġnotic": 4471,
      "Ġsan": 4472,
      "Ġstorage": 4473,
      "ĠAdd": 4474,
      "trade": 4475,
      "dol": 4476,
      "ĠEvery": 4477,
      "Ġlab": 4478,
      "Ġquo": 4479,
      "Ġplu": 4480,
      "Ġearl": 4481,
      "yl": 4482,
      "vel": 4483,
      "Ġresponse": 4484,
      "decl": 4485,
      "Ġwait": 4486,
      "Ġshape": 4487,
      "ĠDecember": 4488,
      "Ġautoma": 4489,
      "Ġstress": 4490,
      "EL": 4491,
      "Ġemployees": 4492,
      "Ġdocument": 4493,
      "tea": 4494,
      "ĠPort": 4495,
      "ĠWel": 4496,
      "Ġspent": 4497,
      "Ġframe": 4498,
      "eight": 4499,
      "hurch": 4500,
      "catego": 4501,
      "ederal": 4502,
      "Ġpurpose": 4503,
      "ĠLi": 4504,
      "Ġautomat": 4505,
      "ipl": 4506,
      "Ġload": 4507,
      "Ġgets": 4508,
      "Ġcash": 4509,
      "Ġsurround": 4510,
      "ĠCu": 4511,
      "dom": 4512,
      "Ġstage": 4513,
      "Ġfab": 4514,
      "Ġexcl": 4515,
      "cab": 4516,
      "Ġbehavio": 4517,
      "erally": 4518,
      "nest": 4519,
      "Ġphoto": 4520,
      "Ġcertainl": 4521,
      "Ġcertainly": 4522,
      "body": 4523,
      "ears": 4524,
      "Ex": 4525,
      "ĠNovember": 4526,
      "ĠGreat": 4527,
      "ĠVa": 4528,
      "mou": 4529,
      "Ġdecl": 4530,
      "ĠPat": 4531,
      "ĠGroup": 4532,
      "serve": 4533,
      "Ġsel": 4534,
      "plat": 4535,
      "cold": 4536,
      "zz": 4537,
      "alent": 4538,
      "ĠChristmas": 4539,
      "Ġassess": 4540,
      "nior": 4541,
      "Ġreleased": 4542,
      "Ġimag": 4543,
      "Ġarra": 4544,
      "Ġhealthy": 4545,
      "Ġhosp": 4546,
      "Ġadvi": 4547,
      "Ġult": 4548,
      "Ġsuffe": 4549,
      "ige": 4550,
      "Ġvil": 4551,
      "wife": 4552,
      "ughte": 4553,
      "ughter": 4554,
      "ransport": 4555,
      "Ġpaid": 4556,
      "Ġscen": 4557,
      "older": 4558,
      "Ġoffered": 4559,
      "Ġopportunities": 4560,
      "Ġalone": 4561,
      "fl": 4562,
      "thes": 4563,
      "Ġprefer": 4564,
      "Ġbenefit": 4565,
      "ives": 4566,
      "Ġloved": 4567,
      "Ġhote": 4568,
      "Ġborn": 4569,
      "larg": 4570,
      "lines": 4571,
      "ĠMost": 4572,
      "Ġdocto": 4573,
      "ĠRom": 4574,
      "Ġarran": 4575,
      "ĠDon": 4576,
      "Ġhotel": 4577,
      "church": 4578,
      "Ġmini": 4579,
      "Ġstuff": 4580,
      "ID": 4581,
      "mmo": 4582,
      "Ġball": 4583,
      "Ġrock": 4584,
      "ites": 4585,
      "Ġtrade": 4586,
      "aril": 4587,
      "ĠPar": 4588,
      "Ġhundred": 4589,
      "Ġscience": 4590,
      "Ġpictures": 4591,
      "oca": 4592,
      "Ġaccept": 4593,
      "Ġemo": 4594,
      "ĠAct": 4595,
      "Ġuses": 4596,
      "Ġemerg": 4597,
      "Ġtea": 4598,
      "Ġfamilies": 4599,
      "eau": 4600,
      "enha": 4601,
      "Ġholiday": 4602,
      "IL": 4603,
      "Ġappropr": 4604,
      "ĠAb": 4605,
      "gage": 4606,
      "ands": 4607,
      "used": 4608,
      "Ġmoved": 4609,
      "ferences": 4610,
      "gold": 4611,
      "Ġdefinitely": 4612,
      "Ġcopy": 4613,
      "Ġfinall": 4614,
      "Ġfinally": 4615,
      "aye": 4616,
      "ĠTHE": 4617,
      "ĠCalifornia": 4618,
      "Pe": 4619,
      "ompo": 4620,
      "mpon": 4621,
      "more": 4622,
      "Ġculture": 4623,
      "ompon": 4624,
      "ibrary": 4625,
      "Ġstraight": 4626,
      "Ġgoals": 4627,
      "Ġerr": 4628,
      "rian": 4629,
      "useum": 4630,
      "olat": 4631,
      "not": 4632,
      "transport": 4633,
      "sna": 4634,
      "ĠSund": 4635,
      "Ġshown": 4636,
      "Ġcold": 4637,
      "ivil": 4638,
      "ĠTime": 4639,
      "ĠEuropean": 4640,
      "lement": 4641,
      "Ġwedding": 4642,
      "ĠAlso": 4643,
      "zer": 4644,
      "Ġclea": 4645,
      "ocr": 4646,
      "Ġinvestment": 4647,
      "Ġcatego": 4648,
      "ruary": 4649,
      "avou": 4650,
      "Ġcab": 4651,
      "ĠFrench": 4652,
      "Ġnotice": 4653,
      "unat": 4654,
      "depe": 4655,
      "Ġdamage": 4656,
      "ĠII": 4657,
      "lose": 4658,
      "throom": 4659,
      "uit": 4660,
      "ccur": 4661,
      "ĠStud": 4662,
      "Ġentry": 4663,
      "Ġafford": 4664,
      "compon": 4665,
      "ndid": 4666,
      "nion": 4667,
      "nation": 4668,
      "Ġride": 4669,
      "ĠEast": 4670,
      "Ġwindow": 4671,
      "Ġliter": 4672,
      "Ġatta": 4673,
      "ĠDesign": 4674,
      "Ġavoid": 4675,
      "bi": 4676,
      "Ġappropriate": 4677,
      "Ġtransport": 4678,
      "ĠDepartment": 4679,
      "ĠFirst": 4680,
      "Ġbank": 4681,
      "Ġimmediatel": 4682,
      "Ġimmediately": 4683,
      "Ġdan": 4684,
      "ĠBook": 4685,
      "nerally": 4686,
      "ĠMan": 4687,
      "ĠBritish": 4688,
      "ended": 4689,
      "Ġeffects": 4690,
      "Ġconsumer": 4691,
      "dep": 4692,
      "Ġposted": 4693,
      "ĠFree": 4694,
      "Ġreported": 4695,
      "ooth": 4696,
      "Ġstati": 4697,
      "train": 4698,
      "Ġcondition": 4699,
      "Ġsaying": 4700,
      "compo": 4701,
      "arily": 4702,
      "offee": 4703,
      "Ġgon": 4704,
      "ĠCollege": 4705,
      "Ġcompon": 4706,
      "Ġstories": 4707,
      "unate": 4708,
      "Fr": 4709,
      "Ġcouldn": 4710,
      "Ġparticularl": 4711,
      "Ġparticularly": 4712,
      "covered": 4713,
      "Ġrecipe": 4714,
      "turer": 4715,
      "Ġschools": 4716,
      "rim": 4717,
      "Ġeight": 4718,
      "Ġband": 4719,
      "ruly": 4720,
      "Ġpages": 4721,
      "iar": 4722,
      "Ġcapital": 4723,
      "Ġenha": 4724,
      "ĠFriday": 4725,
      "nearly": 4726,
      "ĠKo": 4727,
      "Ġeasier": 4728,
      "Ġeconomic": 4729,
      "Ġbasis": 4730,
      "Ġshop": 4731,
      "Ġrecommen": 4732,
      "Ġrecommend": 4733,
      "iment": 4734,
      "oring": 4735,
      "Ġlines": 4736,
      "Ġobtain": 4737,
      "Ġpromot": 4738,
      "Ġdoctor": 4739,
      "ĠEurope": 4740,
      "kend": 4741,
      "Ġdepe": 4742,
      "amou": 4743,
      "ĠIN": 4744,
      "ĠStreet": 4745,
      "ron": 4746,
      "Ġchurch": 4747,
      "Ġpeac": 4748,
      "Ġwife": 4749,
      "Ġsoc": 4750,
      "Ġwhose": 4751,
      "Ġgrand": 4752,
      "abe": 4753,
      "Ġalthough": 4754,
      "wine": 4755,
      "wild": 4756,
      "rail": 4757,
      "Ġserver": 4758,
      "ĠLaw": 4759,
      "Ġmine": 4760,
      "Ġincreasing": 4761,
      "Ġnearly": 4762,
      "bum": 4763,
      "Ġsupply": 4764,
      "Ġgold": 4765,
      "Ġbudge": 4766,
      "heme": 4767,
      "Ġexperienced": 4768,
      "Ġscore": 4769,
      "Ġbotto": 4770,
      "Ġadvic": 4771,
      "Ġsmart": 4772,
      "sweet": 4773,
      "Ġadvice": 4774,
      "Ġfollowed": 4775,
      "arc": 4776,
      "Ġje": 4777,
      "Ġdemon": 4778,
      "ĠLu": 4779,
      "ram": 4780,
      "Ġassociated": 4781,
      "Ġlack": 4782,
      "Ġproced": 4783,
      "Ġapprec": 4784,
      "bly": 4785,
      "umer": 4786,
      "Ġbaby": 4787,
      "Ġmanager": 4788,
      "Ġperhaps": 4789,
      "ĠItal": 4790,
      "Ġbasic": 4791,
      "Ġserved": 4792,
      "epend": 4793,
      "aders": 4794,
      "Ġchanged": 4795,
      "Ġvisito": 4796,
      "Ġvisitor": 4797,
      "Ġdep": 4798,
      "Ġcolou": 4799,
      "me": 4800,
      "ome": 4801,
      "come": 4802,
      "Ġcome": 4803,
      "ecome": 4804,
      "Ġbecome": 4805,
      "Ġcomes": 4806,
      "mer": 4807,
      "men": 4808,
      "urney": 4809,
      "labora": 4810,
      "inform": 4811,
      "Ġuseful": 4812,
      "Ġdistr": 4813,
      "truly": 4814,
      "esti": 4815,
      "slat": 4816,
      "ĠCompany": 4817,
      "Le": 4818,
      "Ġspot": 4819,
      "chem": 4820,
      "Ġadjust": 4821,
      "coffee": 4822,
      "Ġpromi": 4823,
      "Ġexercise": 4824,
      "nia": 4825,
      "chae": 4826,
      "Ġstructure": 4827,
      "plate": 4828,
      "Ġpool": 4829,
      "Ġtruly": 4830,
      "ĠWork": 4831,
      "irr": 4832,
      "Ġadvert": 4833,
      "ires": 4834,
      "Ġincreased": 4835,
      "Ġgone": 4836,
      "Ġont": 4837,
      "epti": 4838,
      "Ġtrain": 4839,
      "astr": 4840,
      "yp": 4841,
      "rative": 4842,
      "lte": 4843,
      "largest": 4844,
      "Not": 4845,
      "ĠMini": 4846,
      "Ġinternet": 4847,
      "ulations": 4848,
      "Ġunit": 4849,
      "ommo": 4850,
      "Ġsna": 4851,
      "Ġdevices": 4852,
      "Ġweather": 4853,
      "Ð°": 4854,
      "Ġrelative": 4855,
      "ĠFi": 4856,
      "los": 4857,
      "Ġwild": 4858,
      "Ġpatient": 4859,
      "Ġseparate": 4860,
      "chani": 4861,
      "ĠFebruary": 4862,
      "Ġmayb": 4863,
      "Ġdouble": 4864,
      "Ġedg": 4865,
      "Ġmaybe": 4866,
      "cad": 4867,
      "tag": 4868,
      "Ġestablished": 4869,
      "Ġevidence": 4870,
      "Ġcompo": 4871,
      "gift": 4872,
      "saving": 4873,
      "overy": 4874,
      "roy": 4875,
      "ishing": 4876,
      "Ġcentury": 4877,
      "die": 4878,
      "nine": 4879,
      ".)": 4880,
      "orporate": 4881,
      "Ġhtt": 4882,
      "Ġhop": 4883,
      "ĠGreen": 4884,
      "ĠWat": 4885,
      "Ġflu": 4886,
      "lap": 4887,
      "Ġdirecto": 4888,
      "oval": 4889,
      "cles": 4890,
      "irat": 4891,
      "Ġedge": 4892,
      "Ġinstal": 4893,
      "Ġcoffee": 4894,
      "Ġnumbers": 4895,
      "They": 4896,
      "field": 4897,
      "ĠChi": 4898,
      "Ġbottom": 4899,
      "Ġlots": 4900,
      "turday": 4901,
      "is": 4902,
      "Ġis": 4903,
      "his": 4904,
      "this": 4905,
      "Ġthis": 4906,
      "dis": 4907,
      "Ġdis": 4908,
      "sis": 4909,
      "uble": 4910,
      "ja": 4911,
      "Ġoverall": 4912,
      "Ġmiddle": 4913,
      "Ġmiles": 4914,
      "Ġabsolute": 4915,
      "Ġagree": 4916,
      "Ġwine": 4917,
      "Ġintel": 4918,
      "ĠTra": 4919,
      "ributi": 4920,
      "ĠDirect": 4921,
      "Ġhighest": 4922,
      "Ġaudience": 4923,
      "ribution": 4924,
      "De": 4925,
      "ĠSee": 4926,
      "porary": 4927,
      "Ġguar": 4928,
      "Ġcomfortable": 4929,
      "!\"": 4930,
      "Ġindica": 4931,
      "theme": 4932,
      "Ġgift": 4933,
      "Ġevening": 4934,
      "Ġresponsible": 4935,
      "strati": 4936,
      "Ġdirector": 4937,
      "stration": 4938,
      "Ġprocedure": 4939,
      "Ġgreate": 4940,
      "Ġregarding": 4941,
      "udge": 4942,
      "Ġgreater": 4943,
      "Ġkept": 4944,
      "Ġcompleted": 4945,
      "Ġjoin": 4946,
      "off": 4947,
      "ĠServices": 4948,
      "ĠJesus": 4949,
      "Ġessential": 4950,
      "ĠMil": 4951,
      "Ġtoward": 4952,
      "Ġremain": 4953,
      "ĠSystem": 4954,
      "Ġallowed": 4955,
      "avour": 4956,
      "Ġcolour": 4957,
      "omo": 4958,
      "Ġindicat": 4959,
      "Ġsell": 4960,
      "igr": 4961,
      "Ġexisting": 4962,
      "rising": 4963,
      "accur": 4964,
      "ched": 4965,
      "nue": 4966,
      "andid": 4967,
      "Ġlargest": 4968,
      "Ġdrink": 4969,
      "Ġvis": 4970,
      "ĠFacebook": 4971,
      "Ġinform": 4972,
      "ĠRev": 4973,
      "Ġnormal": 4974,
      "ĠPu": 4975,
      "Ġscene": 4976,
      "cken": 4977,
      "ament": 4978,
      "Ġfat": 4979,
      "tren": 4980,
      "Ġbow": 4981,
      "ĠExp": 4982,
      "Ġseemed": 4983,
      "EO": 4984,
      "PS": 4985,
      "Ġslight": 4986,
      "Ġbre": 4987,
      "inde": 4988,
      "Ġideal": 4989,
      "Ġstudies": 4990,
      "spects": 4991,
      "olf": 4992,
      "Ġforma": 4993,
      "Ġdelivery": 4994,
      "rup": 4995,
      "Ġpowerful": 4996,
      "enerally": 4997,
      "Ġaccur": 4998,
      "lements": 4999,
      "Ġreasons": 5000,
      "pti": 5001,
      "tual": 5002,
      "Ġpieces": 5003,
      "Ġsteps": 5004,
      "Be": 5005,
      "ĠPal": 5006,
      "Ġtheme": 5007,
      "Ġbudget": 5008,
      "Ġsmi": 5009,
      "ĠCanada": 5010,
      "Ġdaughter": 5011,
      "cards": 5012,
      "AD": 5013,
      "Ġstates": 5014,
      "Ġonto": 5015,
      "rier": 5016,
      "Ġearlier": 5017,
      "ĠMany": 5018,
      "each": 5019,
      "Ġbroad": 5020,
      "Ġsong": 5021,
      "istics": 5022,
      "Cl": 5023,
      "Ġgas": 5024,
      "Ġpoor": 5025,
      "Ġincome": 5026,
      "ĠSunday": 5027,
      "ĠLan": 5028,
      "ahead": 5029,
      "ville": 5030,
      "ĠThanks": 5031,
      "Ġdol": 5032,
      "rob": 5033,
      "Ġcreative": 5034,
      "ĠWhite": 5035,
      "Ġscient": 5036,
      "Ġesta": 5037,
      "dev": 5038,
      "Ġsweet": 5039,
      "orner": 5040,
      "ĠFlo": 5041,
      "ĠÂ£": 5042,
      "Ġcry": 5043,
      "Ġopening": 5044,
      "Ġspring": 5045,
      "chose": 5046,
      "Ġwriter": 5047,
      "Ġenter": 5048,
      "ĠDavid": 5049,
      "Ġhelped": 5050,
      "ION": 5051,
      "Ġerro": 5052,
      "girl": 5053,
      "Ġprevent": 5054,
      "Ġerror": 5055,
      "Ġestat": 5056,
      "Ġformat": 5057,
      "Ġestate": 5058,
      "Ġlinks": 5059,
      "Ġpolice": 5060,
      "anta": 5061,
      "emy": 5062,
      "Ġfiles": 5063,
      "candid": 5064,
      "ncing": 5065,
      "lif": 5066,
      "Ġspread": 5067,
      "nnual": 5068,
      "annual": 5069,
      "ider": 5070,
      "Ġsurv": 5071,
      "Ġahead": 5072,
      "OL": 5073,
      "Ġlarger": 5074,
      "ael": 5075,
      "Ph": 5076,
      "Ġchose": 5077,
      "Ġextremel": 5078,
      "Ġextremely": 5079,
      "Ġschedule": 5080,
      "corner": 5081,
      "cture": 5082,
      "quently": 5083,
      "Ġfish": 5084,
      "Ġcorrec": 5085,
      "Ġcandid": 5086,
      "cing": 5087,
      "Ġmovie": 5088,
      "Ġsecto": 5089,
      "Ġstee": 5090,
      "amous": 5091,
      "ĠBea": 5092,
      "Ġfear": 5093,
      "aller": 5094,
      "Ġsal": 5095,
      "Ġhelping": 5096,
      "Ġselect": 5097,
      "rra": 5098,
      "Ġfinished": 5099,
      "Ġprotecti": 5100,
      "Ġove": 5101,
      "Ġtren": 5102,
      "tical": 5103,
      "Ġthanks": 5104,
      "Sh": 5105,
      "ĠAng": 5106,
      "Ġflowe": 5107,
      "Ġbackground": 5108,
      "):": 5109,
      "uate": 5110,
      "Ġofficer": 5111,
      "Ġinterview": 5112,
      "lter": 5113,
      "Ġheavy": 5114,
      "Ġsector": 5115,
      "vati": 5116,
      "ĠProf": 5117,
      "yn": 5118,
      "Ġstrategy": 5119,
      "oud": 5120,
      "Ġswe": 5121,
      "Ġconsult": 5122,
      "cut": 5123,
      "ĠInternet": 5124,
      "nother": 5125,
      "Ġfla": 5126,
      "Ġtherefore": 5127,
      "Ġbrother": 5128,
      "Ġconstant": 5129,
      "Ġflower": 5130,
      "iest": 5131,
      "yers": 5132,
      "uring": 5133,
      "Ġtitle": 5134,
      "Ġtalking": 5135,
      "Ġselection": 5136,
      "Ġremove": 5137,
      "generally": 5138,
      "ĠCourt": 5139,
      "ĠMag": 5140,
      "Ġcorner": 5141,
      "Ġcovered": 5142,
      "ĠBusiness": 5143,
      "Ġcorrect": 5144,
      "Ġstrug": 5145,
      "Ġserio": 5146,
      "Ġseriou": 5147,
      "lust": 5148,
      "ashington": 5149,
      "Ġserious": 5150,
      "Ġweekend": 5151,
      "Ġalbum": 5152,
      "Ġmethods": 5153,
      "Ġhomes": 5154,
      "rub": 5155,
      "sper": 5156,
      "Ġprotection": 5157,
      "ĠDat": 5158,
      "Ġexplore": 5159,
      "Ġrules": 5160,
      "yard": 5161,
      "Ġannual": 5162,
      "Ġpet": 5163,
      "Ġveg": 5164,
      "imal": 5165,
      "ĠMiss": 5166,
      "Ġpayment": 5167,
      "ĠCouncil": 5168,
      "Ġhus": 5169,
      "row": 5170,
      "tre": 5171,
      "Ġsubmit": 5172,
      "shion": 5173,
      "ĠAustralia": 5174,
      "aven": 5175,
      "eliver": 5176,
      "Ġcast": 5177,
      "Ġund": 5178,
      "deliver": 5179,
      "US": 5180,
      "ertain": 5181,
      "Ġrelax": 5182,
      "vation": 5183,
      "ĠSaturday": 5184,
      "Ġsca": 5185,
      "Ġchem": 5186,
      "itude": 5187,
      "Ġnamed": 5188,
      "Ġteams": 5189,
      "ĠPi": 5190,
      "Ġelectri": 5191,
      "Ġexhib": 5192,
      "Ġjourney": 5193,
      "gun": 5194,
      "Ġspeak": 5195,
      "Ġmodels": 5196,
      "Ġsaving": 5197,
      "inger": 5198,
      "ĠOther": 5199,
      "Ġbedroom": 5200,
      "ĠHol": 5201,
      "ologies": 5202,
      "Now": 5203,
      "Ġdeliver": 5204,
      "Ġplus": 5205,
      "Ġdang": 5206,
      "âĢ¢": 5207,
      "ĠWilliam": 5208,
      "taste": 5209,
      "Ġgenerally": 5210,
      "Ġbrow": 5211,
      "Ġpassed": 5212,
      "TM": 5213,
      "ĠRem": 5214,
      "Ġwants": 5215,
      "Ġmovement": 5216,
      "ĠSec": 5217,
      "Ġwro": 5218,
      "served": 5219,
      "Ġwrot": 5220,
      "Ġcompared": 5221,
      "sample": 5222,
      "Ġefficient": 5223,
      "Ġevalu": 5224,
      "Ġwrote": 5225,
      "ĠSte": 5226,
      "Con": 5227,
      "Ġconven": 5228,
      "stat": 5229,
      "ĠAny": 5230,
      "Ġboo": 5231,
      "Ġfant": 5232,
      "ki": 5233,
      "lver": 5234,
      "gno": 5235,
      "chr": 5236,
      "Ma": 5237,
      "Ġpopulation": 5238,
      "winter": 5239,
      "ĠWindows": 5240,
      "Ġtaste": 5241,
      "Ġhappened": 5242,
      "numer": 5243,
      "Ġfurn": 5244,
      "Ġachieve": 5245,
      "rehen": 5246,
      "Ye": 5247,
      "Ġbright": 5248,
      "uctions": 5249,
      "Ġpresident": 5250,
      "rien": 5251,
      "dar": 5252,
      "Ġfurniture": 5253,
      "Ġannounced": 5254,
      "Ġdev": 5255,
      "ĠPaul": 5256,
      "Ġsust": 5257,
      "Ġconnecti": 5258,
      "Ġmeasu": 5259,
      "imb": 5260,
      "ĠOb": 5261,
      "ĠAssociation": 5262,
      "died": 5263,
      "smo": 5264,
      "Ca": 5265,
      "Ġshot": 5266,
      "ends": 5267,
      "cas": 5268,
      "Ġconnection": 5269,
      "Ġopened": 5270,
      "Ġuti": 5271,
      "Ġadvantage": 5272,
      "ĠScience": 5273,
      "Ġstar": 5274,
      "cum": 5275,
      "ĠRec": 5276,
      "Ġteaching": 5277,
      "ĠChurch": 5278,
      "ĠSam": 5279,
      "These": 5280,
      "burg": 5281,
      "inse": 5282,
      "Ġradi": 5283,
      "Ġcards": 5284,
      "tually": 5285,
      "ĠPol": 5286,
      "Ġutil": 5287,
      "Ġrespons": 5288,
      "Ġopini": 5289,
      "iber": 5290,
      "core": 5291,
      "Ġcancer": 5292,
      "wit": 5293,
      "IG": 5294,
      "Ġgirl": 5295,
      "ingr": 5296,
      "forc": 5297,
      "Ġthank": 5298,
      "ĠVal": 5299,
      "Ġsurve": 5300,
      "eption": 5301,
      "Ġmulti": 5302,
      "Some": 5303,
      "Ġreports": 5304,
      "ĠWed": 5305,
      "Ġsample": 5306,
      "ava": 5307,
      "Ġtrut": 5308,
      "Ġcontinued": 5309,
      "ĠOnce": 5310,
      "ĠGood": 5311,
      "Ġproduced": 5312,
      "irls": 5313,
      "uts": 5314,
      "Ġplaced": 5315,
      "Ġarchite": 5316,
      "Wel": 5317,
      "Ġresist": 5318,
      "ĠSea": 5319,
      "ocat": 5320,
      "ilver": 5321,
      "Ġcup": 5322,
      "cker": 5323,
      "vest": 5324,
      "ris": 5325,
      "Ġmemory": 5326,
      "Ġlearned": 5327,
      "Ġarg": 5328,
      "affic": 5329,
      "ĠLord": 5330,
      "Ġrequires": 5331,
      "raffic": 5332,
      "Ġgather": 5333,
      "Ġmilitary": 5334,
      "imen": 5335,
      "Ġquot": 5336,
      "Ġ+": 5337,
      "Ġnumer": 5338,
      "tex": 5339,
      "Ġbon": 5340,
      "rce": 5341,
      "nie": 5342,
      "Ġcomment": 5343,
      "gra": 5344,
      "mar": 5345,
      "Ġbutton": 5346,
      "Ġvalu": 5347,
      "Ġcandida": 5348,
      "Ġbrain": 5349,
      "Ġwinter": 5350,
      "earth": 5351,
      "Ġpot": 5352,
      "gin": 5353,
      "ĠEac": 5354,
      "Ġviews": 5355,
      "Ġrespect": 5356,
      "ĠEach": 5357,
      "ĠMet": 5358,
      "ĠMont": 5359,
      "Ġefforts": 5360,
      "ĠCat": 5361,
      "Ġitem": 5362,
      "Ġwear": 5363,
      "ĠIS": 5364,
      "Ġdange": 5365,
      "Ġdanger": 5366,
      "pal": 5367,
      "ĠBest": 5368,
      "usa": 5369,
      "Ġcandidat": 5370,
      "ĠRiver": 5371,
      "gain": 5372,
      "Ġcandidate": 5373,
      "Ġseven": 5374,
      "Ġreligi": 5375,
      "Ġdriving": 5376,
      "Ġ=": 5377,
      "Ġhusband": 5378,
      "Is": 5379,
      "akers": 5380,
      "ĠWashington": 5381,
      "ht": 5382,
      "Ġforms": 5383,
      "book": 5384,
      "rael": 5385,
      "dl": 5386,
      "Ġvirt": 5387,
      "oke": 5388,
      "ĠPlan": 5389,
      "\",": 5390,
      "Ġdied": 5391,
      "ĠGerma": 5392,
      "traffic": 5393,
      "ncies": 5394,
      "Ġoutdoor": 5395,
      "anti": 5396,
      "IP": 5397,
      "Ġchann": 5398,
      "sci": 5399,
      "elements": 5400,
      "LE": 5401,
      "Ġimprov": 5402,
      "nega": 5403,
      "Ġseeing": 5404,
      "plic": 5405,
      "ĠIT": 5406,
      "oga": 5407,
      "Un": 5408,
      "Ġstream": 5409,
      "icious": 5410,
      "Ġcamera": 5411,
      "evant": 5412,
      "Ġwelcome": 5413,
      "Ġlif": 5414,
      "mina": 5415,
      "ĠHot": 5416,
      "Ġprimary": 5417,
      "thus": 5418,
      "cream": 5419,
      "Ġfaith": 5420,
      "Ġcommunicati": 5421,
      "Ġelements": 5422,
      "Ġcommunication": 5423,
      "ĠSha": 5424,
      "Ġvalues": 5425,
      "ĠJack": 5426,
      "abo": 5427,
      "ĠClu": 5428,
      "ĠTex": 5429,
      "ansa": 5430,
      "Ġlose": 5431,
      "ĠLet": 5432,
      "Ġfair": 5433,
      "oso": 5434,
      "ĠGran": 5435,
      "Ġbathroom": 5436,
      "ecide": 5437,
      "pm": 5438,
      "Ġincred": 5439,
      "Ġwaiting": 5440,
      "decide": 5441,
      "Ġmaster": 5442,
      "rts": 5443,
      "ei": 5444,
      "emic": 5445,
      "Ġmetal": 5446,
      "ĠArm": 5447,
      "Ġdecide": 5448,
      "dsc": 5449,
      "ĠProgram": 5450,
      "acad": 5451,
      "Ġtraffic": 5452,
      "dated": 5453,
      "session": 5454,
      "Ġsharing": 5455,
      "ĠTa": 5456,
      "Ġshared": 5457,
      "inder": 5458,
      "Ġmedic": 5459,
      "Ġfinding": 5460,
      "Ġring": 5461,
      "Ġcritical": 5462,
      "Ġneighbor": 5463,
      "Ġren": 5464,
      "epo": 5465,
      "Ġparticipat": 5466,
      "Ġeg": 5467,
      "Ġnut": 5468,
      "Ġflex": 5469,
      "cells": 5470,
      "Ġexten": 5471,
      "iverse": 5472,
      "Â®": 5473,
      "scrib": 5474,
      "Ġingr": 5475,
      "Ġexperiences": 5476,
      "Ġlaye": 5477,
      "Ġmist": 5478,
      "Ġprepared": 5479,
      "ĠGerman": 5480,
      "Ġadop": 5481,
      "hapter": 5482,
      "thern": 5483,
      "Ġthus": 5484,
      "Ġlayer": 5485,
      "Ġsignal": 5486,
      "Ġsociety": 5487,
      "ĠGeneral": 5488,
      "ĠIm": 5489,
      "standing": 5490,
      "Ġnat": 5491,
      "Ġcentral": 5492,
      "ĠHist": 5493,
      "Ġaren": 5494,
      "Ġrooms": 5495,
      "rid": 5496,
      "Ġorganizations": 5497,
      "ĠEngla": 5498,
      "ago": 5499,
      "iness": 5500,
      "ĠEnglan": 5501,
      "ivis": 5502,
      "ĠEngland": 5503,
      "Ġdescribed": 5504,
      "Ġmechani": 5505,
      "Ġsolid": 5506,
      "dinner": 5507,
      "itizen": 5508,
      "While": 5509,
      "Ġstick": 5510,
      "gan": 5511,
      "ĠTho": 5512,
      "ĠPC": 5513,
      "ĠBoard": 5514,
      "Ġmountain": 5515,
      "ĠVic": 5516,
      "ĠSince": 5517,
      "Ġhandle": 5518,
      "ĠBel": 5519,
      "Ġrise": 5520,
      "Ġjobs": 5521,
      "olate": 5522,
      "Ġwouldn": 5523,
      "ĠCap": 5524,
      "ĠDown": 5525,
      "hold": 5526,
      "aud": 5527,
      "à¤": 5528,
      "Ġtechnical": 5529,
      "Ġactual": 5530,
      "exi": 5531,
      "Ġsout": 5532,
      "xu": 5533,
      "Ġcells": 5534,
      "Ġdirecti": 5535,
      "ĠPete": 5536,
      "ĠMonday": 5537,
      "Ġdirection": 5538,
      "Ġflo": 5539,
      "Ġsouth": 5540,
      "Ġplane": 5541,
      "Ġbalance": 5542,
      "Ġstation": 5543,
      "Ġtruth": 5544,
      "tips": 5545,
      "Ġsurge": 5546,
      "Ġhorse": 5547,
      "Ġsports": 5548,
      "Ġsteel": 5549,
      "Ġreviews": 5550,
      "Ġfort": 5551,
      "usive": 5552,
      "wire": 5553,
      "ĠWhy": 5554,
      "Ġfriendl": 5555,
      "unds": 5556,
      "Ġpresented": 5557,
      "Ġboy": 5558,
      "ĠGal": 5559,
      "Ġacad": 5560,
      "Ġnati": 5561,
      "BC": 5562,
      "chael": 5563,
      "Ġdinner": 5564,
      "Ġcontains": 5565,
      "ede": 5566,
      "Ġnation": 5567,
      "rida": 5568,
      "EM": 5569,
      "Ġstandards": 5570,
      "apy": 5571,
      "Ġparties": 5572,
      "Ġimplement": 5573,
      "Ġapprox": 5574,
      "ĠPlay": 5575,
      "laborat": 5576,
      "ĠFound": 5577,
      "ĠEduc": 5578,
      "Ġcollec": 5579,
      "Ġroof": 5580,
      "esk": 5581,
      "ttery": 5582,
      "Ġcream": 5583,
      "estival": 5584,
      "Ġleaders": 5585,
      "Ġnorth": 5586,
      "serva": 5587,
      "Ġcomma": 5588,
      "Ġearth": 5589,
      "Ġdetermine": 5590,
      "iant": 5591,
      "ĠBlue": 5592,
      "Ġstreet": 5593,
      "Ġhat": 5594,
      "Ġpen": 5595,
      "ann": 5596,
      "inese": 5597,
      "llust": 5598,
      "Ġrecogni": 5599,
      "fast": 5600,
      "nized": 5601,
      "reate": 5602,
      "Ġadvanced": 5603,
      "Ġdrop": 5604,
      "Ġfriendly": 5605,
      "Ġolde": 5606,
      "Ġkeeping": 5607,
      "Ġnames": 5608,
      "Ġbilli": 5609,
      "Ġfabr": 5610,
      "Ġtips": 5611,
      "Ġplants": 5612,
      "ĠChristian": 5613,
      "Ġstatement": 5614,
      "org": 5615,
      "Ġhaven": 5616,
      "Ġtarget": 5617,
      "Ġbul": 5618,
      "Ġsugar": 5619,
      "see": 5620,
      "Ġpredi": 5621,
      "Ġobvi": 5622,
      "Ġpsych": 5623,
      "Ġexperts": 5624,
      "harg": 5625,
      "Ġtag": 5626,
      "ĠWhe": 5627,
      "ĠMary": 5628,
      "Ġdollar": 5629,
      "ĠDirecto": 5630,
      "olution": 5631,
      "Ġforg": 5632,
      "casino": 5633,
      "ĠDirector": 5634,
      "Ġingred": 5635,
      "ivisi": 5636,
      "Ġdy": 5637,
      "snow": 5638,
      "ios": 5639,
      "rare": 5640,
      "ĠWell": 5641,
      "ĠDevelop": 5642,
      "ifying": 5643,
      "Ġolder": 5644,
      "Ġkn": 5645,
      "Ġatten": 5646,
      "desk": 5647,
      "Ġstrength": 5648,
      "ĠPost": 5649,
      "abase": 5650,
      "ayer": 5651,
      "IM": 5652,
      "ĠRoad": 5653,
      "twe": 5654,
      "wal": 5655,
      "ĠMart": 5656,
      "ĠChar": 5657,
      "Ġassign": 5658,
      "Ġcloud": 5659,
      "ivision": 5660,
      "Ġenab": 5661,
      "Ġregist": 5662,
      "Ġluck": 5663,
      "Ġprofessionals": 5664,
      "Ġcolors": 5665,
      "Ġaware": 5666,
      "ĠJames": 5667,
      "bon": 5668,
      "Ġdeveloping": 5669,
      "eauty": 5670,
      "unatel": 5671,
      "Ġcasino": 5672,
      "Ġencour": 5673,
      "Ġvolume": 5674,
      "ĠChinese": 5675,
      "unately": 5676,
      "Ġsmo": 5677,
      "ĠLife": 5678,
      "Ġlimit": 5679,
      "Ġcleaning": 5680,
      "Ġmedium": 5681,
      "Ġwaste": 5682,
      "Ġnega": 5683,
      "Ġshopping": 5684,
      "Ġclosed": 5685,
      "ĠResearch": 5686,
      "Ġforge": 5687,
      "Ġsett": 5688,
      "ĠApp": 5689,
      "Ġwhatever": 5690,
      "Ġdedicated": 5691,
      "ĠProd": 5692,
      "Ġchallenges": 5693,
      "oin": 5694,
      "ado": 5695,
      "Ġcars": 5696,
      "ĠIsrael": 5697,
      "Ġreached": 5698,
      "abi": 5699,
      "Ġsecure": 5700,
      "Ġlength": 5701,
      "Ġlisted": 5702,
      "Ġmanufacturer": 5703,
      "ports": 5704,
      "Ġsnow": 5705,
      "Ġaccep": 5706,
      "ĠOut": 5707,
      "ndr": 5708,
      "ĠGa": 5709,
      "ĠWal": 5710,
      "Ġdistance": 5711,
      "Ġbecomes": 5712,
      "Ġdie": 5713,
      "Ġfactors": 5714,
      "ĠClub": 5715,
      "ĠClass": 5716,
      "Ġstatus": 5717,
      "Ġplenty": 5718,
      "lights": 5719,
      "Ġrare": 5720,
      "Ġreality": 5721,
      "thy": 5722,
      "ĠPeople": 5723,
      "ĠCe": 5724,
      "Ġgraph": 5725,
      "rep": 5726,
      "wat": 5727,
      "Ġdeman": 5728,
      "Ġdemand": 5729,
      "ĠBan": 5730,
      "Ġfamous": 5731,
      "ĠInstitute": 5732,
      "ĠGen": 5733,
      "Ġoperations": 5734,
      "ĠLake": 5735,
      "Ġcounte": 5736,
      "Ġclasse": 5737,
      "cula": 5738,
      "Ġsitu": 5739,
      "Ġselected": 5740,
      "usands": 5741,
      "Ġclasses": 5742,
      "Ġcontem": 5743,
      "Ġship": 5744,
      "Ġsmaller": 5745,
      "ulting": 5746,
      "Ġsenior": 5747,
      "Ġfle": 5748,
      "Ġcelebra": 5749,
      "ãĤ": 5750,
      "Ġworkers": 5751,
      "Ġtechniques": 5752,
      "Ġmou": 5753,
      "wesome": 5754,
      "Ġjump": 5755,
      "Ġjournal": 5756,
      "Please": 5757,
      "Ġbillion": 5758,
      "afte": 5759,
      "hain": 5760,
      "Ġoppo": 5761,
      "Ġesc": 5762,
      "evis": 5763,
      "ĠMal": 5764,
      "ued": 5765,
      "Ġfacilities": 5766,
      "Ġsquare": 5767,
      "rete": 5768,
      "Ġstone": 5769,
      "Ġexper": 5770,
      "ussion": 5771,
      "Ġsession": 5772,
      "Ġcapacity": 5773,
      "Here": 5774,
      "oms": 5775,
      "cos": 5776,
      "ĠAre": 5777,
      "Ġarrang": 5778,
      "rprise": 5779,
      "sters": 5780,
      "Ġproperties": 5781,
      "Ġalle": 5782,
      "aper": 5783,
      "Ge": 5784,
      "rist": 5785,
      "ties": 5786,
      "Ġexchange": 5787,
      "Ġcommunities": 5788,
      "ĠOF": 5789,
      "ĠPress": 5790,
      "Ġtex": 5791,
      "Ġtwe": 5792,
      "iency": 5793,
      "ograph": 5794,
      "Ġdriver": 5795,
      "ĠBil": 5796,
      "Ġforeign": 5797,
      "free": 5798,
      "Ġdesk": 5799,
      "Ġproper": 5800,
      "ption": 5801,
      "Ġlad": 5802,
      "Ġmentioned": 5803,
      "Ġtrees": 5804,
      "ected": 5805,
      "Ġvege": 5806,
      "civil": 5807,
      "Ġmanner": 5808,
      "antee": 5809,
      "Ġleaving": 5810,
      "ĠComp": 5811,
      "Ġexpan": 5812,
      "Ġvisi": 5813,
      "unk": 5814,
      "Ġpromote": 5815,
      "Ġguests": 5816,
      "ides": 5817,
      "ĠUp": 5818,
      "Ġpoliti": 5819,
      "olar": 5820,
      "ĠNi": 5821,
      "aries": 5822,
      "riag": 5823,
      "isp": 5824,
      "diet": 5825,
      "riage": 5826,
      "rely": 5827,
      "CC": 5828,
      "ulate": 5829,
      "itors": 5830,
      "Ġmenu": 5831,
      "Ġcheap": 5832,
      "Ġknows": 5833,
      "ĠQue": 5834,
      "ecoming": 5835,
      "Ġafte": 5836,
      "willing": 5837,
      "ickets": 5838,
      "âĢĿ,": 5839,
      "Ġbeauty": 5840,
      "Ġnumero": 5841,
      "Ġsmooth": 5842,
      "Ġamb": 5843,
      "ĠHan": 5844,
      "Ġpresence": 5845,
      "Ġcelebrat": 5846,
      "ulated": 5847,
      "Ġwhom": 5848,
      "Ġtesting": 5849,
      "ĠMus": 5850,
      "ĠStan": 5851,
      "ĠAlthough": 5852,
      "ĠThank": 5853,
      "Ġreturned": 5854,
      "roc": 5855,
      "Ġnumerou": 5856,
      "Ġnumerous": 5857,
      "Ġotherwise": 5858,
      "Ġcomments": 5859,
      "Ġgain": 5860,
      "Ġtemperature": 5861,
      "exic": 5862,
      "ĠManagement": 5863,
      "inding": 5864,
      "Ġleaves": 5865,
      "ises": 5866,
      "iewed": 5867,
      "Ġwire": 5868,
      "Ġgun": 5869,
      "Ġconcept": 5870,
      "Ġmusc": 5871,
      "Ġbeach": 5872,
      "Ġcore": 5873,
      "cities": 5874,
      "Sp": 5875,
      "ils": 5876,
      "Ġmap": 5877,
      "Ġremains": 5878,
      "Ġaccommo": 5879,
      "Ġcounter": 5880,
      "icken": 5881,
      "reek": 5882,
      "Ġrelevant": 5883,
      "Ġcompetition": 5884,
      "Ġbecoming": 5885,
      "ĠExt": 5886,
      "Ġadding": 5887,
      "Ġmaintena": 5888,
      "Ġreaso": 5889,
      "Ġfill": 5890,
      "Ġdiet": 5891,
      "sti": 5892,
      "ndsc": 5893,
      "Ġcharacters": 5894,
      "Ġrestaurant": 5895,
      "orr": 5896,
      "Ġrap": 5897,
      "olly": 5898,
      "mics": 5899,
      "Ġchr": 5900,
      "ĠIndian": 5901,
      "Ġspecies": 5902,
      "andsc": 5903,
      "icket": 5904,
      "Ġbat": 5905,
      "Ġbru": 5906,
      "onary": 5907,
      "ĠBecause": 5908,
      "oof": 5909,
      "chain": 5910,
      "Ġmaintenance": 5911,
      "exp": 5912,
      "sch": 5913,
      "sister": 5914,
      "Ġmission": 5915,
      "lde": 5916,
      "itr": 5917,
      "Ġrob": 5918,
      "ĠGet": 5919,
      "ĠBay": 5920,
      "mail": 5921,
      "Why": 5922,
      "Me": 5923,
      "hnic": 5924,
      "Ġowners": 5925,
      "ousands": 5926,
      "Ġquarter": 5927,
      "Ġdiscover": 5928,
      "ĠTexas": 5929,
      "ĠFlorida": 5930,
      "ien": 5931,
      "Ġfilled": 5932,
      "Ġcalls": 5933,
      "ppe": 5934,
      "Ġeconomy": 5935,
      "Ġrestr": 5936,
      "ii": 5937,
      "Ġcivil": 5938,
      "Ġcaused": 5939,
      "Ġrain": 5940,
      "Ġartist": 5941,
      "cense": 5942,
      "Ġwww": 5943,
      "ĠSal": 5944,
      "well": 5945,
      "Ġpractices": 5946,
      "Ġraised": 5947,
      "Ġguess": 5948,
      "nage": 5949,
      "west": 5950,
      "Ġbuying": 5951,
      "Ġfunds": 5952,
      "oope": 5953,
      "Ġconnected": 5954,
      "Ġcriti": 5955,
      "ĠST": 5956,
      "ĠFrance": 5957,
      "ĠGeorge": 5958,
      "ĠSupe": 5959,
      "Ġvisitors": 5960,
      "ĠÃ": 5961,
      "Ġpursu": 5962,
      "inated": 5963,
      "Ġlin": 5964,
      "bed": 5965,
      "ĠCommun": 5966,
      "UR": 5967,
      "New": 5968,
      "landsc": 5969,
      "Ġforget": 5970,
      "soft": 5971,
      "evisi": 5972,
      "ĠSub": 5973,
      "chel": 5974,
      "phone": 5975,
      "tten": 5976,
      "Ġconference": 5977,
      "aris": 5978,
      "Ġproud": 5979,
      "Ġoperating": 5980,
      "ĠWate": 5981,
      "Ġinitial": 5982,
      "Ġbiggest": 5983,
      "Ġlisten": 5984,
      "CH": 5985,
      "aunc": 5986,
      "Ġdistri": 5987,
      "Ġkil": 5988,
      "box": 5989,
      "Ġmeant": 5990,
      "whe": 5991,
      "rentl": 5992,
      "Ġcomprehen": 5993,
      "rently": 5994,
      "Your": 5995,
      "Ġmodif": 5996,
      "Ġcombination": 5997,
      "hick": 5998,
      "ĠMount": 5999,
      "elling": 6000,
      "depo": 6001,
      "Ġsister": 6002,
      "dump": 6003,
      "reme": 6004,
      "ĠCare": 6005,
      "Ġlandsc": 6006,
      "ĠMode": 6007,
      "Ġanimals": 6008,
      "Ġhal": 6009,
      "Ġinternal": 6010,
      "housands": 6011,
      "thousands": 6012,
      "ĠTw": 6013,
      "ressi": 6014,
      "Ġclearly": 6015,
      "ĠPower": 6016,
      "culat": 6017,
      "scription": 6018,
      "Ġshowed": 6019,
      "Ġhappens": 6020,
      "Ġseed": 6021,
      "ĠOver": 6022,
      "Ġspect": 6023,
      "ped": 6024,
      "Yes": 6025,
      "yr": 6026,
      "ĠDem": 6027,
      "Ġpasse": 6028,
      "Ġseat": 6029,
      "untee": 6030,
      "unteer": 6031,
      "ĠRepublic": 6032,
      "evision": 6033,
      "Ġthousands": 6034,
      "augh": 6035,
      "Ġinfluence": 6036,
      "ĠRobert": 6037,
      "Ġpeace": 6038,
      "ĠLove": 6039,
      "Ġmanaged": 6040,
      "Ġchanging": 6041,
      "OW": 6042,
      "Ġhelpful": 6043,
      "Ġthoughts": 6044,
      "itar": 6045,
      "ĠPeter": 6046,
      "shop": 6047,
      "Ġalternative": 6048,
      "Ġdent": 6049,
      "cond": 6050,
      "Ġindependent": 6051,
      "Ġreplac": 6052,
      "Ġworry": 6053,
      "Ġstran": 6054,
      "Ġattend": 6055,
      "poses": 6056,
      "TS": 6057,
      "ading": 6058,
      "Ġsounds": 6059,
      "Ġshu": 6060,
      "Ġdepo": 6061,
      "Ġdesigns": 6062,
      "Ġwalking": 6063,
      "oord": 6064,
      "oppe": 6065,
      "Ġdance": 6066,
      "Ġoperati": 6067,
      "Ġattra": 6068,
      "mor": 6069,
      "Ġapplied": 6070,
      "rsday": 6071,
      "Ġsand": 6072,
      "Ġpane": 6073,
      "Ġruns": 6074,
      "Ġsalt": 6075,
      "ransa": 6076,
      "Ġexpensive": 6077,
      "Ġsources": 6078,
      "Ġprocesse": 6079,
      "isod": 6080,
      "Ġappoint": 6081,
      "Ġmout": 6082,
      "ĠAP": 6083,
      "ĠEduca": 6084,
      "Ġclassi": 6085,
      "Ġvision": 6086,
      "Ġsty": 6087,
      "servat": 6088,
      "Ġconvert": 6089,
      "ille": 6090,
      "Ġprocesses": 6091,
      "Ġflat": 6092,
      "ĠSun": 6093,
      "lowe": 6094,
      "launc": 6095,
      "Ġinse": 6096,
      "hern": 6097,
      "ĠPri": 6098,
      "Ġconcent": 6099,
      "Ġshowing": 6100,
      "Ġplate": 6101,
      "Ġbought": 6102,
      "ĠEducat": 6103,
      "lived": 6104,
      "Ġunits": 6105,
      "idde": 6106,
      "Ġdesigne": 6107,
      "Ġspl": 6108,
      "Ġclassic": 6109,
      "titive": 6110,
      "ĠPho": 6111,
      "inall": 6112,
      "even": 6113,
      "ĠMake": 6114,
      "Ġpackage": 6115,
      "ĠIsland": 6116,
      "IV": 6117,
      "ending": 6118,
      "licious": 6119,
      "Ġobject": 6120,
      "Ġoperation": 6121,
      "Ġslightl": 6122,
      "Ġslightly": 6123,
      "amet": 6124,
      "Ġwindows": 6125,
      "inally": 6126,
      "Ġlock": 6127,
      "ĠColo": 6128,
      "Ġidentify": 6129,
      "rban": 6130,
      "illust": 6131,
      "cility": 6132,
      "Ġfashion": 6133,
      "Ġestablish": 6134,
      "hlet": 6135,
      "MS": 6136,
      "Ġinnov": 6137,
      "ression": 6138,
      "Ġessay": 6139,
      "Ġfans": 6140,
      "citizen": 6141,
      "Ġdistinc": 6142,
      "Ġaffec": 6143,
      "Ġrecords": 6144,
      "Ġaffect": 6145,
      "irati": 6146,
      "stan": 6147,
      "istra": 6148,
      "sform": 6149,
      "ouble": 6150,
      "chard": 6151,
      "Ġresident": 6152,
      "apped": 6153,
      "Ġagreement": 6154,
      "nsform": 6155,
      "Ġbehavior": 6156,
      "Ġdesigner": 6157,
      "pts": 6158,
      "girls": 6159,
      "Ġhospital": 6160,
      "antic": 6161,
      "Ġhab": 6162,
      "igu": 6163,
      "eper": 6164,
      "Ġresidents": 6165,
      "Ġlaunc": 6166,
      "azon": 6167,
      "ocolate": 6168,
      "ãĥ": 6169,
      "Ġprinciple": 6170,
      "etail": 6171,
      "ĠBank": 6172,
      "Ġperformed": 6173,
      "Ġque": 6174,
      "sire": 6175,
      "detail": 6176,
      "ĠBen": 6177,
      "ndor": 6178,
      "Ġdump": 6179,
      "ĠAnge": 6180,
      "iqu": 6181,
      "sts": 6182,
      "transa": 6183,
      "diss": 6184,
      "Ġbear": 6185,
      "Ġdecisions": 6186,
      "Ġsecret": 6187,
      "Ġnegative": 6188,
      "Ġsets": 6189,
      "Ġmajority": 6190,
      "Ġdocuments": 6191,
      ");": 6192,
      "ĠSing": 6193,
      "iration": 6194,
      "ĠAv": 6195,
      "essions": 6196,
      "uled": 6197,
      "Ġfel": 6198,
      "swa": 6199,
      "isode": 6200,
      "Ġfocused": 6201,
      "Ġcircum": 6202,
      "wha": 6203,
      "het": 6204,
      "Ġillust": 6205,
      "ĠJew": 6206,
      "Ġobjec": 6207,
      "dde": 6208,
      "other": 6209,
      "ainer": 6210,
      "isa": 6211,
      "dining": 6212,
      "aming": 6213,
      "oyal": 6214,
      "Ġinstalla": 6215,
      "neck": 6216,
      "Ġjoined": 6217,
      "Ġinstallat": 6218,
      "Ġfederal": 6219,
      "Ġinstallati": 6220,
      "Ġoccu": 6221,
      "ista": 6222,
      "Ġinstallation": 6223,
      "Ġmort": 6224,
      "ĠVol": 6225,
      "inical": 6226,
      "ease": 6227,
      "rever": 6228,
      "Ġwilling": 6229,
      "Ġcitizen": 6230,
      "ï¿": 6231,
      "Ġarm": 6232,
      "uesday": 6233,
      "elega": 6234,
      "Ġbike": 6235,
      "Ð¸": 6236,
      "tight": 6237,
      "Ġdatabase": 6238,
      "Ġdetail": 6239,
      "Ġame": 6240,
      "zed": 6241,
      "Ġfunctional": 6242,
      "Ġtransa": 6243,
      "nses": 6244,
      "Ġcoverage": 6245,
      "hicken": 6246,
      "izes": 6247,
      "ams": 6248,
      "tally": 6249,
      "nl": 6250,
      "ï¿½": 6251,
      "Dr": 6252,
      "Ġvisual": 6253,
      "Ġinteri": 6254,
      "ĠProfess": 6255,
      "Ġappears": 6256,
      "Ġexcited": 6257,
      "istrat": 6258,
      "ault": 6259,
      "cott": 6260,
      "sitions": 6261,
      "Ġdoubt": 6262,
      "nni": 6263,
      "Ġinterio": 6264,
      "Ġwatching": 6265,
      "Ġadven": 6266,
      "ĠTechn": 6267,
      "plica": 6268,
      "Ġluxu": 6269,
      "Ġinterior": 6270,
      "Ġâ": 6271,
      "ĠPR": 6272,
      "ĠTheir": 6273,
      "TH": 6274,
      "Ġshee": 6275,
      "Ġdiagno": 6276,
      "Ġfol": 6277,
      "Ġdiss": 6278,
      "Ġmoto": 6279,
      "Ġartists": 6280,
      "hang": 6281,
      "Ġoptim": 6282,
      "uk": 6283,
      "what": 6284,
      "Ġplastic": 6285,
      "cit": 6286,
      "NA": 6287,
      "Ġkid": 6288,
      "Ġdrama": 6289,
      "Ġunde": 6290,
      ",'": 6291,
      "dish": 6292,
      "ĠMexic": 6293,
      "ĠWood": 6294,
      "Ġmaximum": 6295,
      "Ġgirls": 6296,
      "DA": 6297,
      "Ġabsolutel": 6298,
      "esday": 6299,
      "Ġaccura": 6300,
      "Ġabsolutely": 6301,
      "Ġnine": 6302,
      "ĠApple": 6303,
      "Ġking": 6304,
      "Ġenjoyed": 6305,
      "Ġselling": 6306,
      "ĠBill": 6307,
      "Ġcomman": 6308,
      "Ġdescribe": 6309,
      "Ġcommand": 6310,
      "taining": 6311,
      "ĠMichael": 6312,
      "Ġclaims": 6313,
      "uis": 6314,
      "lev": 6315,
      "ester": 6316,
      "Ġaccurat": 6317,
      "Ġphi": 6318,
      "sity": 6319,
      "Ġaccurate": 6320,
      "ucing": 6321,
      "reg": 6322,
      "ĠMad": 6323,
      "Ġtub": 6324,
      "sol": 6325,
      "ĠHil": 6326,
      "hm": 6327,
      "Ġteacher": 6328,
      "olden": 6329,
      "lands": 6330,
      "Ġhonest": 6331,
      "Ġleadership": 6332,
      "Ġattempt": 6333,
      "element": 6334,
      "!!!": 6335,
      "Ġfootball": 6336,
      "Ġbrief": 6337,
      "stances": 6338,
      "Ġvillage": 6339,
      "Ġeating": 6340,
      "Ġreference": 6341,
      "nesday": 6342,
      "amily": 6343,
      "ĠIra": 6344,
      "Ã¡": 6345,
      "ĠStar": 6346,
      "Ġprocessing": 6347,
      "Ġdyna": 6348,
      "Ġcities": 6349,
      "Ġnor": 6350,
      "Ġscale": 6351,
      "overing": 6352,
      "Ġphil": 6353,
      "ĠEducati": 6354,
      "ĠBot": 6355,
      "ĠMicro": 6356,
      "ĠEducation": 6357,
      "aved": 6358,
      "Ġcollect": 6359,
      "Ġsatisf": 6360,
      "esse": 6361,
      "Ġexclusive": 6362,
      "Ġmicr": 6363,
      "Ġinstitu": 6364,
      "ceed": 6365,
      "ĠMat": 6366,
      "orial": 6367,
      "ĠSpring": 6368,
      "elong": 6369,
      "island": 6370,
      "opper": 6371,
      "Ġmarkets": 6372,
      "ĠIts": 6373,
      "sight": 6374,
      "odd": 6375,
      "Ġstanding": 6376,
      "ĠAND": 6377,
      "ĠEngine": 6378,
      "ography": 6379,
      "ĠMaster": 6380,
      "dese": 6381,
      "rouble": 6382,
      "Ġproperly": 6383,
      "hl": 6384,
      "Ġcourses": 6385,
      "reath": 6386,
      "ĠUSA": 6387,
      "ĠWord": 6388,
      "Ġven": 6389,
      "Ġextensive": 6390,
      "Ġserving": 6391,
      "ĠThursday": 6392,
      "Ġpair": 6393,
      "ĠDel": 6394,
      "Ġhole": 6395,
      "Ġdining": 6396,
      "ustomi": 6397,
      "Ġactions": 6398,
      "Ġtight": 6399,
      "Ġspoke": 6400,
      "Ġhttp": 6401,
      "rus": 6402,
      "ĠJan": 6403,
      "corporate": 6404,
      "Ġvideos": 6405,
      "Ġmouth": 6406,
      "rnoon": 6407,
      "Ġquote": 6408,
      "sad": 6409,
      "Ġrelationships": 6410,
      "itual": 6411,
      "unning": 6412,
      "neu": 6413,
      "Ġpreviously": 6414,
      "Ġrub": 6415,
      "Ġteachers": 6416,
      "Ġingredients": 6417,
      "ĠOl": 6418,
      "east": 6419,
      "charg": 6420,
      "Ġlived": 6421,
      "sex": 6422,
      "Ġimpo": 6423,
      "Ġpump": 6424,
      "Ġcontribu": 6425,
      "ĠOh": 6426,
      "Ġspending": 6427,
      "coast": 6428,
      "Ġelement": 6429,
      "Ġoutcome": 6430,
      "epartment": 6431,
      "Ġnav": 6432,
      "Ġassistance": 6433,
      "amete": 6434,
      "department": 6435,
      "azine": 6436,
      "laugh": 6437,
      "ĠUse": 6438,
      "ĠArch": 6439,
      "ifts": 6440,
      "Ġperspective": 6441,
      "Ġended": 6442,
      "Ġsitting": 6443,
      "Ġtemplate": 6444,
      "Ġcontinues": 6445,
      "ameter": 6446,
      "Ġlovel": 6447,
      "ĠDisc": 6448,
      "ĠInst": 6449,
      "Ġbus": 6450,
      "ĠVer": 6451,
      "servati": 6452,
      "ĠFranc": 6453,
      "Ġimportance": 6454,
      "Ġdese": 6455,
      "trouble": 6456,
      "Ġbusy": 6457,
      "ĠChild": 6458,
      "Ġorde": 6459,
      "met": 6460,
      "rof": 6461,
      "ĠGrand": 6462,
      "Ġisland": 6463,
      "state": 6464,
      "rison": 6465,
      "Ġfailu": 6466,
      "Ġguarantee": 6467,
      "Ġfruit": 6468,
      "adi": 6469,
      "ucture": 6470,
      "ĠYear": 6471,
      "Ġstrang": 6472,
      "cart": 6473,
      "ĠLike": 6474,
      "Ġtrouble": 6475,
      "Ġcorporate": 6476,
      "Ġfavour": 6477,
      "icon": 6478,
      "Ġhor": 6479,
      "Ġbrings": 6480,
      "Ġfees": 6481,
      "Ġoperate": 6482,
      "ĠPhot": 6483,
      "Ġcentre": 6484,
      "river": 6485,
      "Ġdepartment": 6486,
      "ĠWater": 6487,
      "Ġpha": 6488,
      "aped": 6489,
      "Ġstarts": 6490,
      "known": 6491,
      "Ġlovely": 6492,
      "Ġputting": 6493,
      "Ġminimum": 6494,
      "ĠBig": 6495,
      "Ġfantastic": 6496,
      "Ġunless": 6497,
      "Ġpropo": 6498,
      "ĠDuring": 6499,
      "Ġexciting": 6500,
      "Ġallowing": 6501,
      "Ġsudde": 6502,
      "ĠVir": 6503,
      "Ġrecommended": 6504,
      "Ġconcerns": 6505,
      "Ġmostl": 6506,
      "Ġmostly": 6507,
      "itive": 6508,
      "Ġlaws": 6509,
      "Ġappeared": 6510,
      "Ġbound": 6511,
      "zy": 6512,
      "ĠTuesday": 6513,
      "Ġaccompl": 6514,
      "ĠPublic": 6515,
      "chapter": 6516,
      "Fro": 6517,
      "Ġpolicies": 6518,
      "Ġir": 6519,
      "rised": 6520,
      "tta": 6521,
      "ĠTO": 6522,
      "tar": 6523,
      "ansform": 6524,
      "ransform": 6525,
      "ĠHall": 6526,
      "roll": 6527,
      "ĠAlex": 6528,
      "esig": 6529,
      "istri": 6530,
      "craft": 6531,
      "itable": 6532,
      "Ġfacility": 6533,
      "but": 6534,
      "udi": 6535,
      "Ġourselves": 6536,
      "Ġproceed": 6537,
      "Ġdetailed": 6538,
      "Ġfem": 6539,
      "dept": 6540,
      "Ġbrown": 6541,
      "Ġinterp": 6542,
      "Ġtin": 6543,
      "quent": 6544,
      "servation": 6545,
      "ĠGold": 6546,
      "Ġcarried": 6547,
      "asse": 6548,
      "Ġbattle": 6549,
      "Ġtypically": 6550,
      "âĢ²": 6551,
      "Ġdebt": 6552,
      "Ġinstance": 6553,
      "slati": 6554,
      "Than": 6555,
      "ships": 6556,
      "ĠCentral": 6557,
      "slation": 6558,
      "going": 6559,
      "Ġoccas": 6560,
      "Ġnotes": 6561,
      "Ġbeat": 6562,
      "By": 6563,
      "Ġinjury": 6564,
      "Ġrestri": 6565,
      "gon": 6566,
      "Ġspon": 6567,
      "tale": 6568,
      "Ġmental": 6569,
      "rum": 6570,
      "how": 6571,
      "rose": 6572,
      "Ġlaugh": 6573,
      "ishes": 6574,
      "Ġdiscussion": 6575,
      "Ġwinn": 6576,
      "Ġresearc": 6577,
      "Ġshower": 6578,
      "ĠUnd": 6579,
      "Ġobl": 6580,
      "liqu": 6581,
      "ocal": 6582,
      "Ġwinne": 6583,
      "idden": 6584,
      "Ġappa": 6585,
      "Ġconsu": 6586,
      "Ġwinner": 6587,
      "urb": 6588,
      "Ġdoors": 6589,
      "Ġresponsibility": 6590,
      "Ġupgr": 6591,
      "ĠLight": 6592,
      "ĠOpen": 6593,
      "Ġadvance": 6594,
      "thea": 6595,
      "Ġfamiliar": 6596,
      "trial": 6597,
      "Ġpreci": 6598,
      "Ġintera": 6599,
      "ĠMusi": 6600,
      "elim": 6601,
      "Ġneck": 6602,
      "sem": 6603,
      "From": 6604,
      "RA": 6605,
      "Ġpractical": 6606,
      "espite": 6607,
      "attle": 6608,
      "Ġstores": 6609,
      "despite": 6610,
      "Ġinstalled": 6611,
      "ĠTrump": 6612,
      "awesome": 6613,
      "ĠReso": 6614,
      "Ġcharg": 6615,
      "Ġeventually": 6616,
      "ĠSociety": 6617,
      "Ġrepu": 6618,
      "Ġwebsites": 6619,
      "Ġcoast": 6620,
      "Ġcombined": 6621,
      "Ġsuitable": 6622,
      "Ġstrange": 6623,
      "Ġexcept": 6624,
      "Ġboa": 6625,
      "Ġhel": 6626,
      "ivity": 6627,
      "Ġenvironmental": 6628,
      "scio": 6629,
      "ĠGermany": 6630,
      "Ġapproximately": 6631,
      "Ġregistered": 6632,
      "udd": 6633,
      "Thanks": 6634,
      "Ġfabri": 6635,
      "ÂŃ": 6636,
      "ĠCommittee": 6637,
      "Ġcomponents": 6638,
      "Ġposts": 6639,
      "Ġcultural": 6640,
      "astern": 6641,
      "lunch": 6642,
      "omi": 6643,
      "icense": 6644,
      "pper": 6645,
      "PA": 6646,
      "Ġthrow": 6647,
      "ĠClick": 6648,
      "ĠMusic": 6649,
      "ĠHen": 6650,
      "istrati": 6651,
      "transform": 6652,
      "Ġmer": 6653,
      "istration": 6654,
      "Ġseconds": 6655,
      "ube": 6656,
      "ĠWednesday": 6657,
      "sciou": 6658,
      "ĠChic": 6659,
      "Ġsoul": 6660,
      "scious": 6661,
      "Ġchapter": 6662,
      "Ġlocations": 6663,
      "ĠSum": 6664,
      "IA": 6665,
      "Ġconve": 6666,
      "Ġtopi": 6667,
      "Ġclimate": 6668,
      "Ġlia": 6669,
      "overs": 6670,
      "Ġ?": 6671,
      "Ġfabric": 6672,
      "Ġriver": 6673,
      "Ġtopic": 6674,
      "wate": 6675,
      "Ġherself": 6676,
      "ĠAcad": 6677,
      "Ġguys": 6678,
      "ĠFort": 6679,
      "Ġaffordable": 6680,
      "desig": 6681,
      "sile": 6682,
      "Ġafternoon": 6683,
      "fficient": 6684,
      "Ġagency": 6685,
      "Ġsauce": 6686,
      "chicken": 6687,
      "Ġ||": 6688,
      "Ġholding": 6689,
      "than": 6690,
      "tine": 6691,
      "lit": 6692,
      "thick": 6693,
      "aspects": 6694,
      "ĠCheck": 6695,
      "Ġswim": 6696,
      "Tha": 6697,
      "Ġarrived": 6698,
      "ĠGovernment": 6699,
      "Ġaspects": 6700,
      "Ġawesome": 6701,
      "ĠRock": 6702,
      "rained": 6703,
      "Ġlunch": 6704,
      "Ġwalls": 6705,
      "Ġsongs": 6706,
      "Ġstrategies": 6707,
      "library": 6708,
      "Ġinvesto": 6709,
      "whi": 6710,
      "Ġinvestor": 6711,
      "Ġleads": 6712,
      "Ġsurprise": 6713,
      "Ġopinion": 6714,
      "ĠID": 6715,
      "Ġboat": 6716,
      "sations": 6717,
      "Ġchair": 6718,
      "Ġindustrial": 6719,
      "using": 6720,
      "levision": 6721,
      "oys": 6722,
      "Ġvehicles": 6723,
      "olo": 6724,
      "ĠMedi": 6725,
      "Can": 6726,
      "Ġfellow": 6727,
      "berg": 6728,
      "Ġcart": 6729,
      "water": 6730,
      "Ġdespite": 6731,
      "tele": 6732,
      "CA": 6733,
      "esire": 6734,
      "desire": 6735,
      "Ġtransform": 6736,
      "ĠDevelopment": 6737,
      "Ġwit": 6738,
      "Ġig": 6739,
      "ĠDistri": 6740,
      "Ġbuildings": 6741,
      "license": 6742,
      "Ġshoulde": 6743,
      "Ġshoulder": 6744,
      "cid": 6745,
      "Ġdesire": 6746,
      "ĠSuper": 6747,
      "cher": 6748,
      "ĠMark": 6749,
      "Ġsymb": 6750,
      "inating": 6751,
      "Ġchicken": 6752,
      "ĠAnt": 6753,
      "agement": 6754,
      "Ġelim": 6755,
      "SS": 6756,
      "Ġasking": 6757,
      "Ġmotor": 6758,
      "Ġevalua": 6759,
      "ÑĢ": 6760,
      "Ġsad": 6761,
      "Ġremoved": 6762,
      "Ġevaluat": 6763,
      "whic": 6764,
      "which": 6765,
      "ÑĤ": 6766,
      "odies": 6767,
      "Ġaudi": 6768,
      "Ñģ": 6769,
      "Ġfinger": 6770,
      "inking": 6771,
      "Ġfunctions": 6772,
      "uses": 6773,
      "ertainment": 6774,
      "ĠLear": 6775,
      "ĠTwo": 6776,
      "Ġperfec": 6777,
      "ymp": 6778,
      "ros": 6779,
      "ails": 6780,
      "fortunately": 6781,
      "Ġsides": 6782,
      "Well": 6783,
      "ĠTop": 6784,
      "Ġprepare": 6785,
      "Ġrapid": 6786,
      "Ġmarried": 6787,
      "Ġupdated": 6788,
      "oph": 6789,
      "Ġmissing": 6790,
      "Ġflight": 6791,
      "Ġintroduced": 6792,
      "shire": 6793,
      "IR": 6794,
      "Ġfunding": 6795,
      "ĠSocial": 6796,
      "Ġintellig": 6797,
      "Ġdesig": 6798,
      "enu": 6799,
      "Ġhydr": 6800,
      "Ġbutter": 6801,
      "ĠSl": 6802,
      "Ġlegi": 6803,
      "nif": 6804,
      "Ġlicense": 6805,
      "Ġwinning": 6806,
      "Ġpanel": 6807,
      "ĠFounda": 6808,
      "Ġanimal": 6809,
      "ĠFoundat": 6810,
      "ĠFoundati": 6811,
      "Ġrespond": 6812,
      "ĠFoundation": 6813,
      "Ġthick": 6814,
      "Ġdiscovered": 6815,
      "Ġflowers": 6816,
      "customi": 6817,
      "Ġarticles": 6818,
      "Ġdevelope": 6819,
      "Ġperc": 6820,
      "sphere": 6821,
      "ĠOnline": 6822,
      "Ġliqu": 6823,
      "cable": 6824,
      "Ġplug": 6825,
      "ĠTem": 6826,
      "Ġvac": 6827,
      "Ġdepending": 6828,
      "irds": 6829,
      "Ġlights": 6830,
      "ĠAndr": 6831,
      "Ġfell": 6832,
      "atives": 6833,
      "II": 6834,
      "Ġinfr": 6835,
      "Ġbelong": 6836,
      "Ġspecifically": 6837,
      "ĠForm": 6838,
      "Ġdeveloper": 6839,
      "ĠCD": 6840,
      "Ġsupported": 6841,
      "Ġanywhere": 6842,
      "Ġexpertise": 6843,
      "Ġexplain": 6844,
      "urth": 6845,
      "cake": 6846,
      "Ġgoods": 6847,
      "ĠCarol": 6848,
      "Ġpartners": 6849,
      "Ġacademic": 6850,
      "ĠWr": 6851,
      "Ġcommitted": 6852,
      "Ġcategory": 6853,
      "bal": 6854,
      "dial": 6855,
      "____": 6856,
      "Ġconfidence": 6857,
      "Ġvolunteer": 6858,
      "Ġtrial": 6859,
      "irma": 6860,
      "Ġpurposes": 6861,
      "ĠAfrican": 6862,
      "ĠAM": 6863,
      "ĠDistric": 6864,
      "Ġcheese": 6865,
      "ĠDistrict": 6866,
      "ĠSco": 6867,
      "Ġcustomi": 6868,
      "aunch": 6869,
      "iner": 6870,
      "Just": 6871,
      "ĠUnde": 6872,
      "estic": 6873,
      "Ġstopped": 6874,
      "Ġelectric": 6875,
      "unct": 6876,
      "Ġpossibly": 6877,
      "Ġconfident": 6878,
      "eman": 6879,
      "Ġradio": 6880,
      "ĠBeac": 6881,
      "nx": 6882,
      "Ġminor": 6883,
      "Ġfixed": 6884,
      "Ġmeal": 6885,
      "Ġlibrary": 6886,
      "Ġinfo": 6887,
      "ĠValley": 6888,
      "Ġremo": 6889,
      "Thank": 6890,
      "kin": 6891,
      "caught": 6892,
      "ĠHill": 6893,
      "Ġtrading": 6894,
      "ĠUnion": 6895,
      "Ġthea": 6896,
      "Ġtele": 6897,
      "Ġfreed": 6898,
      "Ġappearance": 6899,
      "aled": 6900,
      "Ġconfl": 6901,
      "Ġglad": 6902,
      "Ġfarm": 6903,
      "Ġrent": 6904,
      "ĠBeach": 6905,
      "Ġshar": 6906,
      "Ġparking": 6907,
      "Ġinstant": 6908,
      "Ġinitia": 6909,
      "ĠHu": 6910,
      "ighted": 6911,
      "theory": 6912,
      "Ġvaluable": 6913,
      "Ġstre": 6914,
      "trick": 6915,
      "ĠRoma": 6916,
      "telling": 6917,
      "Ġkilled": 6918,
      "epart": 6919,
      "sant": 6920,
      "ĠFu": 6921,
      "Ġbreakfast": 6922,
      "Ġsigned": 6923,
      "depart": 6924,
      "mous": 6925,
      "Ġelectronic": 6926,
      "Ġchoices": 6927,
      "ĠSi": 6928,
      "Ġarms": 6929,
      "ĠHal": 6930,
      "OD": 6931,
      "elicious": 6932,
      "Ġcompetitive": 6933,
      "Ġbattery": 6934,
      "Ġbroken": 6935,
      "Ġaccounts": 6936,
      "azy": 6937,
      "Ġflavor": 6938,
      "ĠMel": 6939,
      "Ġmotiv": 6940,
      "delicious": 6941,
      "Ġtechnologies": 6942,
      "Ġswa": 6943,
      "Ġsile": 6944,
      "hocolate": 6945,
      "Ġmeasures": 6946,
      "asp": 6947,
      "Ġintended": 6948,
      "Ġcontain": 6949,
      "Ġnone": 6950,
      "Ġscr": 6951,
      "Ġtale": 6952,
      "nly": 6953,
      "inent": 6954,
      "corr": 6955,
      "LC": 6956,
      "while": 6957,
      "Ġcaught": 6958,
      "ĠMuseum": 6959,
      "iations": 6960,
      "Ġpil": 6961,
      "Ġprogramme": 6962,
      "Ġlandscape": 6963,
      "Are": 6964,
      "tast": 6965,
      "launch": 6966,
      "Ġful": 6967,
      "coa": 6968,
      "ij": 6969,
      "ĠEr": 6970,
      "ĠNews": 6971,
      "Ġemotional": 6972,
      "Ġdelicious": 6973,
      "Ġhouses": 6974,
      "Ġju": 6975,
      "Ġsympt": 6976,
      "omed": 6977,
      "apon": 6978,
      "igate": 6979,
      "Ġindicate": 6980,
      "Ġreliable": 6981,
      "Ġforces": 6982,
      "Ġstri": 6983,
      "Ġshipping": 6984,
      "hoo": 6985,
      "Ġcalling": 6986,
      "pointed": 6987,
      "ĠTeam": 6988,
      "otally": 6989,
      "Ġrespective": 6990,
      "Ġdelivered": 6991,
      "Ġtheory": 6992,
      "Ġdepart": 6993,
      "ĠParty": 6994,
      "BA": 6995,
      "yt": 6996,
      "hamp": 6997,
      "ificate": 6998,
      "Ġsurvey": 6999,
      "totally": 7000,
      "Ġconversation": 7001,
      "Ġmilk": 7002,
      "ENT": 7003,
      "Ġencourage": 7004,
      "catch": 7005,
      "Ġdial": 7006,
      "cific": 7007,
      "ĠWall": 7008,
      "Ġseek": 7009,
      "pload": 7010,
      "PR": 7011,
      "Ġinterests": 7012,
      "Ġfaster": 7013,
      "ĠToday": 7014,
      "ĠData": 7015,
      "ĠFina": 7016,
      "Ġguy": 7017,
      "acts": 7018,
      "Ġsustai": 7019,
      "Ġdish": 7020,
      "Ġprofile": 7021,
      "Ġautomatically": 7022,
      "Ġknowing": 7023,
      "ĠJournal": 7024,
      "Ġbreath": 7025,
      "Ġconfli": 7026,
      "ĠTran": 7027,
      "Ġfeedback": 7028,
      "Ġlap": 7029,
      "Ġspirit": 7030,
      "ĠLook": 7031,
      "ogo": 7032,
      "eans": 7033,
      "Ġfuel": 7034,
      "Ġcollaborat": 7035,
      "ĠTou": 7036,
      "Ġhearing": 7037,
      "Ġinfl": 7038,
      "ĠStep": 7039,
      "ĠTake": 7040,
      "CT": 7041,
      "Ġepisode": 7042,
      "Ġdetermined": 7043,
      "stry": 7044,
      "Ġsem": 7045,
      "inet": 7046,
      "rug": 7047,
      "Ġfields": 7048,
      "Ð½": 7049,
      "Ġgreatest": 7050,
      "BS": 7051,
      "searc": 7052,
      "Ġtotally": 7053,
      "elay": 7054,
      "Ġton": 7055,
      "iminal": 7056,
      "ĠMass": 7057,
      "cm": 7058,
      "ooting": 7059,
      "Ġworse": 7060,
      "ĠCount": 7061,
      "ĠBuild": 7062,
      "prof": 7063,
      "nings": 7064,
      "reness": 7065,
      "ĠWestern": 7066,
      "Ġcomprehensive": 7067,
      "Ġbread": 7068,
      "Ġmach": 7069,
      "Ġpee": 7070,
      "Ġconv": 7071,
      "Ġlaunch": 7072,
      "igra": 7073,
      "Ġaccident": 7074,
      "ĠÎ": 7075,
      "rf": 7076,
      "egot": 7077,
      "Ġinnovative": 7078,
      "chocolate": 7079,
      "Ġintegra": 7080,
      "Ġinspired": 7081,
      "Ġrepe": 7082,
      "ĠCommunity": 7083,
      "ĠUnder": 7084,
      "holder": 7085,
      "Ġquant": 7086,
      "Don": 7087,
      "ady": 7088,
      "ĠAmazon": 7089,
      "Ġdeals": 7090,
      "ĠRic": 7091,
      "Ġstood": 7092,
      "coord": 7093,
      "Ġphysi": 7094,
      "Ġhousing": 7095,
      "Ġfeels": 7096,
      "strate": 7097,
      "Ġintegrat": 7098,
      "Ġadults": 7099,
      "ĠSmith": 7100,
      "Ġcatch": 7101,
      "ĠKit": 7102,
      "Ġdistric": 7103,
      "ĠLeague": 7104,
      "rity": 7105,
      "ĠPay": 7106,
      "Ġtail": 7107,
      "Ġdistrict": 7108,
      "isco": 7109,
      "deck": 7110,
      "ĠJapanese": 7111,
      "Ġadm": 7112,
      "Ġexpo": 7113,
      "Ġremaining": 7114,
      "ĠTown": 7115,
      "Ġsucc": 7116,
      "election": 7117,
      "ĠSpecial": 7118,
      "Oh": 7119,
      "ĠCustom": 7120,
      "delay": 7121,
      "Ġremot": 7122,
      "Ġparticipants": 7123,
      "Ġnovel": 7124,
      "lite": 7125,
      "anx": 7126,
      "tickets": 7127,
      "Ġpipe": 7128,
      "Ġsigns": 7129,
      "Ġremote": 7130,
      "Ġraise": 7131,
      "Ġpad": 7132,
      "isi": 7133,
      "Ġcooking": 7134,
      "orney": 7135,
      "Ġdeposit": 7136,
      "nsu": 7137,
      "Ġborder": 7138,
      "Ġadmit": 7139,
      "ocra": 7140,
      "Ġcrime": 7141,
      "ĠCongress": 7142,
      "Ġanc": 7143,
      "Ġexamples": 7144,
      "Ġdogs": 7145,
      "asc": 7146,
      "Ġemergency": 7147,
      "Ġroll": 7148,
      "ĠChicago": 7149,
      "Ġina": 7150,
      "Ġchocolate": 7151,
      "Ġreduced": 7152,
      "Ġpull": 7153,
      "Ġrealize": 7154,
      "Ġreplace": 7155,
      "ecrea": 7156,
      "ually": 7157,
      "decrea": 7158,
      "Ġwhee": 7159,
      "Ġperfectly": 7160,
      "ĠHave": 7161,
      "hand": 7162,
      "Ġtwi": 7163,
      "toes": 7164,
      "Every": 7165,
      "sized": 7166,
      "Ġcable": 7167,
      "ĠAL": 7168,
      "bout": 7169,
      "silver": 7170,
      "Ġupp": 7171,
      "Ġkinds": 7172,
      "ooper": 7173,
      "Ġburn": 7174,
      "plicat": 7175,
      "uste": 7176,
      "Ġfilter": 7177,
      "lem": 7178,
      "Ġmark": 7179,
      "Ġagent": 7180,
      "cking": 7181,
      "ĠRu": 7182,
      "ĠCall": 7183,
      "Ġcutting": 7184,
      "Ġcarefully": 7185,
      "raw": 7186,
      "Ġbringing": 7187,
      "ĠEarth": 7188,
      "Ġappreciate": 7189,
      "Ġemployer": 7190,
      "ums": 7191,
      "depth": 7192,
      "Ġpush": 7193,
      "efully": 7194,
      "thenti": 7195,
      "ĠParis": 7196,
      "stic": 7197,
      "ĠCanad": 7198,
      "sma": 7199,
      "Ġtickets": 7200,
      "Ġbrands": 7201,
      "Ġclimb": 7202,
      "trained": 7203,
      "Ġquiet": 7204,
      "OP": 7205,
      "Ġjoy": 7206,
      "astructure": 7207,
      "Ġdecrea": 7208,
      "Ġmeat": 7209,
      "mark": 7210,
      "sand": 7211,
      "arr": 7212,
      "Ġcorr": 7213,
      "ĠElectr": 7214,
      "ĠScott": 7215,
      "ĠSw": 7216,
      "Ġpermit": 7217,
      "Ġinten": 7218,
      "Ġsin": 7219,
      "Ġdelay": 7220,
      "Ġadult": 7221,
      "Ġrating": 7222,
      "Ad": 7223,
      "fil": 7224,
      "isher": 7225,
      "ko": 7226,
      "upon": 7227,
      "gna": 7228,
      "Ġvet": 7229,
      "ĠBoth": 7230,
      "ambe": 7231,
      "Ġcoord": 7232,
      "dly": 7233,
      "Ġeducational": 7234,
      "ĠPM": 7235,
      "Ġphiloso": 7236,
      "rson": 7237,
      "lections": 7238,
      "ĠMatt": 7239,
      "Ġmel": 7240,
      "Ġvegetable": 7241,
      "Ġdestroy": 7242,
      "Ġexpressi": 7243,
      "ĠDoc": 7244,
      "âģ": 7245,
      "hon": 7246,
      "Ġchart": 7247,
      "Ġchosen": 7248,
      "ĠIP": 7249,
      "Ġspi": 7250,
      "irty": 7251,
      "Ġspee": 7252,
      "irro": 7253,
      "Ġvary": 7254,
      "igan": 7255,
      "ups": 7256,
      "ĠQuee": 7257,
      "ĠCamp": 7258,
      "Ġorders": 7259,
      "ĠInformation": 7260,
      "Ġyes": 7261,
      "Ġbea": 7262,
      "alen": 7263,
      "ĠUN": 7264,
      "nou": 7265,
      "ĠStra": 7266,
      "Ġapproved": 7267,
      "Ġcoa": 7268,
      "Ġconclu": 7269,
      "Ġchain": 7270,
      "Ġbowl": 7271,
      "Ġcreati": 7272,
      "llery": 7273,
      "ani": 7274,
      "nesse": 7275,
      "ĠChamp": 7276,
      "Ġcovers": 7277,
      "âģĦ": 7278,
      "ĠCru": 7279,
      "crew": 7280,
      "owde": 7281,
      "Ġrestaurants": 7282,
      "Ĥ¬": 7283,
      "Ġtrick": 7284,
      "champ": 7285,
      "Ġaid": 7286,
      "Ġaudio": 7287,
      "Ġreact": 7288,
      "Ġexcep": 7289,
      "ĠInter": 7290,
      "ĠSecurity": 7291,
      "Ġmom": 7292,
      "td": 7293,
      "Ġdeck": 7294,
      "tmo": 7295,
      "Ġadministration": 7296,
      "Ġfailure": 7297,
      "ĠAtl": 7298,
      "Ġlabe": 7299,
      "irror": 7300,
      "ĠFood": 7301,
      "ĠProt": 7302,
      "ĠMot": 7303,
      "Ġformed": 7304,
      "Ġcontext": 7305,
      "coach": 7306,
      "lson": 7307,
      "Ġexpression": 7308,
      "SA": 7309,
      "lined": 7310,
      "Ġowned": 7311,
      "IF": 7312,
      "Ġproviders": 7313,
      "placed": 7314,
      "las": 7315,
      "lies": 7316,
      "dimen": 7317,
      "DF": 7318,
      "vement": 7319,
      "Ġhundreds": 7320,
      "ĠProject": 7321,
      "Ġimproved": 7322,
      "Ġsupposed": 7323,
      "Ġtwenty": 7324,
      "ĠLong": 7325,
      "Ġbridge": 7326,
      "Ġuppe": 7327,
      "Ġupper": 7328,
      "Pa": 7329,
      "Ġpaying": 7330,
      "erated": 7331,
      "Ġsurrounding": 7332,
      "Ġeffectivel": 7333,
      "Ġtherapy": 7334,
      "Ġeffectively": 7335,
      "ocrat": 7336,
      "Ġreaders": 7337,
      "Ġuniversity": 7338,
      "Ġadvertising": 7339,
      "ĠWho": 7340,
      "Ġporti": 7341,
      "Ġrose": 7342,
      "igrat": 7343,
      "Ġstrugg": 7344,
      "ĠMicrosoft": 7345,
      "Ġanx": 7346,
      "ĠOnl": 7347,
      "Ġenable": 7348,
      "Ġyellow": 7349,
      "ssible": 7350,
      "Ġcauses": 7351,
      "cades": 7352,
      "ules": 7353,
      "ĠVirgin": 7354,
      "atmo": 7355,
      "Ġperma": 7356,
      "Acc": 7357,
      "essed": 7358,
      "Ġfailed": 7359,
      "Ġsky": 7360,
      "Ġagreed": 7361,
      "idat": 7362,
      "erial": 7363,
      "Br": 7364,
      "Ġgraduate": 7365,
      "ĠProv": 7366,
      "Ġigno": 7367,
      "ĠFrank": 7368,
      "Ġinterface": 7369,
      "Ã¼": 7370,
      "ĠCard": 7371,
      "evil": 7372,
      "Ġindeed": 7373,
      "Sc": 7374,
      "Sa": 7375,
      "fact": 7376,
      "Ġswitch": 7377,
      "Ġalum": 7378,
      "ĠOnly": 7379,
      "Ġsilver": 7380,
      "Ġexternal": 7381,
      "Ġhistorical": 7382,
      "Ġfoods": 7383,
      "Ġaccepted": 7384,
      "azi": 7385,
      "Ġempha": 7386,
      "Mi": 7387,
      "Ġresolution": 7388,
      "iled": 7389,
      "Ġpremium": 7390,
      "ĠHy": 7391,
      "ĠQueen": 7392,
      "uck": 7393,
      "ĠCons": 7394,
      "gear": 7395,
      "Ġharm": 7396,
      "Ġweapon": 7397,
      "Ġchamp": 7398,
      "Ġtests": 7399,
      "fore": 7400,
      "Ġneu": 7401,
      "Ġconsumers": 7402,
      "ĠAccording": 7403,
      "Ġmatters": 7404,
      "unn": 7405,
      "Ġsettings": 7406,
      "amic": 7407,
      "Ġlaunched": 7408,
      "Ġatmo": 7409,
      "elevision": 7410,
      "ĠWhether": 7411,
      "ĠNetwork": 7412,
      "inar": 7413,
      "Ġseeking": 7414,
      "depend": 7415,
      "Ġvir": 7416,
      "turally": 7417,
      "ĠCentre": 7418,
      "erry": 7419,
      "diso": 7420,
      "Ġinstructions": 7421,
      "Ġble": 7422,
      "Ġuniver": 7423,
      "ĠOld": 7424,
      "Ġhonor": 7425,
      "Ġguest": 7426,
      "Ġsex": 7427,
      "ensu": 7428,
      "ibilities": 7429,
      "Ġprison": 7430,
      "Ġnoted": 7431,
      "Ġdistribution": 7432,
      "Ġcreation": 7433,
      "Ġrecommenda": 7434,
      "Ġparticipate": 7435,
      "Ġregularl": 7436,
      "Ġregularly": 7437,
      "appy": 7438,
      "Ġcrew": 7439,
      "ĠYes": 7440,
      "Ġportion": 7441,
      "onate": 7442,
      "ĠTom": 7443,
      "owder": 7444,
      "Ġsupplies": 7445,
      "ĠBrown": 7446,
      "Ġfemale": 7447,
      "ĠTwitter": 7448,
      "Ġteach": 7449,
      "mers": 7450,
      "Ġpurchased": 7451,
      "Ġvictim": 7452,
      "ĠThomas": 7453,
      "Ġhurt": 7454,
      "Ġparent": 7455,
      "OC": 7456,
      "taught": 7457,
      "Ġbirthday": 7458,
      "ront": 7459,
      "Ġvisiting": 7460,
      "lend": 7461,
      "ĠBack": 7462,
      "Ġwalked": 7463,
      "Ġconcerned": 7464,
      "Ġnod": 7465,
      "ohol": 7466,
      "Ġentirel": 7467,
      "bert": 7468,
      "Ġentirely": 7469,
      "ecades": 7470,
      "decades": 7471,
      "Ġdiso": 7472,
      "Ġinterac": 7473,
      "lying": 7474,
      "Ġjudge": 7475,
      "television": 7476,
      "Ġremind": 7477,
      "aser": 7478,
      "uncti": 7479,
      "ml": 7480,
      "Ġrail": 7481,
      "ogen": 7482,
      "ĠRan": 7483,
      "Ġsmile": 7484,
      "wn": 7485,
      "cre": 7486,
      "yan": 7487,
      "Ġjoint": 7488,
      "Ġlea": 7489,
      "Ġdecades": 7490,
      "Ġinteract": 7491,
      "inations": 7492,
      "Ġgat": 7493,
      "Ġpainting": 7494,
      "eou": 7495,
      "cohol": 7496,
      "Ġcoach": 7497,
      "Ġproposed": 7498,
      "ĠRichard": 7499,
      "Ġtwic": 7500,
      "erce": 7501,
      "Ġtwice": 7502,
      "Ġorganic": 7503,
      "ĠKorea": 7504,
      "Ġcorrespon": 7505,
      "Ġdollars": 7506,
      "Ġcommitment": 7507,
      "Ġneighborhood": 7508,
      "Ġperman": 7509,
      "Ġcloser": 7510,
      "ailing": 7511,
      "eiling": 7512,
      "Ġtreated": 7513,
      "that": 7514,
      "thlet": 7515,
      "Ġspeaking": 7516,
      "Ġconduct": 7517,
      "Ġmonthl": 7518,
      "Ġmonthly": 7519,
      "ĠProc": 7520,
      "Ġpassion": 7521,
      "athlet": 7522,
      "Ġbegins": 7523,
      "unting": 7524,
      "ala": 7525,
      "Ġtelevision": 7526,
      "ĠIl": 7527,
      "Ġimagine": 7528,
      "iu": 7529,
      "Ġgrown": 7530,
      "eous": 7531,
      "iPh": 7532,
      "Ġancient": 7533,
      "ĠManage": 7534,
      "Ġvalid": 7535,
      "tto": 7536,
      "Ġengineering": 7537,
      "tox": 7538,
      "odg": 7539,
      "reak": 7540,
      "Ġresource": 7541,
      "estyle": 7542,
      "type": 7543,
      "ĠAS": 7544,
      "Ġlighting": 7545,
      "aze": 7546,
      "Ġconvenient": 7547,
      "Ġplays": 7548,
      "Ġchie": 7549,
      "Ġhousehold": 7550,
      "Ġgrade": 7551,
      "nny": 7552,
      "sides": 7553,
      "negot": 7554,
      "Ġrecorded": 7555,
      "Ġcircumstances": 7556,
      "llia": 7557,
      "ĠHistory": 7558,
      "Ġdepend": 7559,
      "Ġjui": 7560,
      "ĠKat": 7561,
      "Ġvan": 7562,
      "pace": 7563,
      "Once": 7564,
      "Ġcontemporary": 7565,
      "hread": 7566,
      "Ġbelief": 7567,
      "ĠVil": 7568,
      "Ġsupporting": 7569,
      "Ġsurgery": 7570,
      "Ġrental": 7571,
      "Ġupdates": 7572,
      "rint": 7573,
      "acid": 7574,
      "esterday": 7575,
      "'.": 7576,
      "Ġencount": 7577,
      "Ġestimate": 7578,
      "Ġrecognize": 7579,
      "Ġmagn": 7580,
      "UT": 7581,
      "Ġreligio": 7582,
      "Ġidentified": 7583,
      "apping": 7584,
      "Ġscientific": 7585,
      "Ġclinical": 7586,
      "ĠAward": 7587,
      "roughl": 7588,
      "roughly": 7589,
      "nam": 7590,
      "Ġends": 7591,
      "ogue": 7592,
      "Ġsheet": 7593,
      "Ġscheme": 7594,
      "ĠRussian": 7595,
      "Ġcharges": 7596,
      "However": 7597,
      "lel": 7598,
      "Ġexcess": 7599,
      "thread": 7600,
      "Ġsignificantl": 7601,
      "Ġheight": 7602,
      "Ġsignificantly": 7603,
      "Ġreligiou": 7604,
      "Ġreligious": 7605,
      "ĠTechnology": 7606,
      "Ġentered": 7607,
      "choo": 7608,
      "ĠWomen": 7609,
      "embly": 7610,
      "Ġappointment": 7611,
      "Ġtaught": 7612,
      "Let": 7613,
      "Ġfrequently": 7614,
      "wid": 7615,
      "repren": 7616,
      "Ġequal": 7617,
      "ĠAustralian": 7618,
      "Ġusual": 7619,
      "Ġmanufacturing": 7620,
      "issi": 7621,
      "xy": 7622,
      "born": 7623,
      "Ġseque": 7624,
      "ĠAndroid": 7625,
      "Ġsymbol": 7626,
      "erma": 7627,
      "Ġdomain": 7628,
      "Ġefficiency": 7629,
      "Ġcontainer": 7630,
      "Ġcarp": 7631,
      "ĠItalian": 7632,
      "Ġtrained": 7633,
      "chnic": 7634,
      "Ap": 7635,
      "Ġgrab": 7636,
      "Ġmainl": 7637,
      "Ġexac": 7638,
      "Ġbigg": 7639,
      "Ġchanne": 7640,
      "Ġgrew": 7641,
      "Ġelection": 7642,
      "rri": 7643,
      "Â°": 7644,
      "ĠPlac": 7645,
      "Ġsymptoms": 7646,
      "uan": 7647,
      "ĠNY": 7648,
      "tough": 7649,
      "Ġboys": 7650,
      "Ġweak": 7651,
      "ĠAnn": 7652,
      "ĠCommission": 7653,
      "Ġconsidering": 7654,
      "LA": 7655,
      "Ġshoes": 7656,
      "Ġmassive": 7657,
      "Ġleather": 7658,
      "cke": 7659,
      "Ġregister": 7660,
      "apos": 7661,
      "ÃŃ": 7662,
      "Ġmoti": 7663,
      "Ġchoo": 7664,
      "inch": 7665,
      "Ġprotein": 7666,
      "Ġfilms": 7667,
      "lip": 7668,
      "ske": 7669,
      "Ġstated": 7670,
      "OV": 7671,
      "ucted": 7672,
      "ĠIndust": 7673,
      "itioner": 7674,
      "umn": 7675,
      "Ġensu": 7676,
      "ĠMember": 7677,
      "Ġgate": 7678,
      "Ġmonito": 7679,
      "Ġofficials": 7680,
      "Ġfreedo": 7681,
      "Ġfreedom": 7682,
      "Ġpatterns": 7683,
      "Ġmarriage": 7684,
      "Ġanswers": 7685,
      "Ġwest": 7686,
      "ĠHD": 7687,
      "frien": 7688,
      "scribe": 7689,
      "ĠLouis": 7690,
      "ĠCH": 7691,
      "ernal": 7692,
      "Ġvs": 7693,
      "Ġrecovery": 7694,
      "Ġpicked": 7695,
      "Ġcontrast": 7696,
      "Ġrelativel": 7697,
      "Ġrelatively": 7698,
      "Ġapps": 7699,
      "dust": 7700,
      "Ġobjects": 7701,
      "Ġdrivers": 7702,
      "Ġwheel": 7703,
      "ĠHote": 7704,
      "ĠTable": 7705,
      "ĠYOU": 7706,
      "Ġissued": 7707,
      "ĠDis": 7708,
      "Ġnegot": 7709,
      "lusi": 7710,
      "Ġbrowser": 7711,
      "Ġholds": 7712,
      "Ġembr": 7713,
      "Ġassets": 7714,
      "ĠAsia": 7715,
      "Ġviol": 7716,
      "ĠPan": 7717,
      "aded": 7718,
      "Ġstudi": 7719,
      "Ġturning": 7720,
      "illed": 7721,
      "rst": 7722,
      "alls": 7723,
      "ĠOR": 7724,
      "Ġbigge": 7725,
      "amin": 7726,
      "Ġmotion": 7727,
      "Ġaffected": 7728,
      "Ġgear": 7729,
      "cian": 7730,
      "Ġpresenta": 7731,
      "Ġbigger": 7732,
      "ĠReview": 7733,
      "Ġdefined": 7734,
      "ĠiPh": 7735,
      "ĠHotel": 7736,
      "Ġrid": 7737,
      "ĠControl": 7738,
      "?'": 7739,
      "Ġrecr": 7740,
      "Ġtasks": 7741,
      "Ġfourth": 7742,
      "Ġ>": 7743,
      "Ġsizes": 7744,
      "Ġpoly": 7745,
      "Ġconstantl": 7746,
      "Ġconstantly": 7747,
      "Ġtough": 7748,
      "Ġpresentat": 7749,
      "Ġturns": 7750,
      "amed": 7751,
      "Ġpresentati": 7752,
      "kay": 7753,
      "Ġsubse": 7754,
      "Ġpresentation": 7755,
      "nforc": 7756,
      "Ġenterprise": 7757,
      "Ġtim": 7758,
      "lst": 7759,
      "ispo": 7760,
      "Ġplanned": 7761,
      "Ġstudio": 7762,
      "ission": 7763,
      "olence": 7764,
      "Ġkno": 7765,
      "Ġstring": 7766,
      "grega": 7767,
      "Ġcott": 7768,
      "Ġincredible": 7769,
      "Ġslowl": 7770,
      "Ġaccompa": 7771,
      "Ġslowly": 7772,
      "Ġcake": 7773,
      "Ġathlet": 7774,
      "Ġtopics": 7775,
      "Ġresol": 7776,
      "pot": 7777,
      "Ġped": 7778,
      "ĠConn": 7779,
      "Ġrevenue": 7780,
      "Ġforced": 7781,
      "ĠMayb": 7782,
      "tters": 7783,
      "enforc": 7784,
      "Ġacid": 7785,
      "Te": 7786,
      "Ġkick": 7787,
      "spap": 7788,
      "Ġrecognized": 7789,
      "ĠWhere": 7790,
      "Ġauthority": 7791,
      "Ġnoticed": 7792,
      "Ġiron": 7793,
      "Ġreplacement": 7794,
      "ĠFamily": 7795,
      "rey": 7796,
      "oal": 7797,
      "lusion": 7798,
      "Ġclothes": 7799,
      "ĠEnt": 7800,
      "Ġreasonable": 7801,
      "Ġdating": 7802,
      "ĠTest": 7803,
      "spape": 7804,
      "erson": 7805,
      "spaper": 7806,
      "sessions": 7807,
      "gagement": 7808,
      "ĠFind": 7809,
      "Ġconfir": 7810,
      "Ġrear": 7811,
      "aked": 7812,
      "nated": 7813,
      "Ġni": 7814,
      "ĠMem": 7815,
      "unction": 7816,
      "iles": 7817,
      "Wo": 7818,
      "aves": 7819,
      "Ġstrike": 7820,
      "Ġthread": 7821,
      "Ġcontribute": 7822,
      "ĠMaybe": 7823,
      "Ġcommittee": 7824,
      "Ġextended": 7825,
      "Ġreceiving": 7826,
      "Look": 7827,
      "TER": 7828,
      "Jo": 7829,
      "cade": 7830,
      "lon": 7831,
      "Ġmachines": 7832,
      "lse": 7833,
      "MA": 7834,
      "dispo": 7835,
      "Ġearn": 7836,
      "Ġhire": 7837,
      "Ġsuccessfully": 7838,
      "Ġinfrastructure": 7839,
      "ĠOrga": 7840,
      "CE": 7841,
      "sors": 7842,
      "ords": 7843,
      "ĠInstead": 7844,
      "ĠNOT": 7845,
      "ĠLtd": 7846,
      "ĠLos": 7847,
      "Ġcruc": 7848,
      "Ġiso": 7849,
      "ĠMic": 7850,
      "gover": 7851,
      "ĠNote": 7852,
      "ycl": 7853,
      "ĠManager": 7854,
      "ĠExc": 7855,
      "].": 7856,
      "ĠAmericans": 7857,
      "Ġdegrees": 7858,
      "Ġimpleme": 7859,
      "?âĢĿ": 7860,
      "lower": 7861,
      "rela": 7862,
      "ĠId": 7863,
      "ancy": 7864,
      "Ġimpossible": 7865,
      "Ġinstitutions": 7866,
      "Ġhung": 7867,
      "ĠSqu": 7868,
      "mond": 7869,
      "Ġlos": 7870,
      "Then": 7871,
      "Ġoutput": 7872,
      "Ġfift": 7873,
      "Ġenhance": 7874,
      "UN": 7875,
      "Ġnative": 7876,
      "Ġtelling": 7877,
      "Ġletters": 7878,
      "Ġdrag": 7879,
      "Any": 7880,
      "mil": 7881,
      "ĠRoyal": 7882,
      "ĠArts": 7883,
      "ĠVict": 7884,
      "press": 7885,
      "rsey": 7886,
      "ĠMedical": 7887,
      "ĠGarden": 7888,
      "Ġshares": 7889,
      "Ġsessions": 7890,
      "ĠLat": 7891,
      "ĠCA": 7892,
      "tab": 7893,
      "ĠHead": 7894,
      "rism": 7895,
      "Ġvast": 7896,
      "nuc": 7897,
      "rando": 7898,
      "Ġchannel": 7899,
      "Ġspeec": 7900,
      "Ġdispo": 7901,
      "Ġexplained": 7902,
      "Ġspeech": 7903,
      "Ġsolar": 7904,
      "erty": 7905,
      "Ġstars": 7906,
      "ĠCanadian": 7907,
      "isis": 7908,
      "Ġregional": 7909,
      "tically": 7910,
      "Ġcelebrate": 7911,
      "Ġretail": 7912,
      "erie": 7913,
      "Ġoven": 7914,
      "Ġskil": 7915,
      "ĠDownload": 7916,
      "imated": 7917,
      "coc": 7918,
      "ĠHosp": 7919,
      "Ġforth": 7920,
      "Ġidentity": 7921,
      "Ġwearing": 7922,
      "lated": 7923,
      "Ġnearby": 7924,
      "TA": 7925,
      "ĠON": 7926,
      "itate": 7927,
      "amber": 7928,
      "lib": 7929,
      "Ġclosel": 7930,
      "Ġclosely": 7931,
      "Ġapartment": 7932,
      "usand": 7933,
      "ision": 7934,
      "Ġguard": 7935,
      "Ġsituations": 7936,
      "Ġmessages": 7937,
      "Ġpulled": 7938,
      "cism": 7939,
      "utine": 7940,
      "Ġgal": 7941,
      "Ġmoments": 7942,
      "tiss": 7943,
      "Ġdescription": 7944,
      "lton": 7945,
      "Ġfur": 7946,
      "logo": 7947,
      "ĠVicto": 7948,
      "Ġpositions": 7949,
      "opy": 7950,
      "ĠPlace": 7951,
      "Ġprocedures": 7952,
      "Ġregistration": 7953,
      "ĠRoom": 7954,
      "Ġhyp": 7955,
      "ĠRussia": 7956,
      "tone": 7957,
      "ĠCup": 7958,
      "Ġexplo": 7959,
      "Ġease": 7960,
      "Ġconducted": 7961,
      "Ġbelieved": 7962,
      "searching": 7963,
      "Ġtruck": 7964,
      "Ġsuggested": 7965,
      "Ġautomati": 7966,
      "ĠMinister": 7967,
      "acknow": 7968,
      "sist": 7969,
      "ĠShow": 7970,
      "',": 7971,
      "Ġimpressive": 7972,
      "ez": 7973,
      "ĠAuto": 7974,
      "igrati": 7975,
      "Ġflag": 7976,
      "ĠDig": 7977,
      "nter": 7978,
      "ĠRE": 7979,
      "igration": 7980,
      "ĠSpanish": 7981,
      "Ġdevo": 7982,
      "corn": 7983,
      "SE": 7984,
      "enda": 7985,
      "Ġtypical": 7986,
      "gi": 7987,
      "ications": 7988,
      "Ġcrowd": 7989,
      "ĠHuman": 7990,
      "Ġassessment": 7991,
      "reets": 7992,
      "Ġcontracto": 7993,
      "itioning": 7994,
      "Ġcontractor": 7995,
      "âĢĻ.": 7996,
      "input": 7997,
      "Ġchief": 7998,
      "Ð¾Ð": 7999,
      "xe": 8000,
      "stal": 8001,
      "Ġobvio": 8002,
      "ĠReal": 8003,
      "Ġobviou": 8004,
      "Ġobvious": 8005,
      "edia": 8006,
      "Ġawareness": 8007,
      "bb": 8008,
      "Ġtiny": 8009,
      "play": 8010,
      "trig": 8011,
      "Ġcycle": 8012,
      "Alt": 8013,
      "Since": 8014,
      "ĠMarket": 8015,
      "Ġluxury": 8016,
      "Ġarrest": 8017,
      "Ġrealized": 8018,
      "Ġstorm": 8019,
      "jected": 8020,
      "cals": 8021,
      "Ġmail": 8022,
      "Ġpoe": 8023,
      "illia": 8024,
      "tells": 8025,
      "Ġshel": 8026,
      "gor": 8027,
      "ĠThrough": 8028,
      "culty": 8029,
      "tary": 8030,
      "Ø§": 8031,
      "Ã³": 8032,
      "Gr": 8033,
      "ĠMrs": 8034,
      "lum": 8035,
      "Ġacknow": 8036,
      "Ġcapable": 8037,
      "Ġmixed": 8038,
      "Ġcriminal": 8039,
      "Ġauthenti": 8040,
      "Ġstands": 8041,
      "Ġimprovement": 8042,
      "Ġcraf": 8043,
      "ĠiPhone": 8044,
      "dle": 8045,
      "ĠBal": 8046,
      "ĠRoman": 8047,
      "Ch": 8048,
      "ĠMexico": 8049,
      "ĠNu": 8050,
      "Ġedition": 8051,
      "aints": 8052,
      "genu": 8053,
      "Ġtast": 8054,
      "Ġtells": 8055,
      "Ġpayments": 8056,
      "spoon": 8057,
      "Ġenforc": 8058,
      "Ġsight": 8059,
      "parati": 8060,
      "Ġworldwide": 8061,
      "Ġemployment": 8062,
      "paration": 8063,
      "Ġmeetings": 8064,
      "Ġcandidates": 8065,
      "Ġagencies": 8066,
      "ching": 8067,
      "Ġintr": 8068,
      "Ġinvestors": 8069,
      "cin": 8070,
      "Ġfeatured": 8071,
      "Many": 8072,
      "Ġprayer": 8073,
      "Ġagents": 8074,
      "llers": 8075,
      "ĠLim": 8076,
      "odge": 8077,
      "Ġment": 8078,
      "Ġexecutive": 8079,
      "Ġeast": 8080,
      "Ġmicro": 8081,
      "eler": 8082,
      "ĠJos": 8083,
      "nished": 8084,
      "Ġsupports": 8085,
      "Ġinspiration": 8086,
      "real": 8087,
      "adow": 8088,
      "Ġfly": 8089,
      "Ġ@": 8090,
      "Ġspaces": 8091,
      "ĠCert": 8092,
      "Ġpleasure": 8093,
      "Fi": 8094,
      "Ġprofit": 8095,
      "Ġreserve": 8096,
      "ĠAcademy": 8097,
      "cians": 8098,
      "Ġkne": 8099,
      "ĠMedia": 8100,
      "Ġfounda": 8101,
      "Ġ<": 8102,
      "Ġfoundat": 8103,
      "itting": 8104,
      "Ġfoundati": 8105,
      "elev": 8106,
      "outine": 8107,
      "Ġfoundation": 8108,
      "comed": 8109,
      "wan": 8110,
      "ĠStand": 8111,
      "Ġhardware": 8112,
      "Ġsearching": 8113,
      "Ġmuseum": 8114,
      "Ġsharp": 8115,
      "Ġserves": 8116,
      "yards": 8117,
      "ype": 8118,
      "Ġamen": 8119,
      "Per": 8120,
      "aga": 8121,
      "Ġdangero": 8122,
      "Ġdangerou": 8123,
      "Ġdangerous": 8124,
      "Ġshirt": 8125,
      "Ġlogo": 8126,
      "Ġexact": 8127,
      "ĠPlus": 8128,
      "elig": 8129,
      "bit": 8130,
      "ĠLy": 8131,
      "ĠThose": 8132,
      "stone": 8133,
      "ĠCode": 8134,
      "Ġatmosphere": 8135,
      "outs": 8136,
      "Ġsoi": 8137,
      "Ġkill": 8138,
      "Ġconcrete": 8139,
      "ĠConference": 8140,
      "ĠMiddle": 8141,
      "Ġcrusher": 8142,
      "Ġunlike": 8143,
      "ceiling": 8144,
      "half": 8145,
      "irly": 8146,
      "Ġexpectations": 8147,
      "atoes": 8148,
      "husia": 8149,
      "Ġrando": 8150,
      "Ġconcentr": 8151,
      "hal": 8152,
      "tall": 8153,
      "Ġenginee": 8154,
      "ĠBra": 8155,
      "Ġhorr": 8156,
      "Ġengineer": 8157,
      "Ġpregna": 8158,
      "Ġinput": 8159,
      "Ġdrugs": 8160,
      "aspect": 8161,
      "llet": 8162,
      "Ġphase": 8163,
      "Ġinches": 8164,
      "routine": 8165,
      "Ġinformed": 8166,
      "rency": 8167,
      "Ġrever": 8168,
      "Ġmixture": 8169,
      "resh": 8170,
      "First": 8171,
      "nition": 8172,
      "Ġofficers": 8173,
      "SP": 8174,
      "ogy": 8175,
      "Another": 8176,
      "Ġmissed": 8177,
      "ĠTherefore": 8178,
      "Ġbath": 8179,
      "view": 8180,
      "Ġunable": 8181,
      "Ġmale": 8182,
      "ĠAdv": 8183,
      "inic": 8184,
      "Ġkeeps": 8185,
      "nsed": 8186,
      "Ġhall": 8187,
      "Ġtrig": 8188,
      "Ġgenu": 8189,
      "Ġelega": 8190,
      "Ġaspect": 8191,
      "Ġmedicine": 8192,
      "acting": 8193,
      "Ġexperime": 8194,
      "relan": 8195,
      "Ġsufficient": 8196,
      "Ġflou": 8197,
      "ĠCam": 8198,
      "Ġboost": 8199,
      "ĠEcono": 8200,
      "ping": 8201,
      "Ġpac": 8202,
      "nied": 8203,
      "Ġlegs": 8204,
      "Ġordered": 8205,
      "Ġproducer": 8206,
      "foli": 8207,
      "diverse": 8208,
      "reland": 8209,
      "owered": 8210,
      "Che": 8211,
      "ĠDia": 8212,
      "Ġflash": 8213,
      "Ġvital": 8214,
      "ngage": 8215,
      "Ġtiss": 8216,
      "Ġsoil": 8217,
      "icit": 8218,
      "idance": 8219,
      "Ġliked": 8220,
      "Ġord": 8221,
      "ĠJim": 8222,
      "Ġbenefi": 8223,
      "Ġprivacy": 8224,
      "Ġenthusia": 8225,
      "Ġfacing": 8226,
      "ĠAnother": 8227,
      "ĠJul": 8228,
      "ĠKeep": 8229,
      "stern": 8230,
      "Ġresidential": 8231,
      "Ġdomestic": 8232,
      "stery": 8233,
      "itis": 8234,
      "quality": 8235,
      "ĠGene": 8236,
      "Ġreput": 8237,
      "acing": 8238,
      "Ġgover": 8239,
      "ĠSeries": 8240,
      "Most": 8241,
      "atal": 8242,
      "fecti": 8243,
      "ticket": 8244,
      "Ġdiverse": 8245,
      "Ġconseque": 8246,
      "Ġnurse": 8247,
      "istry": 8248,
      "ĠBed": 8249,
      "itage": 8250,
      "Ġupload": 8251,
      "Ġpapers": 8252,
      "sick": 8253,
      "Ġobtained": 8254,
      "sse": 8255,
      "related": 8256,
      "Ġtut": 8257,
      "ores": 8258,
      "ĠFire": 8259,
      "Ġpepper": 8260,
      "ĠNor": 8261,
      "ĠInvest": 8262,
      "Ġforest": 8263,
      "Ġmechanism": 8264,
      "ĠStart": 8265,
      "Ġaccessible": 8266,
      "Ġjuic": 8267,
      "Ġstyles": 8268,
      "Ġmemo": 8269,
      "iano": 8270,
      "Ġprotected": 8271,
      "ĠEp": 8272,
      "Ġcra": 8273,
      "Ġroutine": 8274,
      "Ġremained": 8275,
      "Ġelev": 8276,
      "Ġhappening": 8277,
      "avel": 8278,
      "Ġbodies": 8279,
      "Ġelig": 8280,
      "resent": 8281,
      "Ġseg": 8282,
      "Ã¶": 8283,
      "Ġflour": 8284,
      "iry": 8285,
      "Ġlie": 8286,
      "Ġcollected": 8287,
      "ĠGlobal": 8288,
      "Ġcircu": 8289,
      "ffer": 8290,
      "Ġspiritual": 8291,
      "Ġentertainment": 8292,
      "ĠEU": 8293,
      "Ġeveryday": 8294,
      "Ġdiscount": 8295,
      "oston": 8296,
      "wing": 8297,
      "Ġpleased": 8298,
      "ĠSecret": 8299,
      "ĠRef": 8300,
      "iates": 8301,
      "Ġattached": 8302,
      "iser": 8303,
      "Ġdiscussed": 8304,
      "iewer": 8305,
      "Ġalcohol": 8306,
      "Ġconcentra": 8307,
      "Ġscan": 8308,
      "bridge": 8309,
      "ĠCEO": 8310,
      "Ġdestination": 8311,
      "Ġbanks": 8312,
      "eploy": 8313,
      "Ġconcentrat": 8314,
      "Ġnuc": 8315,
      "Ġreturns": 8316,
      "lean": 8317,
      "atter": 8318,
      "uster": 8319,
      "ĠMax": 8320,
      "Ġnewspaper": 8321,
      "ngagement": 8322,
      "affi": 8323,
      "ĠItaly": 8324,
      "Ġintegrated": 8325,
      "sually": 8326,
      "Ġbare": 8327,
      "Ġsubstant": 8328,
      "Ġchallenging": 8329,
      "sired": 8330,
      "ocate": 8331,
      "mal": 8332,
      "asy": 8333,
      "Ġpossibility": 8334,
      "Ġjuice": 8335,
      "Ġqualified": 8336,
      "Ġdeba": 8337,
      "Ġcolumn": 8338,
      "Ġloans": 8339,
      "erem": 8340,
      "holic": 8341,
      "ĠAC": 8342,
      "itz": 8343,
      "Ġsuspe": 8344,
      "EE": 8345,
      "Ġorganized": 8346,
      "tur": 8347,
      "pap": 8348,
      "lk": 8349,
      "Ġast": 8350,
      "eah": 8351,
      "ĠTimes": 8352,
      "ias": 8353,
      "aside": 8354,
      "trail": 8355,
      "ĠMP": 8356,
      "Ġreward": 8357,
      "oney": 8358,
      "phy": 8359,
      "ĠJoe": 8360,
      "Ġmainly": 8361,
      "Ġgarage": 8362,
      "ented": 8363,
      "weight": 8364,
      "ĠFurther": 8365,
      "ionall": 8366,
      "ĠBefore": 8367,
      "oaching": 8368,
      "Ġprev": 8369,
      "disa": 8370,
      "Ġinnovation": 8371,
      "Ġcitizens": 8372,
      "Ġdealing": 8373,
      "Ġnarrow": 8374,
      "ingl": 8375,
      "Ġske": 8376,
      "iven": 8377,
      "ionally": 8378,
      "ĠSpir": 8379,
      "Ġrevealed": 8380,
      "Ġcharged": 8381,
      "ideo": 8382,
      "itionall": 8383,
      "itionally": 8384,
      "Ġdisorder": 8385,
      "ĠWhi": 8386,
      "thesis": 8387,
      "Ġcomparison": 8388,
      "rado": 8389,
      "Ġdust": 8390,
      "Pro": 8391,
      "Ġskill": 8392,
      "ĠAnal": 8393,
      "Ġundert": 8394,
      "coal": 8395,
      "Ġdefense": 8396,
      "Ġunf": 8397,
      "Ġsurprised": 8398,
      "Ġdistinct": 8399,
      "Ġoperato": 8400,
      "ĠCorpor": 8401,
      "Ġfrag": 8402,
      "Ġoperator": 8403,
      "Ġairport": 8404,
      "Ġceiling": 8405,
      "Ġmovies": 8406,
      "amer": 8407,
      "onald": 8408,
      "ĠSet": 8409,
      "Ġrelief": 8410,
      "ĠFestival": 8411,
      "ĠGar": 8412,
      "root": 8413,
      "host": 8414,
      "Ġmagi": 8415,
      "ĠWay": 8416,
      "ĠGi": 8417,
      "pag": 8418,
      "deploy": 8419,
      "vers": 8420,
      "hab": 8421,
      "tomo": 8422,
      "Ġdimen": 8423,
      "Ġ;": 8424,
      "Ġexposure": 8425,
      "Ġprove": 8426,
      "Ġoutstanding": 8427,
      "trop": 8428,
      "qui": 8429,
      "Ġempty": 8430,
      "ĠLibrary": 8431,
      "Ġvibr": 8432,
      "ĠCross": 8433,
      "Ġsucceed": 8434,
      "Ġscheduled": 8435,
      "Ġnutr": 8436,
      "Hi": 8437,
      "Ġdisap": 8438,
      "Ġalign": 8439,
      "ĠEmp": 8440,
      "repreneur": 8441,
      "Ġbottle": 8442,
      "Ġgrass": 8443,
      "Ġterro": 8444,
      "Ġrisks": 8445,
      "Ġreflect": 8446,
      "Ġflood": 8447,
      "Ġduty": 8448,
      "Ġproof": 8449,
      "ousand": 8450,
      "ulo": 8451,
      "inspect": 8452,
      "ples": 8453,
      "Ġpassen": 8454,
      "azz": 8455,
      "Ġora": 8456,
      "engage": 8457,
      "dele": 8458,
      "lift": 8459,
      "ĠDea": 8460,
      "ĠMA": 8461,
      "Ġpersonall": 8462,
      "gifts": 8463,
      "Ġpersonally": 8464,
      "Ġexceed": 8465,
      "van": 8466,
      "Ġpasseng": 8467,
      "Ġpassenge": 8468,
      "ĠSoft": 8469,
      "Ġpassenger": 8470,
      "ckers": 8471,
      "Ġagr": 8472,
      "Ġinterve": 8473,
      "stood": 8474,
      "upt": 8475,
      "Ġid": 8476,
      "nom": 8477,
      "ĠAD": 8478,
      "Ġfavourite": 8479,
      "Ġtur": 8480,
      "Ġtrail": 8481,
      "Ġflexible": 8482,
      "Ġticket": 8483,
      "engagement": 8484,
      "ouc": 8485,
      "La": 8486,
      "Ġmanual": 8487,
      "May": 8488,
      "Ġmirror": 8489,
      "bilities": 8490,
      "lessl": 8491,
      "Ġfigures": 8492,
      "housand": 8493,
      "lessly": 8494,
      "thousand": 8495,
      "Ġaside": 8496,
      "Ġpal": 8497,
      "Ġdisa": 8498,
      "facti": 8499,
      "ributed": 8500,
      "ĠMob": 8501,
      "made": 8502,
      "ivat": 8503,
      "Get": 8504,
      "faction": 8505,
      "Ġchoosing": 8506,
      "Ġshoot": 8507,
      "Ġspr": 8508,
      "Ġknee": 8509,
      "eak": 8510,
      "Ġsick": 8511,
      "Ġstunning": 8512,
      "ĠAuth": 8513,
      "ensed": 8514,
      "oned": 8515,
      "Ġincreases": 8516,
      "Ġliquid": 8517,
      "Ġlifestyle": 8518,
      "Ġexceptional": 8519,
      "Ġhosting": 8520,
      "Ġpp": 8521,
      "Ġoriginall": 8522,
      "Ġfold": 8523,
      "Ġoriginally": 8524,
      "Ġpassing": 8525,
      "ĠCharles": 8526,
      "Pl": 8527,
      "ingly": 8528,
      "Ġnetworks": 8529,
      "Ġmoist": 8530,
      "Ġarts": 8531,
      "govern": 8532,
      "Ġcreates": 8533,
      "rgeo": 8534,
      "Ġvit": 8535,
      "ĠAngeles": 8536,
      "ĠLee": 8537,
      "Ġtall": 8538,
      "oining": 8539,
      "ĠRose": 8540,
      "Ġdeploy": 8541,
      "Ġinstrument": 8542,
      "Ġgifts": 8543,
      "Ġlistening": 8544,
      "Ġblend": 8545,
      "echnic": 8546,
      "ĠKr": 8547,
      "airs": 8548,
      "Ġbasket": 8549,
      "Ġdrawing": 8550,
      "gat": 8551,
      "struction": 8552,
      "ened": 8553,
      "Ġinspect": 8554,
      "ĠTen": 8555,
      "Ġfairly": 8556,
      "Ġbreast": 8557,
      "Ġnormally": 8558,
      "rgeou": 8559,
      "Ġlabor": 8560,
      "pape": 8561,
      "esired": 8562,
      "Cont": 8563,
      "desired": 8564,
      "ĠAdmini": 8565,
      "Ġgrat": 8566,
      "ĠEm": 8567,
      "ĠMor": 8568,
      "rgeous": 8569,
      "ĠPric": 8570,
      "rger": 8571,
      "Ġimplementa": 8572,
      "Ġengage": 8573,
      "Qu": 8574,
      "Ġvirtual": 8575,
      "ĠVirginia": 8576,
      "Ġimplementat": 8577,
      "Ġengagement": 8578,
      "Ġdifferences": 8579,
      "abil": 8580,
      "Ġimplementati": 8581,
      "Ġimplementation": 8582,
      "Ġdropped": 8583,
      "Ġgy": 8584,
      "tip": 8585,
      "Ġregulations": 8586,
      "god": 8587,
      "Ġreplaced": 8588,
      "According": 8589,
      "ĠMedic": 8590,
      "Ġnort": 8591,
      "ĠVan": 8592,
      "Ġearned": 8593,
      "ĠThus": 8594,
      "Ġfeaturing": 8595,
      "tivity": 8596,
      "Ġdates": 8597,
      "Ġresearchers": 8598,
      "page": 8599,
      "class": 8600,
      "Ġstreets": 8601,
      "Ġwave": 8602,
      "Ġvete": 8603,
      "Ġresistance": 8604,
      "Ġdesired": 8605,
      "%.": 8606,
      "Ġfounded": 8607,
      "Ġarchitecture": 8608,
      "Ġfasc": 8609,
      "Ġ!": 8610,
      "ĠPrice": 8611,
      "ĠRead": 8612,
      "Ġveter": 8613,
      "paper": 8614,
      "tivel": 8615,
      "Ġtab": 8616,
      "Ġmoder": 8617,
      "arma": 8618,
      "tively": 8619,
      "ĠRest": 8620,
      "Ġsuperi": 8621,
      "ĠIreland": 8622,
      "Ġgovern": 8623,
      "Ġfishing": 8624,
      "Ġcomponent": 8625,
      "Ġvisited": 8626,
      "Ġbenc": 8627,
      "Ġvul": 8628,
      "Ġsuperio": 8629,
      "Ġachieved": 8630,
      "Ġvaca": 8631,
      "ĠWild": 8632,
      "Ġages": 8633,
      "ocked": 8634,
      "ĠCorpora": 8635,
      "ĠConne": 8636,
      "ecade": 8637,
      "decade": 8638,
      "ĠAutho": 8639,
      "Ġmusical": 8640,
      "Ġdisapp": 8641,
      "Ba": 8642,
      "ocati": 8643,
      "Ġol": 8644,
      "Ġsli": 8645,
      "owel": 8646,
      "Ġhidden": 8647,
      "ĠLabo": 8648,
      "Ġreputa": 8649,
      "Ġsomewhere": 8650,
      "Ġreputat": 8651,
      "Ġreputati": 8652,
      "ngle": 8653,
      "Ġtables": 8654,
      "Ġnoise": 8655,
      "Ġreputation": 8656,
      "division": 8657,
      "Ġtrigg": 8658,
      "Ġmis": 8659,
      "ĠEve": 8660,
      "ĠCorporat": 8661,
      "ocation": 8662,
      "ĠBob": 8663,
      "Ġconsistent": 8664,
      "tched": 8665,
      "Ġlessons": 8666,
      "amma": 8667,
      "ĠPass": 8668,
      "Ġpowder": 8669,
      "Ġja": 8670,
      "Ġindex": 8671,
      "Ġvacat": 8672,
      "osure": 8673,
      "Ġremoval": 8674,
      "Ġaffi": 8675,
      "ĠScr": 8676,
      "Ġretain": 8677,
      "Of": 8678,
      "omet": 8679,
      "illiant": 8680,
      "Ġreferred": 8681,
      "Ġinner": 8682,
      "plan": 8683,
      "ĠMen": 8684,
      "Ġrend": 8685,
      "sia": 8686,
      "ĠLast": 8687,
      "eem": 8688,
      "yesterday": 8689,
      "Ġresulting": 8690,
      "talent": 8691,
      "Ġthousand": 8692,
      "intage": 8693,
      "gaged": 8694,
      "dary": 8695,
      "ĠNE": 8696,
      "Ġshift": 8697,
      "Ġframework": 8698,
      "lecting": 8699,
      "Ġcoc": 8700,
      "och": 8701,
      "eph": 8702,
      "Mar": 8703,
      "Ġsolve": 8704,
      "Ġhum": 8705,
      "Ġdemonstrate": 8706,
      "rement": 8707,
      "tile": 8708,
      "ounting": 8709,
      "inclu": 8710,
      "onu": 8711,
      "Ġattitude": 8712,
      "Ġsavings": 8713,
      "ĠCO": 8714,
      "ĠBrit": 8715,
      "Ġassum": 8716,
      "Ġjusti": 8717,
      "Ġsuddenly": 8718,
      "Ġcrucial": 8719,
      "slands": 8720,
      "Ġfin": 8721,
      "lake": 8722,
      "hreate": 8723,
      "Ġjustic": 8724,
      "ocrati": 8725,
      "ĠArmy": 8726,
      "Ġstim": 8727,
      "Ġdemonstr": 8728,
      "Ġreb": 8729,
      "ocated": 8730,
      "Ġinvestigation": 8731,
      "Ġcrisis": 8732,
      "invent": 8733,
      "oupon": 8734,
      "threate": 8735,
      "Ġguidance": 8736,
      "Ġyesterday": 8737,
      "away": 8738,
      "Ġjustice": 8739,
      "Ġformal": 8740,
      "ifications": 8741,
      "alendar": 8742,
      "ĠGeorg": 8743,
      "Ġviolence": 8744,
      "ĠMid": 8745,
      "ĠOlymp": 8746,
      "olice": 8747,
      "ingu": 8748,
      "Ġwhenever": 8749,
      "Ġclassroom": 8750,
      "oral": 8751,
      "Ġtalent": 8752,
      "SC": 8753,
      "Ġtomo": 8754,
      "ius": 8755,
      "ocratic": 8756,
      "Ġopposite": 8757,
      "Ġdecade": 8758,
      "ĠMartin": 8759,
      "Ġattended": 8760,
      "Ġslo": 8761,
      "Ġkm": 8762,
      "cia": 8763,
      "Ġcolle": 8764,
      "Ġadventure": 8765,
      "dad": 8766,
      "tape": 8767,
      "Ġcos": 8768,
      "Ġattrac": 8769,
      "ĠSP": 8770,
      "catal": 8771,
      "Ġhealthcare": 8772,
      "Ġupcoming": 8773,
      "Wi": 8774,
      "ĠFair": 8775,
      "miss": 8776,
      "Ġattract": 8777,
      "Ġexecut": 8778,
      "Ġmonitor": 8779,
      "Tr": 8780,
      "Ġprinted": 8781,
      "Ġprinciples": 8782,
      "ĠEqu": 8783,
      "tla": 8784,
      "ĠAR": 8785,
      "ĠAtt": 8786,
      "ĠReferences": 8787,
      "ĠAT": 8788,
      "vention": 8789,
      "Ġchat": 8790,
      "izz": 8791,
      "iP": 8792,
      "Ġshops": 8793,
      "thema": 8794,
      "cerem": 8795,
      "Ġfeelings": 8796,
      "kes": 8797,
      "ĠIsl": 8798,
      "afr": 8799,
      "ĠDen": 8800,
      "ĠDan": 8801,
      "cont": 8802,
      "Ġelectrical": 8803,
      "agram": 8804,
      "Ġarrive": 8805,
      "Ġpm": 8806,
      "Ġpassword": 8807,
      "Ġpartnership": 8808,
      "ĠRet": 8809,
      "Ġcollaborati": 8810,
      "golf": 8811,
      "Ġrow": 8812,
      "Ġexpand": 8813,
      "saved": 8814,
      "Have": 8815,
      "âĢĭ": 8816,
      "Ġcollaboration": 8817,
      "Ġlinked": 8818,
      "Ġtested": 8819,
      "ĠProp": 8820,
      "Ġcapture": 8821,
      "Ġmonitoring": 8822,
      "Ġdele": 8823,
      "Ġcertificate": 8824,
      "Ġappeal": 8825,
      "Ġyounge": 8826,
      "Ġdur": 8827,
      "Ġboxe": 8828,
      "Ġyounger": 8829,
      "rves": 8830,
      "Ġassume": 8831,
      "Go": 8832,
      "Ġabse": 8833,
      "Ġstructures": 8834,
      "ĠShar": 8835,
      "Ġwriters": 8836,
      "Ġlit": 8837,
      "enar": 8838,
      "sque": 8839,
      "Ġjudg": 8840,
      "orde": 8841,
      "Ġfighting": 8842,
      "Ġstrategi": 8843,
      "gent": 8844,
      "Ġinvited": 8845,
      "Ġdebat": 8846,
      "ngaged": 8847,
      "Ġdefault": 8848,
      "odo": 8849,
      "ĠProte": 8850,
      "ĠCoast": 8851,
      "Ġvacati": 8852,
      "Last": 8853,
      "ĠChief": 8854,
      "Ġexpenses": 8855,
      "ĠBoston": 8856,
      "ĠFund": 8857,
      "ĠConta": 8858,
      "Ġequipped": 8859,
      "Ġdebate": 8860,
      "Ġann": 8861,
      "Ġsuffering": 8862,
      "Ġmagazine": 8863,
      "Ġstrategic": 8864,
      "ĠFar": 8865,
      "cock": 8866,
      "Ġversions": 8867,
      "ĠCost": 8868,
      "Ġdiscipl": 8869,
      "Ġphe": 8870,
      "ĠReport": 8871,
      "imi": 8872,
      "tup": 8873,
      "rthy": 8874,
      "ipal": 8875,
      "rsing": 8876,
      "vo": 8877,
      "Ġinstitut": 8878,
      "Ġbomb": 8879,
      "Ġcampu": 8880,
      "Ġcompen": 8881,
      "Ġrubb": 8882,
      "Ġhistori": 8883,
      "Ã¤": 8884,
      "ĠContac": 8885,
      "Ġsyn": 8886,
      "Ġloves": 8887,
      "Ġongoing": 8888,
      "Ġwidel": 8889,
      "Ġcampus": 8890,
      "Ġwidely": 8891,
      "Ġattractive": 8892,
      "Ġdozen": 8893,
      "Ġimpa": 8894,
      "Ġlosing": 8895,
      "nerated": 8896,
      "ĠContact": 8897,
      "ĠSafe": 8898,
      "yield": 8899,
      "ĠChildren": 8900,
      "aping": 8901,
      "technic": 8902,
      "ĠEnergy": 8903,
      "ĠLiving": 8904,
      "stituti": 8905,
      "Ġurban": 8906,
      "shes": 8907,
      "ulted": 8908,
      "sir": 8909,
      "Ġpromise": 8910,
      "Ġextent": 8911,
      "berry": 8912,
      "Ġcertified": 8913,
      "rical": 8914,
      "rine": 8915,
      "Ġrepresents": 8916,
      "mpti": 8917,
      "Ġreader": 8918,
      "Ġcerem": 8919,
      "ĠCarolina": 8920,
      "nights": 8921,
      "Ġwatched": 8922,
      "ares": 8923,
      "disp": 8924,
      "agues": 8925,
      "pha": 8926,
      "Ġimproving": 8927,
      "Da": 8928,
      "Ġfacts": 8929,
      "Ġchee": 8930,
      "meri": 8931,
      "ashe": 8932,
      "eder": 8933,
      "mption": 8934,
      "Ġadopt": 8935,
      "angle": 8936,
      "Ġcute": 8937,
      "laid": 8938,
      "Ġwoode": 8939,
      "stitution": 8940,
      "enerated": 8941,
      "Ġstir": 8942,
      "Ġtrend": 8943,
      "Ġwooden": 8944,
      "Ġsaved": 8945,
      "ĠUsing": 8946,
      "Ġanticipa": 8947,
      "unio": 8948,
      "Ġdental": 8949,
      "bar": 8950,
      "ski": 8951,
      "Ġfreque": 8952,
      "Mr": 8953,
      "izon": 8954,
      "Ġtrends": 8955,
      "Add": 8956,
      "ĠYet": 8957,
      "Ġ)": 8958,
      "nip": 8959,
      "htt": 8960,
      "PC": 8961,
      "ĠKey": 8962,
      "abet": 8963,
      "Ġdepth": 8964,
      "hia": 8965,
      "ĠZeal": 8966,
      "ĠCur": 8967,
      "Ġgallery": 8968,
      "ĠForce": 8969,
      "Ġguitar": 8970,
      "FL": 8971,
      "elt": 8972,
      "Ġzone": 8973,
      "Ġrig": 8974,
      "covering": 8975,
      "ĠLittle": 8976,
      "tlan": 8977,
      "REE": 8978,
      "Ġperforming": 8979,
      "Ġeggs": 8980,
      "Ġslot": 8981,
      "Ġintroduce": 8982,
      "sky": 8983,
      "Ġtransporta": 8984,
      "Ġtransportat": 8985,
      "Ġpure": 8986,
      "Ġtransportati": 8987,
      "Ġtransportation": 8988,
      "ĠSometimes": 8989,
      "GB": 8990,
      "Ġcounty": 8991,
      "Ġgolf": 8992,
      "Ġrecording": 8993,
      "Ġcommunicate": 8994,
      "UL": 8995,
      "izer": 8996,
      "ĠBible": 8997,
      "Ġsentence": 8998,
      "tie": 8999,
      "Ġshooting": 9000,
      "Ġdisp": 9001,
      "Ġvendor": 9002,
      "Ġportfoli": 9003,
      "Ġegg": 9004,
      "Ġoffices": 9005,
      "Ġpray": 9006,
      "Ġconfigu": 9007,
      "ĠRepublica": 9008,
      "Ġconsidera": 9009,
      "sary": 9010,
      "gypt": 9011,
      "nato": 9012,
      "GE": 9013,
      "ĠFederal": 9014,
      "imer": 9015,
      "Pre": 9016,
      "Ġmanaging": 9017,
      "Ġconsiderat": 9018,
      "Ġentrance": 9019,
      "Ġtradition": 9020,
      "Ġsomewhat": 9021,
      "ĠColumb": 9022,
      "Ġspecta": 9023,
      "Ġvert": 9024,
      "Ġcatal": 9025,
      "Ġwitness": 9026,
      "Ġbonu": 9027,
      "Ġclothing": 9028,
      "engaged": 9029,
      "ĠRepublican": 9030,
      "unior": 9031,
      "Ġwag": 9032,
      "Ġfrust": 9033,
      "Ġsupervi": 9034,
      "ĠAccess": 9035,
      "rab": 9036,
      "Today": 9037,
      "ĠLuc": 9038,
      "Ġtechnic": 9039,
      "Ġprimarily": 9040,
      "Ġmeals": 9041,
      "Ġbonus": 9042,
      "ĠJef": 9043,
      "Co": 9044,
      "ippe": 9045,
      "Ġinch": 9046,
      "Ġbags": 9047,
      "Ġseriously": 9048,
      "rved": 9049,
      "Ġclar": 9050,
      "tank": 9051,
      "Ġauthors": 9052,
      "ĠZeala": 9053,
      "ĠZealan": 9054,
      "ĠImp": 9055,
      "ĠJewish": 9056,
      "fill": 9057,
      "ĠZealand": 9058,
      "zing": 9059,
      "dra": 9060,
      "ĠGuide": 9061,
      "Ġtip": 9062,
      "afraid": 9063,
      "Ġblow": 9064,
      "meric": 9065,
      "eria": 9066,
      "Ġwet": 9067,
      "Ġdirected": 9068,
      "ĠSouthern": 9069,
      "Ġpreparation": 9070,
      "Ġmagic": 9071,
      "ĠPra": 9072,
      "Ġale": 9073,
      "grat": 9074,
      "pan": 9075,
      "Ġstored": 9076,
      "tland": 9077,
      "Even": 9078,
      "Ġremark": 9079,
      "bour": 9080,
      "Ġreporting": 9081,
      "itan": 9082,
      "ĠList": 9083,
      "Ġfiled": 9084,
      "Ġpersons": 9085,
      "ĠGame": 9086,
      "Ġattacks": 9087,
      "Ġconflic": 9088,
      "VD": 9089,
      "Ġconflict": 9090,
      "Ġfollows": 9091,
      "Ġvoter": 9092,
      "Ġmarg": 9093,
      "Ġdumpster": 9094,
      "ĠThea": 9095,
      "Ġyard": 9096,
      "Ġcraft": 9097,
      "nsition": 9098,
      "ansition": 9099,
      "Over": 9100,
      "ĠYa": 9101,
      "Ġultimately": 9102,
      "Ġpin": 9103,
      "Ġmembership": 9104,
      "ĠExecu": 9105,
      "Ġextens": 9106,
      "rma": 9107,
      "hrase": 9108,
      "Ġdynamic": 9109,
      "Ġbirds": 9110,
      "Ġgenuine": 9111,
      "Ġstreng": 9112,
      "Ġhistoric": 9113,
      "nsl": 9114,
      "Ġcommunications": 9115,
      "Ġwealth": 9116,
      "Ġstain": 9117,
      "Ġworst": 9118,
      "Ġhadn": 9119,
      "stream": 9120,
      "Ġmile": 9121,
      "Ġadds": 9122,
      "Ġengaged": 9123,
      "Ġinvestig": 9124,
      "Ġstruggle": 9125,
      "ston": 9126,
      "Ġmistake": 9127,
      "inqu": 9128,
      "ĠAsh": 9129,
      "Ġsevere": 9130,
      "Ġevol": 9131,
      "ĠTal": 9132,
      "generated": 9133,
      "Ġtaxe": 9134,
      "hew": 9135,
      "ĠTim": 9136,
      "Ġtomorrow": 9137,
      "ccu": 9138,
      "Ġtaxes": 9139,
      "thet": 9140,
      "Ġauthorities": 9141,
      "neither": 9142,
      "df": 9143,
      "More": 9144,
      "holders": 9145,
      "Ġgod": 9146,
      "Ġblind": 9147,
      "Ġattorney": 9148,
      "bat": 9149,
      "inity": 9150,
      "Ġreform": 9151,
      "ĠCul": 9152,
      "urna": 9153,
      "Ġforgo": 9154,
      "Ġobserved": 9155,
      "coupon": 9156,
      "Where": 9157,
      "Ġlib": 9158,
      "Ġprotest": 9159,
      "ĠObama": 9160,
      "Sta": 9161,
      "Ġrene": 9162,
      "Ġfitness": 9163,
      "See": 9164,
      "Ġcrack": 9165,
      "Ġmete": 9166,
      "Ġtube": 9167,
      "Ġfolks": 9168,
      "Ġpink": 9169,
      "Ġbird": 9170,
      "ãĢ": 9171,
      "ransition": 9172,
      "Ġcareful": 9173,
      "transition": 9174,
      "Ġextensi": 9175,
      "Ġafraid": 9176,
      "iament": 9177,
      "Ġshut": 9178,
      "Ġextension": 9179,
      "Ġsuperior": 9180,
      "ras": 9181,
      "Ġcarbon": 9182,
      "Ġcompare": 9183,
      "ssionate": 9184,
      "ĠEnv": 9185,
      "Ġinvent": 9186,
      "Ġvacation": 9187,
      "Ġroot": 9188,
      "erman": 9189,
      "ĠMike": 9190,
      "ĠHenry": 9191,
      "Although": 9192,
      "Ġconscious": 9193,
      "Ġyield": 9194,
      "aya": 9195,
      "mmission": 9196,
      "Ġpermanent": 9197,
      "irement": 9198,
      "icals": 9199,
      "Ġmanufacturers": 9200,
      "Ġicon": 9201,
      "Ġoccasi": 9202,
      "Ġincreasingl": 9203,
      "Ġincreasingly": 9204,
      "nut": 9205,
      "roof": 9206,
      "ĠCir": 9207,
      "nnis": 9208,
      "Ġraw": 9209,
      "arly": 9210,
      "Ġarmy": 9211,
      "Ġagricul": 9212,
      "Ġsending": 9213,
      "Ġpredic": 9214,
      "Ġphotography": 9215,
      "Ġfail": 9216,
      "ĠSanta": 9217,
      "Ġmeter": 9218,
      "ĠLive": 9219,
      "Ġescape": 9220,
      "ĠCommon": 9221,
      "Ġseats": 9222,
      "Ġcalcul": 9223,
      "Ġheads": 9224,
      "ald": 9225,
      "Ġpolitics": 9226,
      "Ġsustainable": 9227,
      "Ġwash": 9228,
      "ĠZe": 9229,
      "Ġmemories": 9230,
      "ĠCook": 9231,
      "ncial": 9232,
      "Ġintelligence": 9233,
      "Ġworkshop": 9234,
      "Ġoran": 9235,
      "Ġtransition": 9236,
      "Ġvisible": 9237,
      "Ġdepends": 9238,
      "Ġconsists": 9239,
      "Ġexistence": 9240,
      "censed": 9241,
      "Ġcoupon": 9242,
      "nz": 9243,
      "Ġunderstood": 9244,
      "ĠArab": 9245,
      "tack": 9246,
      "anks": 9247,
      "Ġneither": 9248,
      "Ġmuscle": 9249,
      "Ġchemical": 9250,
      "cob": 9251,
      "edg": 9252,
      "Ġtone": 9253,
      "Ġinjuries": 9254,
      "ayl": 9255,
      "Ġplatforms": 9256,
      "Ġorang": 9257,
      "Ġvictory": 9258,
      "azil": 9259,
      "TC": 9260,
      "Ġconfirmed": 9261,
      "Ġawarded": 9262,
      "Ġrug": 9263,
      "Ġaccord": 9264,
      "hreat": 9265,
      "oaches": 9266,
      "alty": 9267,
      "Ġhighlight": 9268,
      "threat": 9269,
      "erv": 9270,
      "ĠAlexa": 9271,
      "ĠiP": 9272,
      "pre": 9273,
      "Ġamounts": 9274,
      "ATION": 9275,
      "Ġparameter": 9276,
      "Ġregulat": 9277,
      "ĠDC": 9278,
      "Ġpoker": 9279,
      "build": 9280,
      "Click": 9281,
      "Ġprofesso": 9282,
      "haust": 9283,
      "spected": 9284,
      "Ġdrawn": 9285,
      "Ġprofessor": 9286,
      "Ġmining": 9287,
      "orce": 9288,
      "ĠMill": 9289,
      "Ġregions": 9290,
      "Ġattemp": 9291,
      "ĠHospital": 9292,
      "owne": 9293,
      "Ġscenar": 9294,
      "Ġrepeated": 9295,
      "ĠHam": 9296,
      "ĠEgypt": 9297,
      "Ġalive": 9298,
      "Ġlaptop": 9299,
      "profit": 9300,
      "stance": 9301,
      "ivo": 9302,
      "uba": 9303,
      "val": 9304,
      "loose": 9305,
      "ok": 9306,
      "niel": 9307,
      "Ġbac": 9308,
      "ĠYoung": 9309,
      "Ġcontest": 9310,
      "bury": 9311,
      "Ġestimated": 9312,
      "ucto": 9313,
      "ĠSen": 9314,
      "Ġanyway": 9315,
      "Ġalongside": 9316,
      "tum": 9317,
      "rend": 9318,
      "Ġhoping": 9319,
      "Ġhumans": 9320,
      "Ġmillions": 9321,
      "Ġpun": 9322,
      "ĠInf": 9323,
      "Ġuni": 9324,
      "ommission": 9325,
      "Ġhil": 9326,
      "semi": 9327,
      "ĠDie": 9328,
      "ĠSite": 9329,
      "ĠMich": 9330,
      "ĠFOR": 9331,
      "Ġsatisfaction": 9332,
      "Ġultimate": 9333,
      "coat": 9334,
      "Ġurg": 9335,
      "nnel": 9336,
      "gregat": 9337,
      "ĠSir": 9338,
      "ĠArea": 9339,
      "iamond": 9340,
      "vic": 9341,
      "ulou": 9342,
      "Ġoccasion": 9343,
      "Ġlucky": 9344,
      "lb": 9345,
      "plied": 9346,
      "MP": 9347,
      "plicati": 9348,
[...]
